<pad>	0
<s>	0
</s>	0
<unk>	0
<2modern>	0
<2shakespeare>	0
<extra_id_0>	0
<extra_id_1>	0
<extra_id_2>	0
<extra_id_3>	0
<extra_id_4>	0
<extra_id_5>	0
<extra_id_6>	0
<extra_id_7>	0
<extra_id_8>	0
<extra_id_9>	0
<extra_id_10>	0
<extra_id_11>	0
<extra_id_12>	0
<extra_id_13>	0
<extra_id_14>	0
<extra_id_15>	0
<extra_id_16>	0
<extra_id_17>	0
<extra_id_18>	0
<extra_id_19>	0
<extra_id_20>	0
<extra_id_21>	0
<extra_id_22>	0
<extra_id_23>	0
<extra_id_24>	0
<extra_id_25>	0
<extra_id_26>	0
<extra_id_27>	0
<extra_id_28>	0
<extra_id_29>	0
<extra_id_30>	0
<extra_id_31>	0
<extra_id_32>	0
<extra_id_33>	0
<extra_id_34>	0
<extra_id_35>	0
<extra_id_36>	0
<extra_id_37>	0
<extra_id_38>	0
<extra_id_39>	0
<extra_id_40>	0
<extra_id_41>	0
<extra_id_42>	0
<extra_id_43>	0
<extra_id_44>	0
<extra_id_45>	0
<extra_id_46>	0
<extra_id_47>	0
<extra_id_48>	0
<extra_id_49>	0
<extra_id_50>	0
<extra_id_51>	0
<extra_id_52>	0
<extra_id_53>	0
<extra_id_54>	0
<extra_id_55>	0
<extra_id_56>	0
<extra_id_57>	0
<extra_id_58>	0
<extra_id_59>	0
<extra_id_60>	0
<extra_id_61>	0
<extra_id_62>	0
<extra_id_63>	0
<extra_id_64>	0
<extra_id_65>	0
<extra_id_66>	0
<extra_id_67>	0
<extra_id_68>	0
<extra_id_69>	0
<extra_id_70>	0
<extra_id_71>	0
<extra_id_72>	0
<extra_id_73>	0
<extra_id_74>	0
<extra_id_75>	0
<extra_id_76>	0
<extra_id_77>	0
<extra_id_78>	0
<extra_id_79>	0
<extra_id_80>	0
<extra_id_81>	0
<extra_id_82>	0
<extra_id_83>	0
<extra_id_84>	0
<extra_id_85>	0
<extra_id_86>	0
<extra_id_87>	0
<extra_id_88>	0
<extra_id_89>	0
<extra_id_90>	0
<extra_id_91>	0
<extra_id_92>	0
<extra_id_93>	0
<extra_id_94>	0
<extra_id_95>	0
<extra_id_96>	0
<extra_id_97>	0
<extra_id_98>	0
<extra_id_99>	0
,	-2.81392
▁the	-3.15796
.	-3.34559
▁and	-3.68414
▁of	-3.74131
▁to	-3.95494
▁a	-4.21099
s	-4.39955
▁in	-4.43947
▁I	-4.46203
▁that	-4.62058
;	-4.70329
▁was	-4.79442
▁he	-4.86386
▁it	-4.88412
▁“	-4.90503
’	-4.92766
▁his	-4.94984
▁with	-5.11098
▁you	-5.13
▁for	-5.185
▁had	-5.22125
▁not	-5.2412
▁her	-5.2577
▁be	-5.26429
▁is	-5.27534
▁as	-5.32556
▁him	-5.46162
-	-5.51256
▁my	-5.53968
▁have	-5.55809
▁me	-5.59923
▁on	-5.62284
▁at	-5.62828
▁she	-5.63466
▁they	-5.6514
▁all	-5.67548
:	-5.68578
▁And	-5.6904
▁which	-5.69728
—	-5.74776
▁by	-5.78486
▁but	-5.78698
▁The	-5.79147
▁this	-5.79797
▁from	-5.79817
'	-5.7994
▁them	-5.85958
▁said	-5.87059
t	-5.90312
▁were	-5.91115
.”	-5.93471
▁so	-6.00061
▁their	-6.02769
▁one	-6.03382
?	-6.08792
▁will	-6.1084
▁,	-6.10876
▁.	-6.11318
▁shall	-6.13581
▁are	-6.16147
▁would	-6.18142
,”	-6.20423
▁an	-6.2046
d	-6.22431
▁no	-6.23004
!	-6.23365
▁out	-6.23725
▁we	-6.25126
▁there	-6.25531
▁or	-6.28684
▁your	-6.30184
▁He	-6.30298
▁up	-6.30931
▁when	-6.32957
▁man	-6.35349
▁been	-6.35946
▁upon	-6.37137
▁do	-6.40266
▁if	-6.45225
I	-6.49189
▁who	-6.49621
▁more	-6.4988
▁into	-6.50116
▁could	-6.50507
▁what	-6.51025
▁unto	-6.51974
▁But	-6.59149
▁now	-6.63194
?”	-6.65194
▁thou	-6.65669
▁did	-6.67442
▁It	-6.68395
▁like	-6.70045
▁time	-6.71458
ing	-6.73458
▁than	-6.75714
▁about	-6.77364
▁	-6.78011
▁then	-6.78409
▁know	-6.79636
▁before	-6.80135
▁our	-6.81146
▁come	-6.81791
▁thy	-6.8339
ed	-6.83537
▁very	-6.83798
▁us	-6.84932
▁see	-6.8552
▁good	-6.85522
▁little	-6.85689
▁some	-6.86315
▁came	-6.86604
▁can	-6.8703
▁any	-6.87872
▁She	-6.89468
▁down	-6.89567
!”	-6.90073
▁should	-6.92125
▁other	-6.92383
▁over	-6.93911
▁go	-6.94865
▁made	-6.95482
▁God	-6.97898
c	-6.98441
▁thee	-6.98817
▁day	-7.01322
▁say	-7.04001
▁great	-7.04417
▁LORD	-7.04922
▁am	-7.05072
▁must	-7.05352
▁two	-7.05831
▁only	-7.06285
▁these	-7.07078
▁people	-7.07743
▁men	-7.08164
▁such	-7.09672
▁again	-7.10676
▁way	-7.10778
▁A	-7.11639
▁"	-7.11821
▁may	-7.12825
▁make	-7.1357
ll	-7.13979
▁never	-7.14449
▁much	-7.14809
▁after	-7.15931
▁own	-7.16161
▁hand	-7.16164
▁might	-7.17009
▁well	-7.17238
▁has	-7.17872
▁ye	-7.18924
▁went	-7.20165
ly	-7.21484
▁away	-7.23673
▁first	-7.24485
▁even	-7.26019
▁here	-7.26138
▁back	-7.26182
▁house	-7.26727
▁old	-7.27608
▁Mr	-7.28511
▁too	-7.28891
▁himself	-7.29935
▁think	-7.30007
▁For	-7.31592
▁every	-7.32116
▁long	-7.32667
▁eyes	-7.32713
▁In	-7.3293
▁where	-7.33577
▁its	-7.34379
▁things	-7.36195
[	-7.36265
▁how	-7.36718
▁take	-7.37149
▁against	-7.38679
▁through	-7.38981
▁life	-7.40324
▁Then	-7.40885
er	-7.40898
▁being	-7.4127
▁They	-7.43302
▁let	-7.4391
)	-7.44131
▁thought	-7.45281
▁those	-7.4529
m	-7.46481
▁That	-7.46743
▁You	-7.4688
▁without	-7.47366
▁What	-7.47412
▁saw	-7.48761
▁&	-7.49213
▁head	-7.4926
▁yet	-7.49402
▁face	-7.49408
▁(	-7.4952
▁To	-7.49591
▁ever	-7.5057
▁most	-7.51797
▁thing	-7.51831
▁heart	-7.52093
▁There	-7.52105
▁off	-7.52468
e	-7.52624
▁put	-7.52652
▁give	-7.52978
▁king	-7.53416
▁place	-7.53653
▁many	-7.54101
▁love	-7.54196
▁just	-7.54926
▁still	-7.55927
▁nothing	-7.55934
▁last	-7.55992
▁hath	-7.56663
▁father	-7.58896
▁If	-7.59134
▁night	-7.59378
▁This	-7.61326
▁also	-7.62623
▁found	-7.63409
obs	-7.63459
▁another	-7.63513
▁don	-7.64128
▁tell	-7.64955
▁As	-7.65575
▁same	-7.65705
▁O	-7.6575
▁because	-7.65779
▁get	-7.66038
▁right	-7.66561
▁took	-7.66659
▁done	-7.67087
▁son	-7.67278
▁heard	-7.68264
▁[	-7.68378
▁under	-7.68436
▁?	-7.68575
▁though	-7.71494
▁while	-7.72053
▁name	-7.72209
▁When	-7.72539
▁We	-7.7254
0	-7.73297
▁left	-7.73863
▁seemed	-7.74029
y	-7.7406
▁mind	-7.74507
▁young	-7.74583
▁looked	-7.74651
▁land	-7.74678
▁So	-7.75179
▁look	-7.75237
▁children	-7.75368
▁world	-7.76317
▁once	-7.76429
▁Mrs	-7.76484
▁Lord	-7.76535
▁three	-7.77139
a	-7.77462
▁woman	-7.7836
▁side	-7.78891
re	-7.79314
3	-7.79348
and	-7.79648
4	-7.80389
▁among	-7.80646
▁going	-7.81099
▁got	-7.84244
▁always	-7.85459
n	-7.86223
▁words	-7.86324
▁set	-7.87135
▁moment	-7.87684
ve	-7.8822
▁hands	-7.88381
▁whom	-7.89598
▁nor	-7.90659
▁word	-7.91049
▁door	-7.9107
▁far	-7.91303
▁work	-7.91361
▁seen	-7.91474
▁years	-7.92287
▁Israel	-7.92775
2	-7.93146
▁better	-7.93341
▁turned	-7.93406
▁Now	-7.93823
▁brought	-7.94154
5	-7.94848
▁mother	-7.95021
1	-7.9524
▁find	-7.95268
▁knew	-7.9528
▁days	-7.95462
▁My	-7.96307
▁hear	-7.96522
▁half	-7.97367
▁sir	-7.9744
▁light	-7.98033
▁death	-7.9818
▁voice	-7.98247
▁part	-7.98512
▁room	-7.99086
▁told	-7.99117
▁enough	-7.99165
▁speak	-7.9918
▁end	-7.99548
6	-7.99576
▁stood	-8.00047
▁saying	-8.00097
▁home	-8.00818
▁something	-8.01895
▁both	-8.02217
▁herself	-8.02677
▁myself	-8.02693
▁began	-8.03589
▁earth	-8.03633
▁between	-8.03795
▁each	-8.03851
▁new	-8.04276
▁called	-8.05469
You	-8.05477
▁His	-8.05623
▁pass	-8.05646
▁asked	-8.06258
▁soon	-8.06385
▁No	-8.06448
▁morning	-8.07462
▁At	-8.07699
▁together	-8.07946
▁gave	-8.08942
▁quite	-8.09039
▁’	-8.09328
8	-8.09503
▁few	-8.09698
▁dead	-8.09958
▁round	-8.10153
▁keep	-8.10686
▁gone	-8.115
▁mine	-8.11532
▁poor	-8.11893
▁felt	-8.1209
in	-8.12483
▁forth	-8.14187
r	-8.15493
▁until	-8.1551
▁whole	-8.1569
."	-8.15724
▁want	-8.15824
▁water	-8.16623
7	-8.16728
▁lay	-8.16936
ness	-8.17421
9	-8.1752
st	-8.19212
es	-8.19247
▁wife	-8.19251
▁till	-8.19366
▁having	-8.20008
▁lord	-8.20643
It	-8.20647
▁thus	-8.2131
▁therefore	-8.21753
▁fire	-8.21898
▁full	-8.22126
▁course	-8.23069
▁girl	-8.23144
▁high	-8.23245
▁hundred	-8.23314
▁Miss	-8.23899
▁How	-8.24109
▁almost	-8.24311
▁un	-8.2466
▁bring	-8.25949
▁themselves	-8.26348
▁shalt	-8.26495
▁rather	-8.26496
▁cried	-8.26545
▁since	-8.26576
▁white	-8.26602
▁With	-8.26787
▁whose	-8.26893
▁cannot	-8.26913
▁anything	-8.27187
▁power	-8.28015
▁Of	-8.28094
▁within	-8.28161
▁matter	-8.28596
3],	-8.30058
▁!	-8.30228
▁rest	-8.30431
the	-8.30721
▁sure	-8.30737
▁feet	-8.30768
▁child	-8.31228
▁air	-8.31236
▁best	-8.31413
▁taken	-8.31474
▁friend	-8.31508
▁sent	-8.31836
▁given	-8.32444
▁kind	-8.32928
▁true	-8.33033
▁hope	-8.33057
▁city	-8.33198
▁CHAPTER	-8.33302
▁toward	-8.33489
▁sea	-8.33526
▁fear	-8.33644
▁blood	-8.33948
▁body	-8.34015
▁sat	-8.34235
▁call	-8.34739
▁leave	-8.34767
▁Anne	-8.34898
▁Why	-8.35027
▁soul	-8.35652
▁Let	-8.36008
▁brother	-8.36162
▁passed	-8.36245
▁next	-8.36997
▁open	-8.37335
▁behind	-8.37379
▁hour	-8.37553
▁All	-8.37966
▁sight	-8.3807
▁near	-8.38159
▁believe	-8.38315
▁above	-8.38453
▁along	-8.38519
▁thousand	-8.38574
▁answered	-8.38703
.]	-8.38864
▁'	-8.39496
▁black	-8.39547
▁alone	-8.39706
▁hast	-8.4033
▁dear	-8.40994
▁live	-8.41056
▁turn	-8.41601
it	-8.42029
What	-8.42606
▁neither	-8.42809
The	-8.42811
▁o	-8.43613
▁ground	-8.43616
▁country	-8.43833
Yes	-8.43928
▁help	-8.43946
▁behold	-8.44552
,"	-8.44771
th	-8.45161
▁replied	-8.45772
▁less	-8.46721
▁money	-8.46941
▁four	-8.47018
”	-8.4703
▁small	-8.47317
Well	-8.47532
▁looking	-8.48378
▁feel	-8.48397
▁fell	-8.48862
S	-8.4913
▁art	-8.49217
▁mean	-8.49267
▁wish	-8.49504
▁de	-8.49858
A	-8.49976
Oh	-8.50627
▁year	-8.5087
eth	-8.50885
▁coming	-8.50914
▁Sir	-8.51426
▁does	-8.51781
▁point	-8.51842
▁Tarzan	-8.51944
▁indeed	-8.52964
▁why	-8.53228
▁return	-8.53593
▁present	-8.53632
▁eye	-8.55281
No	-8.55408
▁husband	-8.5585
▁known	-8.55904
▁‘	-8.56345
▁says	-8.56488
▁stand	-8.56522
▁certain	-8.56766
▁others	-8.5714
▁By	-8.57265
▁women	-8.57279
▁heaven	-8.5746
▁none	-8.57708
▁friends	-8.57816
▁else	-8.57913
▁strange	-8.58148
al	-8.58175
▁boy	-8.58253
▁bed	-8.58254
▁On	-8.58415
▁One	-8.58483
▁lost	-8.58494
▁sons	-8.58547
▁hold	-8.58795
▁King	-8.5912
▁daughter	-8.59279
▁law	-8.59479
▁Thou	-8.59511
▁towards	-8.59552
But	-8.59845
▁thine	-8.59866
▁sort	-8.60101
▁times	-8.60317
▁five	-8.60868
▁reason	-8.60956
And	-8.61028
▁Her	-8.61238
▁die	-8.61315
▁answer	-8.61363
▁second	-8.61408
▁according	-8.61758
▁dark	-8.62267
▁least	-8.62276
▁person	-8.62459
▁itself	-8.62596
▁manner	-8.62882
▁sun	-8.62916
that	-8.63005
▁strong	-8.63007
▁truth	-8.63198
▁kept	-8.63232
▁saith	-8.63655
▁really	-8.63911
▁returned	-8.6395
▁ask	-8.64853
▁close	-8.6498
▁talk	-8.65219
▁lady	-8.65351
▁ten	-8.65722
est	-8.65969
▁eat	-8.66341
▁use	-8.66473
▁fall	-8.66755
▁read	-8.66973
▁large	-8.67002
▁business	-8.67245
▁Here	-8.67379
or	-8.6742
▁bear	-8.67721
▁fair	-8.6791
▁mouth	-8.6804
▁around	-8.6818
▁sound	-8.684
▁twenty	-8.69377
▁already	-8.69446
▁Who	-8.69555
▁cut	-8.71019
▁rose	-8.71489
3];	-8.71654
▁evil	-8.71885
▁evening	-8.71963
▁longer	-8.72638
▁hard	-8.72712
▁however	-8.72791
▁cause	-8.73148
but	-8.73214
▁case	-8.73215
▁short	-8.7338
▁master	-8.73487
▁perhaps	-8.73575
▁care	-8.74043
▁either	-8.7408
▁means	-8.74159
man	-8.74554
▁often	-8.75225
▁won	-8.75244
▁didn	-8.75298
▁peace	-8.75327
▁family	-8.75752
▁spirit	-8.75882
▁red	-8.76137
▁Come	-8.76318
]	-8.76351
▁cast	-8.76628
▁low	-8.76738
▁letter	-8.76748
▁arms	-8.76749
▁Well	-8.77507
▁gold	-8.77614
▁Do	-8.77778
▁fact	-8.7808
▁become	-8.78316
▁sweet	-8.78428
▁nature	-8.78525
▁happy	-8.78648
▁fellow	-8.78666
▁ought	-8.78693
▁hair	-8.78917
▁understand	-8.78985
▁John	-8.80064
▁question	-8.8008
▁ready	-8.80325
▁able	-8.80711
en	-8.80808
▁table	-8.80979
▁held	-8.80983
▁show	-8.81322
▁whether	-8.81376
▁arm	-8.81477
▁followed	-8.81582
▁tree	-8.81619
▁From	-8.81975
▁across	-8.82037
▁meet	-8.82495
ers	-8.83386
p	-8.83402
▁walk	-8.83548
▁war	-8.83619
▁making	-8.8366
▁suddenly	-8.84089
▁became	-8.84186
▁sleep	-8.84346
▁everything	-8.84441
▁sword	-8.84546
▁entered	-8.84589
▁general	-8.8463
▁state	-8.84715
▁used	-8.84929
▁David	-8.85097
▁order	-8.85199
▁M	-8.85336
▁window	-8.8557
▁Jesus	-8.85598
▁thereof	-8.86491
▁run	-8.8655
▁laid	-8.86571
▁past	-8.86898
▁opened	-8.86962
▁save	-8.87002
to	-8.87124
▁deep	-8.87314
▁doubt	-8.87486
▁remember	-8.87787
▁pretty	-8.88417
▁Enter	-8.88423
▁town	-8.88627
▁Oh	-8.88872
▁cold	-8.89105
an	-8.89141
▁human	-8.89248
b	-8.89262
▁several	-8.89584
▁possible	-8.89794
▁fine	-8.89797
▁seem	-8.9041
▁Thus	-8.9082
▁idea	-8.91107
▁These	-8.91108
▁trees	-8.91133
▁forward	-8.91227
▁spoke	-8.91625
▁wall	-8.91807
▁sister	-8.9191
▁suppose	-8.92135
▁Where	-8.92255
▁wind	-8.92864
▁th	-8.92946
▁bad	-8.92948
▁sense	-8.93105
▁Go	-8.93107
▁Tom	-8.93189
▁hours	-8.93389
He	-8.93452
▁free	-8.93523
▁glad	-8.93526
▁appeared	-8.93527
▁need	-8.94162
▁yourself	-8.94203
▁walked	-8.9421
▁foot	-8.94334
▁stay	-8.94754
▁strength	-8.94773
▁V	-8.94956
▁horse	-8.95118
▁book	-8.95233
▁Jerusalem	-8.95356
▁reached	-8.95566
▁Be	-8.9586
▁beyond	-8.96044
▁feeling	-8.9625
▁Not	-8.96338
▁form	-8.96366
▁green	-8.96638
▁cry	-8.96696
▁pray	-8.97137
▁six	-8.97165
That	-8.97226
em	-8.97559
▁carried	-8.97731
▁continued	-8.97985
▁Or	-8.98106
▁comes	-8.98458
▁living	-8.98542
▁beautiful	-8.98563
i	-8.98626
▁mighty	-8.98748
▁ill	-8.9897
▁S	-8.99145
▁THE	-8.99271
l	-8.99488
▁met	-8.99522
▁joy	-8.99539
▁wild	-8.99739
▁further	-8.99753
▁change	-9.00037
▁big	-9.0009
▁afraid	-9.00148
▁servant	-9.00389
▁wrong	-9.00547
▁wanted	-9.00976
▁lips	-9.01213
▁After	-9.0125
▁subject	-9.01477
▁seven	-9.01488
▁doing	-9.01613
▁play	-9.01654
as	-9.01852
▁brethren	-9.02184
M	-9.0255
▁different	-9.02953
▁chance	-9.0316
▁sometimes	-9.03857
▁flesh	-9.03928
on	-9.03929
▁Moses	-9.0398
▁late	-9.04045
▁added	-9.04065
▁number	-9.04093
▁send	-9.04249
▁pleasure	-9.04317
▁drink	-9.04323
▁silence	-9.0437
];	-9.0437
N	-9.04669
▁ran	-9.04818
he	-9.0503
▁thoughts	-9.05136
▁river	-9.05354
O	-9.05904
▁holy	-9.06379
▁account	-9.06457
▁taking	-9.06578
▁trouble	-9.0659
▁road	-9.06609
▁follow	-9.0691
▁led	-9.06926
▁tried	-9.07519
Why	-9.08
▁view	-9.08074
▁Therefore	-9.08117
▁distance	-9.08226
▁Will	-9.08342
▁deal	-9.08618
▁knowledge	-9.08784
▁Behold	-9.08842
▁interest	-9.08862
o	-9.09125
▁battle	-9.09251
▁noble	-9.09289
▁honour	-9.09598
▁Which	-9.09689
01	-9.10067
▁breath	-9.10264
▁thinking	-9.10285
▁lie	-9.10403
▁beside	-9.10523
▁doth	-9.10678
▁minutes	-9.1072
▁faith	-9.10742
▁common	-9.10781
less	-9.10801
▁heavy	-9.10876
▁drew	-9.10931
▁Yet	-9.11005
▁broken	-9.11306
▁street	-9.1144
▁purpose	-9.11576
We	-9.11948
▁garden	-9.12177
▁beneath	-9.12195
▁hardly	-9.12245
▁ship	-9.12285
▁front	-9.12311
▁story	-9.12374
▁spoken	-9.12419
▁remained	-9.12563
▁sin	-9.1262
▁field	-9.12736
▁kill	-9.12747
▁please	-9.1306
▁desire	-9.13105
▁gentleman	-9.1318
▁servants	-9.13226
▁Christ	-9.13472
▁pay	-9.13534
▁company	-9.13653
▁fight	-9.13873
▁died	-9.14069
▁offering	-9.14249
▁presence	-9.14477
▁standing	-9.14632
▁happened	-9.14649
▁self	-9.14837
▁instant	-9.14879
▁except	-9.15011
▁try	-9.15199
▁darkness	-9.15357
▁Judah	-9.15549
tis	-9.15729
▁Mary	-9.1592
▁seems	-9.16232
for	-9.16371
▁clear	-9.16529
▁church	-9.1654
▁OF	-9.16629
▁wait	-9.16819
▁age	-9.17004
▁spake	-9.17055
▁line	-9.17232
us	-9.17233
▁priest	-9.17294
▁filled	-9.17534
▁Your	-9.17624
▁written	-9.17789
▁struck	-9.17793
le	-9.18038
▁received	-9.18432
▁lived	-9.18533
▁wonder	-9.18609
▁watch	-9.18679
—”	-9.18805
▁caught	-9.19142
▁couldn	-9.19178
▁later	-9.19584
▁sit	-9.19601
▁stone	-9.19767
▁ago	-9.19822
▁Captain	-9.19831
▁floor	-9.20205
▁beginning	-9.20268
▁fool	-9.20372
?"	-9.20416
▁attention	-9.20449
▁glory	-9.20454
▁gate	-9.20699
▁re	-9.20753
▁youth	-9.20816
▁length	-9.2119
▁break	-9.21462
▁ears	-9.21756
▁tears	-9.21781
▁moved	-9.21931
▁public	-9.22179
▁Father	-9.22429
▁stopped	-9.22553
▁force	-9.2267
is	-9.22679
▁commanded	-9.23016
▁moon	-9.23085
▁plain	-9.2314
▁smile	-9.23165
▁An	-9.23205
▁certainly	-9.23336
▁seeing	-9.23361
you	-9.23386
▁creature	-9.23532
▁tongue	-9.23533
▁secret	-9.23718
▁chief	-9.23816
▁enemy	-9.23905
▁party	-9.23993
able	-9.24116
There	-9.24145
▁England	-9.24166
▁exclaimed	-9.24172
▁single	-9.24257
▁wise	-9.24372
▁real	-9.24461
If	-9.24655
▁yea	-9.24712
▁early	-9.24825
▁married	-9.2515
▁Yes	-9.25468
am	-9.25498
▁loved	-9.25599
▁blue	-9.25616
▁midst	-9.25671
▁straight	-9.25724
!—	-9.25737
▁during	-9.25744
▁escape	-9.25809
▁corner	-9.25957
▁necessary	-9.26074
▁top	-9.26082
"	-9.26092
▁service	-9.26184
▁sitting	-9.26215
▁silver	-9.26498
▁act	-9.26514
▁seek	-9.26651
▁third	-9.27073
▁makes	-9.2746
▁court	-9.27563
▁KING	-9.27683
▁sake	-9.27689
▁getting	-9.2778
▁fathers	-9.27895
g	-9.28482
▁direction	-9.28648
▁Egypt	-9.28762
▁Good	-9.29228
▁quiet	-9.29835
▁slowly	-9.29906
▁English	-9.29916
▁bound	-9.30052
▁quickly	-9.30062
▁figure	-9.30186
be	-9.30246
▁fast	-9.30395
▁judgment	-9.30458
▁natural	-9.30462
▁worth	-9.30624
▁wood	-9.30666
▁born	-9.30667
▁wine	-9.30696
▁ear	-9.30871
▁raised	-9.31585
▁grave	-9.31596
ment	-9.31598
▁rich	-9.31611
ity	-9.31751
ic	-9.31815
▁wicked	-9.31862
▁paper	-9.31881
at	-9.31887
▁sudden	-9.32071
K	-9.32278
How	-9.32626
▁wouldn	-9.32755
ation	-9.329
▁week	-9.33324
▁beauty	-9.33381
▁bread	-9.33576
▁worse	-9.33597
▁immediately	-9.33618
room	-9.3375
u	-9.33758
like	-9.33941
▁ape	-9.34328
▁write	-9.34417
▁easy	-9.34461
▁following	-9.34469
▁meant	-9.34642
▁village	-9.34689
▁Some	-9.34856
▁Even	-9.35011
▁greater	-9.35207
▁effect	-9.35245
▁nearly	-9.35377
Lat	-9.3542
▁carry	-9.35434
▁terrible	-9.35476
▁London	-9.35477
▁dream	-9.35744
▁turning	-9.35781
▁C	-9.36131
▁danger	-9.36174
▁object	-9.36203
▁opinion	-9.36318
▁trust	-9.36586
▁government	-9.36993
▁mercy	-9.3717
C	-9.37285
▁shut	-9.37306
▁talking	-9.37411
▁minute	-9.37594
if	-9.37781
▁places	-9.37817
▁Rachel	-9.37918
▁offer	-9.38042
▁grew	-9.3814
▁knows	-9.38186
▁enter	-9.38365
▁Marius	-9.38666
ion	-9.38759
▁marry	-9.38778
▁bright	-9.38787
▁started	-9.38817
▁kingdom	-9.39046
▁gathered	-9.39099
▁laugh	-9.39194
ling	-9.3921
▁grace	-9.39793
▁miles	-9.39832
My	-9.39903
▁dinner	-9.40034
▁position	-9.4005
:—	-9.40061
▁perfect	-9.40144
▁en	-9.40661
▁enemies	-9.40722
▁character	-9.40732
el	-9.41199
▁month	-9.41208
▁stop	-9.41315
▁wished	-9.4176
▁journey	-9.41928
▁cities	-9.41963
▁news	-9.42021
▁school	-9.42066
▁beast	-9.42159
▁afternoon	-9.42275
▁speaking	-9.42298
▁sky	-9.42354
▁remain	-9.42457
▁stranger	-9.42697
▁chair	-9.4278
▁ways	-9.43038
▁instead	-9.43142
▁judge	-9.43305
▁gentle	-9.438
▁jungle	-9.43849
▁marriage	-9.4393
▁comfort	-9.4417
▁months	-9.44226
▁iron	-9.44393
▁fifty	-9.44488
▁closed	-9.44613
▁sign	-9.44632
▁waiting	-9.44641
▁wide	-9.44798
02	-9.44896
▁forest	-9.45012
▁duty	-9.45048
▁Jean	-9.45049
▁charge	-9.45142
▁below	-9.45303
▁serve	-9.45305
▁piece	-9.45379
▁rain	-9.45436
▁captain	-9.45445
▁Our	-9.45588
▁food	-9.45692
▁hot	-9.45834
▁T	-9.45858
▁touch	-9.45859
▁begin	-9.46081
▁clothes	-9.462
▁neck	-9.46231
▁tone	-9.46366
▁happiness	-9.46504
▁lose	-9.46543
▁fresh	-9.46568
▁shame	-9.46705
▁placed	-9.46732
▁outside	-9.46748
▁silent	-9.46921
▁spot	-9.47045
▁reach	-9.47058
▁heads	-9.4707
▁lives	-9.47124
▁receive	-9.47151
▁dwell	-9.4725
▁particular	-9.47268
▁command	-9.47394
She	-9.47554
▁camp	-9.47728
▁pale	-9.47799
▁laughed	-9.47849
▁learn	-9.47985
▁gods	-9.48024
▁note	-9.48218
▁Marilla	-9.48317
▁noise	-9.48378
▁Alice	-9.48483
▁Lady	-9.48569
▁thirty	-9.48654
▁Their	-9.48742
clock	-9.49044
T	-9.49238
▁shoulder	-9.49266
▁sorry	-9.49315
▁vain	-9.49416
▁concerning	-9.49599
▁soft	-9.49661
▁ain	-9.49761
P	-9.49822
▁boat	-9.49885
ch	-9.49896
day	-9.49908
▁Have	-9.49927
▁pain	-9.49935
▁visit	-9.49949
▁devil	-9.50018
▁appearance	-9.50132
de	-9.50615
▁broke	-9.50664
▁appear	-9.50738
il	-9.50911
▁latter	-9.51022
▁lead	-9.51025
▁hill	-9.51082
▁hearts	-9.51105
▁learned	-9.51115
▁fallen	-9.513
▁waters	-9.51357
k	-9.51658
▁Prince	-9.51678
▁entirely	-9.51904
▁music	-9.51932
▁girls	-9.51964
▁respect	-9.52114
▁walls	-9.52275
▁shadow	-9.52311
▁step	-9.52378
▁doctor	-9.52563
▁bottom	-9.52719
▁meat	-9.5272
▁Jane	-9.52923
▁dropped	-9.52989
▁hat	-9.53315
▁Bathsheba	-9.53427
▁praise	-9.53435
▁former	-9.53443
▁Thea	-9.53476
▁nations	-9.5351
▁move	-9.5353
▁impossible	-9.53686
▁covered	-9.53753
▁usual	-9.53788
▁surprise	-9.53929
▁State	-9.53967
▁lifted	-9.54002
▁bit	-9.54235
▁pleasant	-9.5425
▁showed	-9.54344
▁leaving	-9.5439
▁wisdom	-9.54478
▁sad	-9.54528
▁army	-9.54655
▁Thy	-9.54672
D	-9.54679
▁fortune	-9.5468
▁dog	-9.54881
▁works	-9.54944
▁St	-9.54992
▁books	-9.55093
▁plan	-9.55105
▁promise	-9.5513
▁whatever	-9.55223
▁alive	-9.55345
▁Fanny	-9.55368
▁rise	-9.55388
▁safe	-9.55408
▁quick	-9.5553
▁sick	-9.55597
They	-9.55651
▁States	-9.5571
▁occasion	-9.5572
Do	-9.55756
▁priests	-9.5581
▁summer	-9.55991
▁believed	-9.56008
▁fruit	-9.56031
▁proud	-9.56349
▁yellow	-9.56437
▁New	-9.56443
▁sought	-9.5653
▁anger	-9.56754
▁D	-9.56855
▁Valjean	-9.56891
▁Elnora	-9.57076
▁deliver	-9.57139
▁France	-9.57163
▁killed	-9.5724
▁dare	-9.57295
▁steps	-9.5745
▁mad	-9.57465
▁Jurgis	-9.57528
▁flowers	-9.57579
▁draw	-9.57604
U	-9.57625
no	-9.57659
▁simple	-9.5813
▁dress	-9.58318
▁boys	-9.58469
▁trying	-9.5853
▁broad	-9.58562
▁conversation	-9.58624
▁talked	-9.58708
▁forget	-9.58785
▁Nor	-9.58788
▁shook	-9.58809
▁destroy	-9.58835
▁horses	-9.59051
▁sorrow	-9.59119
▁twelve	-9.59363
▁feelings	-9.59434
▁French	-9.59534
ian	-9.59566
▁thank	-9.59793
Ah	-9.59827
▁false	-9.59849
▁Lapham	-9.59921
▁spring	-9.59994
▁delivered	-9.60123
▁Caesar	-9.60389
B	-9.60409
▁forty	-9.60579
▁bare	-9.60599
▁Jacob	-9.60765
▁pity	-9.60772
▁Re	-9.60892
▁uncle	-9.60943
▁speech	-9.61008
▁expected	-9.61042
▁huge	-9.61263
▁spirits	-9.61351
▁presently	-9.61544
▁wilderness	-9.61614
▁De	-9.61669
um	-9.61817
▁blow	-9.62
▁spread	-9.62048
men	-9.62146
h	-9.62185
ry	-9.6219
▁cross	-9.62271
▁warm	-9.62306
▁angry	-9.62471
▁Heaven	-9.62707
▁surely	-9.62747
▁Shall	-9.62781
▁glass	-9.62808
▁honest	-9.62931
▁future	-9.6295
▁suffer	-9.62955
▁perfectly	-9.63042
▁office	-9.63045
w	-9.63093
▁altar	-9.6318
▁Are	-9.63189
▁whale	-9.63202
▁drawn	-9.63295
▁giving	-9.63346
▁dry	-9.63416
▁Peter	-9.63438
!"	-9.63622
▁looks	-9.63664
▁thick	-9.63731
▁kings	-9.63757
Tis	-9.63765
ah	-9.63803
▁hurt	-9.63833
▁merely	-9.64081
▁ancient	-9.64359
▁changed	-9.64687
ur	-9.647
▁seat	-9.64747
▁lest	-9.64758
▁fit	-9.64817
▁letters	-9.64889
▁middle	-9.64891
▁probably	-9.64993
▁circumstances	-9.65056
▁hate	-9.6507
▁passing	-9.65076
▁Queen	-9.65188
▁discovered	-9.65443
▁eight	-9.65448
▁goes	-9.65528
▁lies	-9.6555
▁lion	-9.65555
▁scene	-9.6564
▁notice	-9.65809
▁terror	-9.65847
▁edge	-9.65856
▁wilt	-9.65876
▁likely	-9.65892
▁seed	-9.65929
▁P	-9.66079
▁v	-9.66121
▁prove	-9.66196
Now	-9.66279
▁caused	-9.66282
▁worthy	-9.66338
▁weight	-9.66546
▁aside	-9.6665
▁watched	-9.66741
▁fingers	-9.66753
R	-9.66765
▁Lydgate	-9.66771
▁offered	-9.66825
▁running	-9.66881
▁Though	-9.66983
▁Ay	-9.6704
▁pride	-9.67071
▁Son	-9.67115
▁walking	-9.67141
▁chamber	-9.67167
Fr	-9.67233
▁breast	-9.67262
▁easily	-9.67271
▁B	-9.6734
▁guess	-9.67355
▁formed	-9.67504
ant	-9.67634
▁multitude	-9.67667
▁Master	-9.67678
▁waited	-9.67748
▁Take	-9.67902
▁knowing	-9.67952
▁expression	-9.67977
▁equal	-9.68094
▁prison	-9.68104
ter	-9.68173
▁fate	-9.68238
▁built	-9.68286
▁ourselves	-9.68483
▁lying	-9.68484
▁sing	-9.68546
▁glance	-9.68553
▁sharp	-9.6857
▁path	-9.687
▁proper	-9.68717
▁guard	-9.68775
▁Adj	-9.69215
by	-9.69222
▁grow	-9.69317
▁Cosette	-9.69404
▁Before	-9.69613
▁quarter	-9.69633
▁exactly	-9.69636
▁determined	-9.69654
▁pleased	-9.6966
▁search	-9.69693
▁nobody	-9.69822
▁shoulders	-9.69904
▁mistress	-9.70018
▁Don	-9.70038
▁isn	-9.70086
▁throne	-9.70123
▁Freckles	-9.70126
▁Was	-9.70147
▁situation	-9.70251
▁wonderful	-9.70273
▁lot	-9.70412
▁harm	-9.70434
rs	-9.70483
▁threw	-9.70536
▁Wherefore	-9.70537
▁Give	-9.70568
▁hall	-9.70931
▁advantage	-9.71084
▁arrived	-9.71125
▁space	-9.71198
▁fled	-9.71275
▁Paris	-9.71297
▁observed	-9.71379
▁fixed	-9.71439
▁daughters	-9.71543
▁Such	-9.7159
▁hide	-9.71609
▁experience	-9.7163
▁spent	-9.71791
E	-9.7185
—“	-9.71871
not	-9.7189
▁society	-9.71892
▁thyself	-9.71908
▁bow	-9.71955
▁beasts	-9.72165
▁shot	-9.72192
▁tall	-9.72276
▁throw	-9.72483
▁understood	-9.72526
▁swear	-9.72617
▁burnt	-9.72619
▁Did	-9.72651
▁adj	-9.72903
▁savage	-9.72927
▁authority	-9.72952
▁Had	-9.72983
▁scarcely	-9.72987
▁tribe	-9.73009
▁blessed	-9.73134
▁While	-9.73166
▁teeth	-9.73378
so	-9.73432
im	-9.73448
▁countenance	-9.73481
▁possession	-9.73558
▁Dorothea	-9.7359
▁language	-9.73656
▁Angel	-9.73761
▁cousin	-9.73872
▁pieces	-9.74027
▁wear	-9.74034
▁smoke	-9.74141
To	-9.74144
▁south	-9.74146
ist	-9.74155
▁arose	-9.74204
▁paid	-9.74235
me	-9.74275
▁picture	-9.74325
▁memory	-9.74447
▁north	-9.74592
▁train	-9.74645
▁Sara	-9.74757
▁race	-9.74769
▁lower	-9.74831
▁dust	-9.7487
▁hung	-9.74948
▁Jude	-9.74972
z	-9.74996
▁houses	-9.75044
▁legs	-9.75083
▁prepared	-9.751
v	-9.75195
▁slain	-9.75204
▁Fred	-9.75534
▁blind	-9.75535
▁rock	-9.75639
ish	-9.75652
▁start	-9.75762
▁bent	-9.75803
▁meaning	-9.75919
▁justice	-9.75984
▁welcome	-9.75987
▁mark	-9.76051
▁p	-9.76183
▁leaves	-9.76199
▁clean	-9.76322
▁Nay	-9.76324
Then	-9.76329
▁loud	-9.76388
▁crown	-9.764
ul	-9.76428
▁faces	-9.76463
▁regard	-9.76813
▁pocket	-9.76854
▁fly	-9.76866
],	-9.76894
▁expect	-9.77031
▁attempt	-9.77068
▁forgotten	-9.77101
jpg	-9.77179
▁wrote	-9.77179
▁d	-9.77237
▁nation	-9.77279
▁consider	-9.77378
?—	-9.77437
▁delight	-9.77526
▁taste	-9.7766
▁Joseph	-9.77734
▁mere	-9.77758
▁beat	-9.77813
ne	-9.77865
▁stones	-9.77869
▁Henry	-9.77964
▁streets	-9.77979
▁due	-9.7798
▁Look	-9.77996
▁saved	-9.78013
▁yes	-9.78078
▁congregation	-9.78293
ted	-9.78333
▁host	-9.78434
we	-9.78688
▁speed	-9.78694
▁satisfied	-9.78749
▁Tess	-9.78752
▁branches	-9.78763
▁awful	-9.78782
▁allowed	-9.78835
▁Man	-9.78867
▁buried	-9.78972
▁opposite	-9.79081
▁difference	-9.79108
▁understanding	-9.79182
▁history	-9.79256
▁York	-9.79306
▁golden	-9.79461
▁loss	-9.79516
ie	-9.79518
▁grass	-9.79582
▁bank	-9.79587
▁Ah	-9.79674
▁begun	-9.7969
▁fancy	-9.79757
▁imagine	-9.79801
▁Christian	-9.79916
▁curious	-9.79918
▁hither	-9.79975
▁Every	-9.80003
▁E	-9.80265
ies	-9.803
▁rage	-9.80312
▁east	-9.80326
▁F	-9.80347
▁anybody	-9.80565
▁nine	-9.80575
un	-9.80669
▁finished	-9.8072
▁palace	-9.80721
▁ma	-9.80823
▁spite	-9.80867
▁rising	-9.81019
ful	-9.81032
▁fault	-9.81131
▁empty	-9.81131
▁supposed	-9.81161
▁whispered	-9.81534
ism	-9.81564
▁coat	-9.81566
▁creatures	-9.81577
▁meeting	-9.8163
▁mount	-9.81726
▁sheep	-9.81765
▁snow	-9.81787
▁sacrifice	-9.81811
et	-9.81866
▁temple	-9.8189
▁watching	-9.81935
▁taught	-9.81945
▁burst	-9.81947
▁thin	-9.82033
ar	-9.82108
▁touched	-9.82329
▁Dr	-9.82544
▁fashion	-9.82648
▁drawing	-9.82682
▁mountains	-9.82754
▁box	-9.82765
▁confidence	-9.82766
▁happen	-9.82825
▁angel	-9.82828
▁narrow	-9.82873
▁reply	-9.82882
▁companion	-9.8295
house	-9.82977
▁nice	-9.82977
▁Can	-9.82989
▁breakfast	-9.83008
▁conscience	-9.83114
▁winter	-9.83118
▁Emma	-9.83142
▁weak	-9.83215
▁pure	-9.83228
▁opportunity	-9.83231
▁Saul	-9.83232
▁obliged	-9.83259
▁covenant	-9.83349
▁minister	-9.83442
▁George	-9.83471
night	-9.83666
▁bird	-9.83761
▁unless	-9.84004
▁result	-9.84042
▁liberty	-9.84059
▁shape	-9.84073
▁parts	-9.84095
▁considered	-9.8429
▁degree	-9.8439
▁slave	-9.84391
▁Diana	-9.84424
▁although	-9.84539
3].	-9.8455
▁queen	-9.84657
▁names	-9.84809
▁influence	-9.85038
▁asleep	-9.85086
▁SCENE	-9.85133
▁weather	-9.85133
▁drive	-9.85181
▁passage	-9.85248
▁everybody	-9.85258
do	-9.85271
▁tired	-9.85291
▁cruel	-9.85294
G	-9.85382
▁ladies	-9.85497
].	-9.85545
ous	-9.85582
▁ere	-9.8559
▁Duke	-9.85614
▁FIRST	-9.85734
▁surface	-9.85855
▁hid	-9.85889
▁serious	-9.85996
▁beheld	-9.86109
▁gentlemen	-9.86228
▁post	-9.86422
ate	-9.8649
▁hearing	-9.86517
▁Would	-9.86572
▁decided	-9.8658
▁surprised	-9.86617
▁prince	-9.86755
▁departed	-9.86775
▁inside	-9.86811
▁wore	-9.86836
▁birds	-9.86907
co	-9.86914
▁repeated	-9.86914
▁board	-9.86932
▁rule	-9.8695
▁wrath	-9.87021
she	-9.87099
▁telling	-9.87173
what	-9.87219
▁tender	-9.87598
f	-9.87649
▁princes	-9.87696
This	-9.87699
▁knees	-9.87801
▁excellent	-9.87809
▁witness	-9.87832
▁Upon	-9.87946
▁remembered	-9.88095
▁private	-9.88105
▁Aaron	-9.88178
▁buy	-9.88183
▁grief	-9.88198
▁vast	-9.88237
▁finger	-9.88452
▁liked	-9.88496
▁oil	-9.88533
▁Gabriel	-9.88553
▁teach	-9.88644
▁valley	-9.887
▁drop	-9.88716
morrow	-9.88827
▁Ye	-9.88913
▁passion	-9.89002
▁action	-9.89003
▁existence	-9.89051
▁afterwards	-9.89102
te	-9.89197
▁crowd	-9.89288
▁righteousness	-9.89448
▁dull	-9.89602
▁finally	-9.89715
▁windows	-9.89728
▁persons	-9.89867
▁Henchard	-9.89925
▁sides	-9.89939
▁affection	-9.90091
▁raise	-9.90123
▁Yea	-9.90218
▁Trina	-9.90304
▁pardon	-9.90328
▁carriage	-9.90354
▁grown	-9.90521
▁prisoner	-9.90555
▁McTeague	-9.90556
▁simply	-9.90558
▁opening	-9.90751
ting	-9.90769
▁ceased	-9.9081
▁dozen	-9.90822
In	-9.90888
▁bid	-9.90922
▁promised	-9.91103
▁fat	-9.91301
▁precious	-9.91319
▁counsel	-9.91374
▁condition	-9.91392
▁choose	-9.91447
▁Because	-9.91488
▁allow	-9.91502
▁holding	-9.91508
▁courage	-9.91571
▁Oak	-9.91594
▁fish	-9.91727
▁bosom	-9.91836
led	-9.91899
▁conduct	-9.91956
▁mountain	-9.91963
▁brave	-9.9208
▁Chapter	-9.92088
▁Solomon	-9.92088
▁destroyed	-9.92106
▁difficult	-9.92168
▁directly	-9.92268
▁ended	-9.92309
▁tent	-9.92362
▁catch	-9.92486
▁thrown	-9.92521
▁shore	-9.9256
▁greatly	-9.9261
▁various	-9.92733
▁inhabitants	-9.92794
▁nose	-9.9293
▁seized	-9.92937
▁wings	-9.92983
Come	-9.93139
▁Spirit	-9.9321
▁fill	-9.93353
▁doors	-9.93357
▁safety	-9.93389
▁share	-9.93457
▁reign	-9.93493
▁engaged	-9.93688
▁slow	-9.93744
▁writing	-9.93767
▁grand	-9.93781
▁temper	-9.93804
▁altogether	-9.93905
▁faint	-9.93975
▁Holmes	-9.94036
▁flight	-9.94036
▁noticed	-9.94038
age	-9.94077
▁difficulty	-9.94079
▁ashamed	-9.943
▁kiss	-9.94447
▁la	-9.94524
▁listened	-9.94535
▁favour	-9.94824
▁smiled	-9.94838
Not	-9.94943
▁iniquity	-9.94958
▁ease	-9.94969
▁dreadful	-9.95026
▁working	-9.95084
▁complete	-9.95088
▁Colonel	-9.95095
▁doesn	-9.95118
▁dis	-9.95168
▁listen	-9.952
▁somewhat	-9.95204
▁greatest	-9.95274
▁dressed	-9.95383
▁evidently	-9.95407
▁Jews	-9.95415
▁cloud	-9.95446
▁building	-9.95451
there	-9.95588
▁animal	-9.95605
▁supper	-9.95623
▁May	-9.95643
▁storm	-9.95717
▁keeping	-9.9584
▁maid	-9.95884
▁cometh	-9.95983
▁yards	-9.96024
▁measure	-9.96034
▁worked	-9.96035
▁stretched	-9.96079
▁brain	-9.96096
▁brown	-9.96138
▁effort	-9.96144
▁cabin	-9.96283
▁Jim	-9.96432
▁reading	-9.96464
▁mass	-9.96546
▁However	-9.96578
▁W	-9.96584
▁souls	-9.96721
▁soldier	-9.96786
▁Troy	-9.96832
▁tea	-9.9694
▁occurred	-9.96965
Exit	-9.97122
▁putting	-9.9716
▁hence	-9.97169
▁wit	-9.97258
▁sins	-9.97266
ance	-9.97368
▁gates	-9.97416
▁deck	-9.97421
▁ring	-9.97494
▁haste	-9.97505
▁image	-9.97512
▁study	-9.97527
▁success	-9.97568
▁questions	-9.97636
▁bore	-9.97674
ir	-9.97757
▁moving	-9.97797
▁chosen	-9.97799
▁Holy	-9.97815
▁dwelt	-9.9805
▁suffered	-9.98063
▁higher	-9.98123
ive	-9.98177
▁lovely	-9.98201
▁strike	-9.98237
▁report	-9.98238
▁Saint	-9.98256
▁fond	-9.98502
▁roof	-9.98528
▁important	-9.98603
▁knife	-9.9861
▁aunt	-9.98703
▁worst	-9.98736
▁throat	-9.98764
▁powers	-9.98829
▁yours	-9.98987
▁soldiers	-9.99014
▁heavens	-9.99052
▁season	-9.99056
ia	-9.99151
▁build	-9.9918
▁righteous	-9.99265
▁yourselves	-9.99286
▁handsome	-9.99337
▁nearer	-9.9945
▁couple	-9.99538
▁twice	-9.99563
▁lines	-9.99565
▁double	-9.99646
▁foolish	-9.99751
▁approached	-9.99793
▁unknown	-9.99846
▁kindness	-9.99851
▁explained	-9.99938
▁content	-10.0003
▁acquaintance	-10.003
▁song	-10.0043
▁distant	-10.0054
▁Just	-10.0057
▁period	-10.0069
▁Tell	-10.0072
Exeunt	-10.0084
up	-10.0085
▁sufficient	-10.0089
▁prayer	-10.0089
03	-10.0105
▁destruction	-10.011
▁gain	-10.0119
▁calm	-10.014
▁bless	-10.0144
▁class	-10.0145
of	-10.0148
▁weeks	-10.0153
▁bitter	-10.0156
▁throughout	-10.0156
▁Two	-10.0182
▁besides	-10.0187
▁slight	-10.0189
▁Babylon	-10.0195
▁possess	-10.0198
▁health	-10.0199
▁skin	-10.0203
▁settled	-10.0205
▁stars	-10.021
▁Nothing	-10.0213
▁madam	-10.0219
▁feared	-10.0223
▁laws	-10.0229
▁removed	-10.0233
▁Like	-10.0239
▁served	-10.0245
▁royal	-10.0247
▁forced	-10.0254
▁dollars	-10.0267
▁Sunday	-10.0274
▁heat	-10.0277
ce	-10.0287
▁Lamanites	-10.0295
▁despair	-10.0297
na	-10.0304
▁Boldwood	-10.0309
▁farther	-10.0309
one	-10.0315
▁escaped	-10.0323
▁dance	-10.0337
▁Rome	-10.0337
▁therein	-10.0338
▁entrance	-10.0338
▁III	-10.0341
▁flower	-10.035
▁quietly	-10.0353
▁carefully	-10.0372
▁burn	-10.0386
ty	-10.0395
▁slept	-10.0395
▁La	-10.0399
▁Abraham	-10.041
▁beg	-10.0418
▁loose	-10.0425
▁otherwise	-10.0427
▁truly	-10.0439
▁fierce	-10.044
▁prophet	-10.0441
▁matters	-10.0444
▁gather	-10.0448
▁tabernacle	-10.0448
▁necessity	-10.0454
▁Ahab	-10.0455
▁dost	-10.0455
▁thence	-10.0456
▁prey	-10.0458
Don	-10.0467
▁misery	-10.0469
▁Elinor	-10.0483
▁wasn	-10.0488
▁familiar	-10.0489
▁played	-10.0498
▁Rue	-10.0499
▁worship	-10.0508
Who	-10.0517
▁Than	-10.0525
▁pointed	-10.0532
all	-10.0532
▁Only	-10.0533
ri	-10.0533
▁sand	-10.054
▁Elizabeth	-10.0542
▁disappeared	-10.0544
▁horror	-10.0552
▁personal	-10.0579
▁possessed	-10.0582
▁sprang	-10.06
▁fought	-10.06
F	-10.0601
▁Edward	-10.0615
▁paused	-10.0619
▁members	-10.0624
▁thanks	-10.0631
▁gray	-10.0632
▁mistake	-10.0637
▁today	-10.064
▁spare	-10.0649
▁suit	-10.065
So	-10.069
▁thrust	-10.0693
▁stream	-10.0696
▁honor	-10.0706
▁clouds	-10.0707
▁explain	-10.0712
▁habit	-10.0716
li	-10.0716
▁level	-10.0719
▁driven	-10.0724
ad	-10.0725
▁patience	-10.0749
▁choice	-10.0761
▁inheritance	-10.0764
▁wound	-10.0768
▁powerful	-10.0778
▁perceived	-10.0781
▁island	-10.0789
▁interested	-10.0793
▁warn	-10.0806
▁imagination	-10.0808
▁marked	-10.0825
▁Monsieur	-10.0827
▁prophets	-10.083
▁anxious	-10.0832
▁dangerous	-10.0833
▁cat	-10.0851
▁burning	-10.0853
▁vision	-10.0855
▁rough	-10.0861
▁joined	-10.0865
▁proved	-10.0871
▁game	-10.0874
▁admit	-10.0884
▁e	-10.089
se	-10.0903
▁branch	-10.0913
▁considerable	-10.0917
▁i	-10.0919
▁value	-10.0927
▁G	-10.0943
▁thither	-10.0946
▁Great	-10.0947
ring	-10.0955
▁vessel	-10.0963
▁suggested	-10.0965
▁flat	-10.0969
▁bones	-10.097
▁fail	-10.0971
▁waste	-10.0978
▁Madame	-10.098
▁bearing	-10.0981
▁feast	-10.0986
▁hideous	-10.1001
▁aware	-10.1007
▁miserable	-10.1008
Let	-10.1017
▁horrible	-10.1023
▁virtue	-10.1025
▁growing	-10.1026
ro	-10.1026
which	-10.1027
▁height	-10.1029
▁entire	-10.1047
▁hang	-10.1048
▁shake	-10.1053
▁relief	-10.1054
▁Casaubon	-10.1054
ma	-10.1061
▁Y	-10.1064
▁yesterday	-10.1069
▁Perhaps	-10.1075
▁Say	-10.1077
▁support	-10.1078
▁miss	-10.1084
▁advanced	-10.1087
▁woods	-10.109
▁prevent	-10.1092
▁peculiar	-10.1092
L	-10.1103
▁ho	-10.1106
▁cover	-10.1109
▁add	-10.1115
▁appointed	-10.1119
▁lo	-10.1131
▁property	-10.1132
▁base	-10.1136
▁ahead	-10.1137
▁Thomas	-10.1145
▁join	-10.1151
▁hoped	-10.1157
▁occupied	-10.1179
▁pair	-10.1183
▁families	-10.1194
▁interesting	-10.1196
▁didst	-10.1197
▁hell	-10.1202
▁required	-10.1208
▁pause	-10.1221
05	-10.1224
▁pulled	-10.1233
▁moments	-10.1235
▁odd	-10.1238
▁daily	-10.1241
▁rapidly	-10.1245
▁hosts	-10.1255
▁merry	-10.1257
▁ones	-10.1257
▁tale	-10.126
▁haven	-10.127
▁falling	-10.1276
▁Once	-10.1277
▁kitchen	-10.1289
▁trail	-10.1298
▁crossed	-10.1306
▁frightened	-10.1307
ee	-10.1308
▁curse	-10.1313
▁claim	-10.1317
▁shew	-10.1322
▁warriors	-10.133
▁bodies	-10.1336
▁Crawford	-10.1352
▁crying	-10.1374
▁square	-10.1377
▁approach	-10.1391
ra	-10.1396
▁stick	-10.1397
ine	-10.1401
▁especially	-10.1402
▁sounds	-10.1408
▁foul	-10.1417
▁beloved	-10.1417
▁weary	-10.1424
▁trade	-10.1444
▁needs	-10.1447
▁GOD	-10.1448
Good	-10.1453
▁blame	-10.1454
▁terms	-10.1457
▁bold	-10.1463
▁faithful	-10.1463
▁visible	-10.1464
▁Clayton	-10.1464
▁hungry	-10.1465
▁wherefore	-10.1466
ent	-10.1475
▁smote	-10.148
ton	-10.1496
▁bought	-10.1501
▁voices	-10.1503
▁laughing	-10.1514
▁portion	-10.1521
▁innocent	-10.1522
▁curiosity	-10.1529
▁stepped	-10.153
▁First	-10.153
▁finding	-10.1539
▁Nephi	-10.1545
▁willing	-10.1548
▁whence	-10.1549
▁task	-10.1562
▁calling	-10.1569
la	-10.1574
▁fields	-10.1576
▁Professor	-10.1578
▁hills	-10.1582
▁morrow	-10.1593
▁Jew	-10.1607
▁murmured	-10.1616
▁confess	-10.1618
Where	-10.1632
▁west	-10.1636
▁troubled	-10.1637
▁rope	-10.1639
▁render	-10.1641
▁Fogg	-10.1643
▁declared	-10.1645
▁Paul	-10.1678
▁utter	-10.1681
ier	-10.1682
▁desired	-10.1683
▁wants	-10.1691
▁gently	-10.1693
▁contrary	-10.1693
▁tonight	-10.1696
▁attack	-10.1697
▁smiling	-10.1702
▁mile	-10.1704
▁satisfaction	-10.1709
▁forehead	-10.1709
▁shadows	-10.171
▁cap	-10.1713
▁perish	-10.1718
▁bowed	-10.1726
▁aid	-10.1726
▁James	-10.1726
▁possibly	-10.1726
▁suffering	-10.174
they	-10.1743
▁hole	-10.1758
▁commandments	-10.1759
▁progress	-10.1764
▁sold	-10.1768
▁movement	-10.1772
▁melancholy	-10.1775
▁instantly	-10.1779
▁manners	-10.1782
▁forgot	-10.1788
▁co	-10.179
▁Antony	-10.1792
▁affairs	-10.1793
▁gaze	-10.1806
▁t	-10.1806
▁wrought	-10.1809
▁hidden	-10.1809
▁continually	-10.1812
▁rate	-10.1816
▁march	-10.1819
▁duke	-10.182
▁oath	-10.1821
▁key	-10.1822
▁forgive	-10.1827
▁seated	-10.1831
▁upper	-10.1842
▁Franklin	-10.1842
▁corn	-10.1857
▁s	-10.1862
▁princess	-10.1874
▁officers	-10.1876
▁comfortable	-10.1878
▁singing	-10.1879
▁generally	-10.1887
▁evidence	-10.1888
let	-10.189
▁Those	-10.1894
▁car	-10.1902
▁weep	-10.1919
▁intended	-10.1932
▁win	-10.1932
▁IV	-10.1936
▁thunder	-10.1951
▁lad	-10.1956
▁wives	-10.196
▁shop	-10.1961
▁shade	-10.1967
▁solemn	-10.1969
▁candle	-10.1974
▁Sue	-10.1979
▁ideas	-10.1993
ities	-10.2001
▁See	-10.2005
▁hadn	-10.2006
▁exceedingly	-10.2014
▁awake	-10.2016
di	-10.2017
▁wherein	-10.2024
▁hurry	-10.2033
pe	-10.2033
▁ignorant	-10.2045
▁drove	-10.2046
▁lighted	-10.2057
▁Indian	-10.2057
▁Corey	-10.2062
▁c	-10.2067
▁pounds	-10.2069
▁discover	-10.207
▁knight	-10.207
▁orders	-10.2071
▁sum	-10.2073
▁rejoice	-10.2074
lo	-10.2074
▁mortal	-10.2077
▁ordinary	-10.2079
▁fetch	-10.2091
▁fully	-10.2096
▁sell	-10.2101
▁particularly	-10.2112
▁ha	-10.2113
▁absence	-10.2113
▁abroad	-10.2114
▁brass	-10.2114
▁deed	-10.2118
▁labour	-10.2118
▁companions	-10.212
▁softly	-10.2128
▁cost	-10.213
▁Richard	-10.2149
▁enjoy	-10.2158
▁Thénardier	-10.2165
▁points	-10.2171
W	-10.2181
red	-10.2182
▁Pharaoh	-10.2183
▁wondered	-10.2195
▁slew	-10.22
▁fighting	-10.22
▁cup	-10.2202
▁murder	-10.2204
▁convinced	-10.2225
▁dim	-10.2228
▁features	-10.2243
▁mentioned	-10.2246
Y	-10.225
▁enormous	-10.2252
▁native	-10.2252
▁band	-10.2262
▁cattle	-10.227
▁trial	-10.227
▁sore	-10.2276
▁minds	-10.2282
▁mention	-10.2286
▁example	-10.2288
▁motion	-10.2294
▁pit	-10.2299
▁committed	-10.2305
▁hanging	-10.2319
▁Sergeant	-10.2322
▁firm	-10.2328
▁carrying	-10.2333
▁officer	-10.2333
▁treasure	-10.2336
▁birth	-10.2339
▁Bulstrode	-10.234
For	-10.2348
▁reward	-10.2349
▁humble	-10.2352
▁produced	-10.2352
▁signs	-10.236
▁absolutely	-10.2363
▁forever	-10.2365
▁obey	-10.237
▁ride	-10.2373
▁match	-10.2379
▁proceeded	-10.2383
▁cheeks	-10.2387
▁Levites	-10.2387
▁wealth	-10.2388
▁leg	-10.2391
▁fellows	-10.2399
▁lift	-10.2406
▁declare	-10.2408
▁scattered	-10.2413
▁naked	-10.2426
▁disciples	-10.2428
▁gives	-10.2438
▁con	-10.2443
▁color	-10.2444
▁excuse	-10.2446
▁waves	-10.2447
▁apart	-10.2449
▁milk	-10.2451
▁station	-10.2455
ize	-10.2463
▁Barbicane	-10.2463
▁unhappy	-10.2464
ph	-10.2469
▁Un	-10.2471
▁proof	-10.2473
▁Maria	-10.2482
▁reasons	-10.2482
▁main	-10.249
ite	-10.2493
▁conscious	-10.2498
▁Marianne	-10.2499
▁gift	-10.251
▁accept	-10.2511
▁le	-10.2514
▁Moreover	-10.2517
▁coast	-10.2521
▁succeeded	-10.2522
▁sigh	-10.2523
▁advance	-10.2536
▁presented	-10.254
▁rushed	-10.2543
▁18	-10.2544
▁sleeping	-10.2547
▁Theron	-10.2557
▁ruin	-10.2565
▁baby	-10.2571
▁excitement	-10.2571
▁worn	-10.2574
▁instance	-10.2575
▁Never	-10.2576
▁Ha	-10.2583
▁direct	-10.2589
▁Me	-10.2605
▁feed	-10.2616
▁failed	-10.2619
▁Street	-10.2625
▁sooner	-10.2625
▁busy	-10.2625
▁offerings	-10.2637
▁wounded	-10.2638
▁Rosamond	-10.2643
▁advice	-10.2643
ship	-10.2655
▁burden	-10.2656
ER	-10.2661
▁Old	-10.2664
▁brief	-10.2672
▁store	-10.2683
▁ne	-10.2683
▁papers	-10.2685
▁resolved	-10.269
▁K	-10.2698
▁shouted	-10.2704
▁depart	-10.2711
▁agreed	-10.2713
▁cheek	-10.2726
04	-10.2727
▁stir	-10.2735
▁Lion	-10.2737
ary	-10.2743
ating	-10.2743
▁Adv	-10.2748
▁named	-10.2752
▁smooth	-10.2768
▁hollow	-10.2771
▁revenge	-10.2784
▁alarm	-10.2785
▁endure	-10.2788
▁Since	-10.2791
▁perceive	-10.2791
▁request	-10.2797
▁consent	-10.2797
▁pen	-10.28
▁returning	-10.2801
▁fifteen	-10.2806
▁House	-10.2809
▁wickedness	-10.2815
▁America	-10.2818
▁shown	-10.2824
▁observe	-10.2826
▁SECOND	-10.2826
▁friendship	-10.283
▁utterly	-10.2834
▁deny	-10.2836
▁dying	-10.2845
▁Sand	-10.2848
▁actually	-10.2849
▁practice	-10.2851
▁strangers	-10.2858
▁dogs	-10.2868
▁bloody	-10.2875
▁Phr	-10.2877
▁kindly	-10.2878
▁bringing	-10.2878
▁guide	-10.2889
▁inquired	-10.2891
▁remarked	-10.2892
▁yield	-10.2896
▁Edmund	-10.29
▁leading	-10.2907
▁count	-10.2913
▁GLOUCESTER	-10.2919
▁trembling	-10.2919
▁demanded	-10.2925
▁More	-10.2928
▁size	-10.2936
▁playing	-10.2942
▁spend	-10.2944
▁picked	-10.2946
▁Still	-10.2959
▁circle	-10.2965
▁armed	-10.2966
sh	-10.2975
▁bar	-10.298
▁aspect	-10.2984
▁brow	-10.2985
▁events	-10.2988
▁desert	-10.2991
▁colour	-10.3
▁tail	-10.3009
▁Grace	-10.3013
▁William	-10.3013
▁ice	-10.3019
▁Again	-10.3029
per	-10.3031
▁Till	-10.3033
▁assure	-10.3041
▁garments	-10.3051
▁Speak	-10.3052
▁pre	-10.3053
▁tomorrow	-10.3058
▁evident	-10.3062
▁attend	-10.3064
▁widow	-10.3065
▁borne	-10.3066
▁religion	-10.3069
▁desolate	-10.3069
my	-10.3075
▁rolled	-10.3077
▁helped	-10.3081
▁Nautilus	-10.3088
▁ocean	-10.3088
▁Presently	-10.3089
▁bell	-10.3094
▁vessels	-10.3106
▁refuse	-10.3106
▁fairly	-10.3106
▁shining	-10.3109
▁triumph	-10.3115
ial	-10.3117
▁consequence	-10.3119
time	-10.3121
▁increase	-10.3123
▁Philistines	-10.3126
▁Another	-10.3128
▁equally	-10.314
▁QUEEN	-10.3145
▁Eustacia	-10.3145
▁friendly	-10.3161
▁DUKE	-10.3164
▁explanation	-10.3164
▁flew	-10.3164
▁hated	-10.3188
▁ark	-10.3191
▁monster	-10.3196
▁reigned	-10.3199
▁cool	-10.3207
▁fearful	-10.3209
When	-10.321
▁recognized	-10.3215
▁avoid	-10.3219
▁Aunt	-10.3224
▁social	-10.3241
▁established	-10.3247
▁gracious	-10.3253
▁admitted	-10.3261
▁needed	-10.3264
▁divided	-10.3272
▁midnight	-10.328
▁Neither	-10.328
ho	-10.3284
how	-10.329
▁special	-10.3292
▁event	-10.3297
▁drunk	-10.3297
▁stairs	-10.3301
▁continue	-10.3305
id	-10.3308
▁Scarecrow	-10.3318
▁crew	-10.3318
▁aloud	-10.3326
▁completely	-10.3329
▁II	-10.3331
▁Marcus	-10.3338
▁freedom	-10.3338
▁Ph	-10.3348
▁dreams	-10.3349
▁Harriet	-10.3358
▁naturally	-10.3358
▁dread	-10.3365
▁judged	-10.3368
ated	-10.3371
▁kissed	-10.3373
▁Scene	-10.3377
▁resumed	-10.338
ge	-10.3393
▁excited	-10.3395
▁somebody	-10.3397
▁wash	-10.3398
▁deeds	-10.3399
▁express	-10.3404
▁substance	-10.3416
▁increased	-10.3417
▁laughter	-10.3417
▁forms	-10.342
▁eaten	-10.3425
▁issue	-10.3435
▁information	-10.3436
▁rear	-10.3438
▁luck	-10.3448
▁exercise	-10.3451
▁stage	-10.3454
▁slipped	-10.3455
▁Jack	-10.3455
▁Nevertheless	-10.3455
▁stands	-10.3466
▁Catherine	-10.3475
▁Michael	-10.3475
▁Ch	-10.3477
▁delicate	-10.3487
▁bridge	-10.3493
▁salvation	-10.3494
▁fury	-10.3497
▁rank	-10.3498
▁distress	-10.3509
▁credit	-10.3511
▁shock	-10.3512
▁system	-10.3514
▁consciousness	-10.3517
▁hopes	-10.3519
--	-10.3524
five	-10.3525
▁mysterious	-10.3527
▁giant	-10.3531
All	-10.3535
▁begat	-10.3535
▁remark	-10.3547
Mr	-10.355
Here	-10.3561
▁chain	-10.3562
▁deeply	-10.3566
▁Charles	-10.3574
▁queer	-10.3575
▁takes	-10.358
▁prepare	-10.358
ig	-10.3586
▁star	-10.3588
▁message	-10.3591
▁custom	-10.3604
▁reckon	-10.3611
▁frame	-10.3613
▁lonely	-10.3615
▁affair	-10.3632
▁animals	-10.3636
▁moral	-10.3645
▁projectile	-10.3654
▁ex	-10.3654
▁refused	-10.3654
▁Hath	-10.3656
▁somewhere	-10.3658
vi	-10.3671
▁price	-10.3671
ward	-10.3675
▁likewise	-10.3678
▁lords	-10.368
▁delay	-10.3684
▁entering	-10.3685
▁scarce	-10.3687
▁Helen	-10.369
▁solid	-10.3697
▁god	-10.3697
▁apparently	-10.37
▁cease	-10.3704
▁lamp	-10.3714
▁Comstock	-10.3714
▁dignity	-10.3714
▁Adam	-10.3714
▁younger	-10.3716
▁poured	-10.3722
▁stuff	-10.3724
▁FALSTAFF	-10.3734
▁Isaac	-10.3734
▁commandment	-10.3736
▁wretched	-10.375
▁stared	-10.3753
▁Were	-10.3754
▁crime	-10.3754
▁whither	-10.3755
▁household	-10.3774
▁straw	-10.3775
▁shoes	-10.3775
▁German	-10.3791
▁acquainted	-10.3796
▁sentence	-10.3797
▁Earth	-10.3815
▁Three	-10.3817
▁tear	-10.3822
▁nevertheless	-10.3836
Is	-10.3837
▁style	-10.3837
▁group	-10.3846
▁lack	-10.3856
▁slay	-10.3857
▁goodness	-10.387
▁loving	-10.3875
▁superior	-10.3876
▁struggle	-10.3878
▁gazed	-10.3881
▁Besides	-10.3882
▁listening	-10.3895
▁steel	-10.3898
▁bull	-10.3915
▁consideration	-10.3921
▁reproach	-10.3929
▁asking	-10.393
▁parted	-10.3932
09	-10.3932
▁wishes	-10.3934
▁regarded	-10.3937
▁wedding	-10.3938
▁gun	-10.3941
▁clearly	-10.3943
▁Love	-10.396
▁surrounded	-10.3961
ber	-10.3961
▁foreign	-10.3972
V	-10.3974
▁secure	-10.3994
▁patient	-10.3996
▁ordered	-10.4009
▁created	-10.401
THE	-10.4011
▁hurried	-10.4014
▁Helium	-10.402
▁villain	-10.4021
▁unclean	-10.4022
▁dared	-10.4028
▁addressed	-10.4032
▁pipe	-10.4034
▁confusion	-10.4042
▁Matthew	-10.4043
Very	-10.4052
▁objects	-10.4053
▁row	-10.4057
▁pursued	-10.4058
▁folly	-10.4063
▁national	-10.4066
▁hit	-10.4078
▁cases	-10.4084
▁Nature	-10.4084
▁plenty	-10.4084
▁spoil	-10.4092
▁grant	-10.4104
▁cave	-10.4111
▁neighbour	-10.4118
▁highest	-10.412
ning	-10.4139
▁assured	-10.4142
▁depths	-10.4145
▁Without	-10.415
▁flock	-10.4152
▁upward	-10.417
hearted	-10.4172
▁cottage	-10.4172
▁figures	-10.418
▁cheerful	-10.418
▁belief	-10.419
▁repent	-10.4197
▁Sometimes	-10.4198
ably	-10.4201
▁regular	-10.4203
▁fourth	-10.4205
▁per	-10.421
▁mystery	-10.421
▁remarkable	-10.4211
▁approaching	-10.4226
▁importance	-10.4232
▁punishment	-10.4233
▁setting	-10.4239
▁pressed	-10.4241
▁expressed	-10.4243
▁useful	-10.4252
▁Judge	-10.4253
▁Out	-10.4257
▁leaped	-10.4259
▁beseech	-10.4262
▁argument	-10.428
▁sail	-10.4281
▁burned	-10.429
▁prisoners	-10.4291
x	-10.4296
▁cries	-10.4297
▁guilty	-10.4298
with	-10.4299
▁Whose	-10.4299
▁Ma	-10.4302
▁gay	-10.4312
▁Ammon	-10.4317
▁arrival	-10.4317
▁lover	-10.4322
H	-10.4323
é	-10.4323
▁circumstance	-10.4324
ence	-10.4326
▁thousands	-10.4333
▁glanced	-10.4337
▁flung	-10.4339
ex	-10.4342
▁pushed	-10.4344
▁deserted	-10.4351
▁mis	-10.4353
▁L	-10.4356
▁audience	-10.436
▁admiration	-10.436
▁proposed	-10.4371
▁immense	-10.4374
▁slip	-10.4381
▁Joshua	-10.4382
▁tiny	-10.4384
▁Most	-10.4385
▁proceed	-10.4389
▁shepherd	-10.4389
▁profit	-10.4399
▁usually	-10.44
▁address	-10.44
▁American	-10.44
▁police	-10.4401
▁violence	-10.4403
▁sank	-10.4425
▁fatal	-10.4426
▁careful	-10.4429
▁Time	-10.443
ns	-10.4433
▁uttered	-10.4439
▁slaves	-10.4451
▁ignorance	-10.4468
▁sacred	-10.4468
▁flying	-10.447
▁plainly	-10.4471
▁everywhere	-10.4471
▁swift	-10.4472
▁Philip	-10.4476
▁idle	-10.4487
▁astonishment	-10.449
▁Union	-10.4491
▁divine	-10.4494
▁suspicion	-10.4499
▁violent	-10.4505
▁imagined	-10.4507
▁lightning	-10.4525
▁realized	-10.4525
▁risk	-10.4529
▁rooms	-10.453
▁stock	-10.4533
▁scorn	-10.4534
▁heathen	-10.4535
▁smell	-10.4543
op	-10.4546
▁cunning	-10.4549
As	-10.4553
▁Death	-10.4579
▁farm	-10.4581
▁favor	-10.4586
▁eternal	-10.4592
▁original	-10.4592
▁Hester	-10.4593
▁pull	-10.4593
▁intention	-10.4602
▁descended	-10.4606
▁whenever	-10.461
▁rare	-10.4613
▁elders	-10.4629
▁woe	-10.4633
▁separate	-10.4639
▁loves	-10.4647
▁Sun	-10.4653
ble	-10.4661
▁final	-10.4666
▁departure	-10.4666
▁rode	-10.4677
▁lawyer	-10.4678
▁stronger	-10.4682
▁becoming	-10.4684
▁Lo	-10.4691
▁Land	-10.4694
▁impression	-10.47
▁splendid	-10.4703
▁atmosphere	-10.4711
▁seldom	-10.4711
▁Davy	-10.4711
▁Weston	-10.4711
▁chin	-10.4717
▁amount	-10.4719
▁quarrel	-10.4721
om	-10.4723
▁stern	-10.4726
▁larger	-10.4728
▁remembrance	-10.4733
▁astonished	-10.4734
▁mingled	-10.4738
ard	-10.4739
▁market	-10.4747
▁beard	-10.4749
▁flame	-10.4749
▁Farfrae	-10.4755
▁Meriem	-10.4755
▁plague	-10.4756
▁Korak	-10.4756
▁highly	-10.4757
▁somehow	-10.4767
▁pick	-10.477
▁belong	-10.477
ol	-10.4775
▁afterward	-10.4777
▁anxiety	-10.4778
▁Javert	-10.4778
▁farewell	-10.4778
▁Michel	-10.4778
▁Woman	-10.4778
ti	-10.4778
▁record	-10.478
▁require	-10.4783
▁generation	-10.4791
Of	-10.4799
▁whilst	-10.48
go	-10.4801
▁thir	-10.4801
▁Make	-10.4801
▁wholly	-10.4805
▁flee	-10.481
▁accepted	-10.4813
▁spear	-10.4814
▁similar	-10.4815
▁previous	-10.4815
▁prayers	-10.4822
▁hunt	-10.4838
▁People	-10.4846
▁Margaret	-10.4868
▁accustomed	-10.4869
▁cubits	-10.4872
▁ends	-10.4879
▁accident	-10.488
▁Heav	-10.4883
▁title	-10.4883
▁immediate	-10.4883
▁plans	-10.4883
▁glorious	-10.4884
▁Majesty	-10.489
▁Celia	-10.4891
▁directed	-10.4904
▁judges	-10.4912
▁Jordan	-10.4913
▁emotion	-10.4919
▁afford	-10.4928
▁captivity	-10.4936
▁roar	-10.4936
▁ball	-10.4938
”—	-10.4943
▁whip	-10.4959
▁chest	-10.4962
▁clock	-10.4967
▁mood	-10.497
▁linen	-10.4974
▁salt	-10.4978
▁material	-10.4981
▁dancing	-10.4982
▁closely	-10.4982
▁canst	-10.4982
▁Doctor	-10.4983
▁Should	-10.4983
▁tower	-10.4986
▁earnest	-10.4996
▁eleven	-10.5003
▁J	-10.5003
▁crept	-10.5005
▁Men	-10.5005
▁lights	-10.5009
▁wake	-10.5009
▁Poor	-10.501
▁vague	-10.502
▁rush	-10.5027
▁Gentiles	-10.5033
▁charming	-10.5039
▁remains	-10.504
▁warrant	-10.504
▁whisper	-10.5044
▁noon	-10.5044
▁Hepzibah	-10.5051
▁centre	-10.5058
▁Hear	-10.5076
▁rent	-10.5082
▁High	-10.5092
▁gradually	-10.5098
▁Indeed	-10.5102
▁inclined	-10.5104
po	-10.5106
▁belonged	-10.5108
▁unfortunate	-10.5113
▁partly	-10.5118
▁Having	-10.5121
▁rested	-10.5123
▁stayed	-10.5124
▁gained	-10.5138
▁border	-10.5139
▁hastily	-10.5145
▁apes	-10.5166
▁Black	-10.5168
▁“‘	-10.5169
Your	-10.5174
▁arise	-10.5179
way	-10.5195
▁mistaken	-10.5197
▁disposition	-10.5209
▁Knight	-10.5209
▁basket	-10.521
▁cook	-10.5215
▁Mother	-10.5216
▁interrupted	-10.5217
tic	-10.5237
▁Yeobright	-10.5237
▁extraordinary	-10.5237
▁sympathy	-10.5237
▁conditions	-10.5249
▁delighted	-10.5252
▁ugly	-10.526
▁castle	-10.5262
▁overcome	-10.5265
ta	-10.5267
▁heap	-10.5269
▁keen	-10.5269
que	-10.5271
▁sisters	-10.5277
▁constant	-10.5278
▁chose	-10.528
▁purple	-10.5284
▁scarlet	-10.5284
ot	-10.5308
▁Constitution	-10.5308
▁Carthoris	-10.5308
▁agreeable	-10.5309
▁pace	-10.5309
▁whatsoever	-10.531
▁Alas	-10.5312
▁painful	-10.5312
▁drinking	-10.5312
▁fears	-10.5327
▁IN	-10.5329
▁everlasting	-10.5331
▁numerous	-10.5331
this	-10.5332
▁paint	-10.5337
▁anywhere	-10.5337
▁facts	-10.5344
▁shelter	-10.5345
▁Art	-10.5349
▁capable	-10.5357
▁Could	-10.5357
▁nurse	-10.5358
▁hunger	-10.5364
▁principal	-10.5372
ni	-10.5375
▁reflection	-10.5377
▁quality	-10.5379
ical	-10.5395
▁frightful	-10.5396
Have	-10.5413
07	-10.5424
▁Samuel	-10.5427
▁White	-10.543
▁n	-10.5434
▁agree	-10.5436
▁blessing	-10.5444
are	-10.545
▁education	-10.5451
▁Each	-10.5451
▁vanished	-10.5454
▁wet	-10.5455
▁useless	-10.5465
▁mischief	-10.5475
▁weapons	-10.548
▁subjects	-10.5484
▁angels	-10.5484
▁examined	-10.5488
▁eager	-10.5489
ck	-10.5493
▁modern	-10.5499
▁extent	-10.55
▁thoroughly	-10.5502
▁H	-10.5507
▁absolute	-10.5516
▁fever	-10.5523
▁Ghost	-10.5523
▁yonder	-10.5524
▁balance	-10.5527
▁riches	-10.5531
▁leaning	-10.5532
▁parents	-10.5538
▁heels	-10.5541
▁warning	-10.5545
▁HENRY	-10.5547
▁swept	-10.5548
▁Frank	-10.5548
▁victory	-10.5548
nt	-10.5549
place	-10.5551
our	-10.5554
▁concerned	-10.5556
ab	-10.5559
out	-10.5568
▁Europe	-10.5569
mon	-10.557
▁individual	-10.557
▁Benjamin	-10.5571
▁conviction	-10.5572
▁doorway	-10.5584
Are	-10.5588
▁plant	-10.5594
▁political	-10.5597
06	-10.5611
bed	-10.5618
▁breaking	-10.5618
▁accompanied	-10.562
▁perform	-10.5622
▁venture	-10.5625
▁concluded	-10.5628
iness	-10.5637
▁sovereign	-10.5644
▁Elton	-10.5645
▁Alexandra	-10.5645
▁century	-10.5645
▁yard	-10.5652
▁19	-10.5655
▁provided	-10.5658
▁prospect	-10.5667
▁regret	-10.5669
▁attitude	-10.567
▁charm	-10.5676
looking	-10.5677
▁roll	-10.5678
▁clever	-10.5682
▁tied	-10.5682
▁proportion	-10.5684
▁skill	-10.5685
▁apparent	-10.5687
▁mounted	-10.5692
▁dat	-10.5692
▁knee	-10.5693
▁vanity	-10.5694
▁bottle	-10.5696
▁Both	-10.5696
▁appears	-10.5701
▁wept	-10.5704
Did	-10.5704
▁list	-10.5708
▁Under	-10.5708
▁rid	-10.5709
▁revealed	-10.5724
▁profound	-10.5736
▁OEDIPUS	-10.5743
▁swung	-10.5743
▁degrees	-10.5749
▁contained	-10.575
▁steal	-10.5763
▁intent	-10.5763
▁Pyncheon	-10.5768
▁famous	-10.5768
▁defend	-10.5768
▁shaking	-10.5768
▁hut	-10.5775
▁leaned	-10.5776
▁obtained	-10.5778
▁generations	-10.5778
some	-10.5781
▁wondering	-10.5783
▁rendered	-10.5784
▁United	-10.5793
▁handed	-10.5793
▁stretch	-10.5795
▁Many	-10.5804
Go	-10.5804
▁cart	-10.5809
▁sworn	-10.5818
▁Satan	-10.5818
▁resolution	-10.582
▁lately	-10.5827
bo	-10.5834
who	-10.584
▁disappointment	-10.5843
▁remaining	-10.5855
▁craft	-10.5865
▁upright	-10.5866
▁nigh	-10.5866
▁dragged	-10.5868
▁amid	-10.587
▁parties	-10.5876
▁gloom	-10.5888
▁Through	-10.5892
▁Elliot	-10.5893
▁interior	-10.5893
▁shone	-10.5893
▁pains	-10.5903
▁R	-10.5913
▁sole	-10.5914
▁1	-10.5919
io	-10.592
▁pour	-10.5923
ites	-10.5927
▁learning	-10.5928
▁signal	-10.5937
▁exact	-10.5942
▁Dis	-10.5942
▁Mars	-10.5944
▁Billy	-10.5945
▁armies	-10.5946
▁acts	-10.5948
▁oh	-10.5956
][	-10.596
▁beach	-10.5966
▁voyage	-10.5968
▁hatred	-10.5969
▁thinks	-10.5979
▁staring	-10.5983
well	-10.5987
▁horizon	-10.5993
▁intelligence	-10.5994
ron	-10.6
▁Please	-10.6009
▁Dorothy	-10.6019
▁sanctuary	-10.6019
▁pitch	-10.602
▁discovery	-10.6025
▁daylight	-10.6026
▁brilliant	-10.6037
▁shed	-10.604
▁Brutus	-10.6044
▁Passepartout	-10.6044
▁Brooke	-10.6046
▁labor	-10.6046
▁cheer	-10.6052
▁unable	-10.6055
▁nearest	-10.606
▁Con	-10.6069
▁Knightley	-10.607
▁brook	-10.6079
os	-10.6082
▁hearken	-10.6085
▁military	-10.6095
▁utmost	-10.6095
▁wanting	-10.6103
▁treated	-10.6104
▁anyone	-10.6114
▁lit	-10.6119
▁gown	-10.6123
Be	-10.6125
▁author	-10.6125
▁outer	-10.6135
▁vengeance	-10.6147
▁grey	-10.6148
▁dawn	-10.615
▁obtain	-10.615
nd	-10.6152
▁urged	-10.6157
▁Very	-10.6163
▁safely	-10.6168
▁religious	-10.6172
▁Ned	-10.6173
▁Zion	-10.6173
▁hastened	-10.6178
▁mate	-10.6178
▁touching	-10.6184
▁During	-10.6199
▁charged	-10.6211
▁nervous	-10.6214
▁Ephraim	-10.6224
▁description	-10.6224
▁begged	-10.6224
▁Pray	-10.6226
▁Mark	-10.6228
▁commit	-10.6233
▁hunting	-10.6239
▁absent	-10.6243
▁desperate	-10.6243
▁Ben	-10.6265
▁older	-10.6265
▁seriously	-10.6266
▁separated	-10.6274
▁Wildeve	-10.6276
▁Nemo	-10.6276
ious	-10.6283
▁Sea	-10.6288
▁inner	-10.6298
▁grim	-10.6299
▁Clifford	-10.6303
▁About	-10.6307
▁civil	-10.632
▁stupid	-10.632
▁palm	-10.6321
▁blows	-10.6327
▁ch	-10.6328
▁platform	-10.6329
▁ships	-10.633
▁trumpet	-10.6338
Aside	-10.6348
ha	-10.6348
▁stories	-10.6355
▁South	-10.6356
▁press	-10.6361
▁lands	-10.6364
▁machine	-10.6366
▁vile	-10.6366
▁hotel	-10.6367
▁metal	-10.638
▁torn	-10.638
▁Marguerite	-10.6381
▁Also	-10.6382
▁VI	-10.639
hand	-10.6398
▁nest	-10.6399
▁brothers	-10.64
▁sport	-10.6403
▁barricade	-10.6407
▁eating	-10.6414
▁pictures	-10.6415
▁member	-10.6419
▁locked	-10.6419
▁attended	-10.6422
▁rude	-10.6428
▁gratitude	-10.6434
▁spiritual	-10.6434
▁Huck	-10.6436
▁rocks	-10.6438
▁agony	-10.6461
▁settle	-10.6464
▁flood	-10.6488
▁apt	-10.6495
▁pluck	-10.6503
▁nights	-10.6504
▁preserve	-10.6507
▁numbers	-10.6508
▁extreme	-10.6518
▁conclusion	-10.6525
▁adventure	-10.6528
min	-10.6536
▁female	-10.6552
ver	-10.6559
▁Challenger	-10.6567
▁knock	-10.6568
▁hitherto	-10.6571
▁N	-10.6576
▁sufficiently	-10.6581
▁severe	-10.6594
▁capital	-10.6594
▁Nephites	-10.6594
▁steady	-10.6598
▁accomplished	-10.66
▁arranged	-10.6601
ator	-10.6606
▁relation	-10.6607
▁tread	-10.6609
ac	-10.6624
▁apartment	-10.6636
mo	-10.6643
▁whosoever	-10.665
▁composed	-10.6653
▁painted	-10.6663
▁sensible	-10.6675
▁handkerchief	-10.6676
▁Gilbert	-10.6676
▁14	-10.6683
▁Th	-10.6687
▁addition	-10.6688
ster	-10.669
▁shewed	-10.6694
▁interests	-10.6694
▁sink	-10.6697
▁Lorry	-10.6702
▁gazing	-10.6702
▁Archie	-10.6703
▁mental	-10.6703
▁lock	-10.6704
▁sixty	-10.6705
▁glow	-10.6707
▁striking	-10.6722
▁showing	-10.6723
▁delightful	-10.6724
▁Exeunt	-10.6724
▁jealous	-10.6725
▁13	-10.6726
her	-10.6729
▁cloth	-10.6729
▁remnant	-10.673
▁pink	-10.6732
▁gloomy	-10.6734
▁guests	-10.6734
▁finish	-10.6735
▁weeping	-10.6749
▁closer	-10.6751
▁soil	-10.6752
▁Jonathan	-10.6757
▁Scrooge	-10.6757
▁furniture	-10.6757
▁seventy	-10.6759
▁Thoris	-10.6785
▁attached	-10.6787
▁fools	-10.6793
▁deadly	-10.6798
▁slightly	-10.6798
▁poison	-10.6801
▁HAMLET	-10.6812
▁duties	-10.6812
▁connected	-10.6814
▁fro	-10.6822
▁sang	-10.6824
ga	-10.6828
▁Get	-10.6838
▁Church	-10.6839
▁science	-10.684
▁tomb	-10.6844
▁travel	-10.6852
▁jest	-10.6852
▁persuaded	-10.6855
▁engagement	-10.6856
ius	-10.6859
▁seal	-10.6864
▁job	-10.6867
▁halted	-10.6874
▁recovered	-10.6876
▁deeper	-10.6876
▁lap	-10.6879
▁fun	-10.6882
▁meal	-10.6891
▁silently	-10.6892
▁attempted	-10.6893
▁den	-10.6895
▁strongly	-10.6896
▁fix	-10.69
▁track	-10.6902
▁root	-10.6904
▁compass	-10.6911
▁impulse	-10.6911
▁victim	-10.6912
hi	-10.6912
▁trunk	-10.6912
his	-10.6912
▁rapid	-10.6914
▁numbered	-10.6922
▁Robert	-10.6922
▁reputation	-10.6922
▁dumb	-10.6923
▁Uncle	-10.6926
▁strain	-10.6927
▁winds	-10.6936
▁instrument	-10.6939
▁trifle	-10.694
▁sounded	-10.6945
▁fence	-10.6949
▁breeze	-10.6951
▁stirred	-10.6951
▁lend	-10.6964
▁sighed	-10.6967
▁veil	-10.6968
▁Co	-10.6976
▁drank	-10.6978
▁ages	-10.6982
▁Horn	-10.6985
▁alike	-10.6994
ING	-10.7
▁stead	-10.7004
▁Numa	-10.7006
▁profession	-10.7006
▁Dejah	-10.7006
▁seas	-10.7007
▁fame	-10.701
▁elder	-10.7018
ut	-10.7018
▁instinct	-10.7024
▁brute	-10.7025
▁di	-10.7029
▁gifts	-10.7029
▁Among	-10.7031
▁Kronborg	-10.7034
▁decision	-10.7034
▁bushes	-10.7038
10	-10.7038
▁lamb	-10.7039
▁grasp	-10.704
▁suspect	-10.704
▁jumped	-10.7043
▁produce	-10.7048
▁clothed	-10.705
▁scheme	-10.7053
▁Lynde	-10.7063
▁notes	-10.7066
▁upstairs	-10.7067
▁extremely	-10.707
▁swords	-10.7079
▁shield	-10.7082
▁estate	-10.7082
▁score	-10.7083
▁Moab	-10.7091
▁Bertram	-10.7091
▁majesty	-10.7091
▁refuge	-10.7091
▁magnificent	-10.7091
▁wounds	-10.7093
▁dwelling	-10.7093
AR	-10.7096
▁reflected	-10.7097
▁wooden	-10.7097
don	-10.7098
▁eagerly	-10.7099
ang	-10.71
▁arrows	-10.71
▁forbid	-10.7101
▁Ho	-10.7116
▁energy	-10.7119
▁stroke	-10.712
ON	-10.7121
▁pursue	-10.7124
▁check	-10.7126
ff	-10.7127
▁quit	-10.7128
▁risen	-10.7131
▁Long	-10.7135
▁pursuit	-10.7139
▁principle	-10.714
▁muttered	-10.7149
▁motionless	-10.7149
▁port	-10.7156
▁reader	-10.7157
▁disposed	-10.7157
08	-10.7163
▁messenger	-10.7168
▁current	-10.7169
▁sex	-10.717
▁Ne	-10.7172
▁Sultan	-10.7176
▁thief	-10.7176
▁honey	-10.7176
ens	-10.7186
▁singular	-10.7197
▁valiant	-10.7197
▁governor	-10.7198
▁Bird	-10.7205
▁mankind	-10.7208
▁tide	-10.7208
▁wars	-10.7213
▁date	-10.7213
▁judgments	-10.7219
▁Diamond	-10.7233
▁Minchin	-10.7233
▁genius	-10.7233
▁cursed	-10.724
▁disturbed	-10.7241
▁foundation	-10.7245
land	-10.7253
▁weapon	-10.7255
▁cure	-10.726
▁Wilson	-10.7262
▁invisible	-10.7262
▁Penelope	-10.7262
▁security	-10.7263
▁wheel	-10.7265
▁breathing	-10.7266
▁occasionally	-10.7268
▁remove	-10.7269
▁informed	-10.727
▁cared	-10.7281
▁deserve	-10.729
▁anguish	-10.7291
▁rights	-10.7293
▁efforts	-10.7293
was	-10.7297
▁swamp	-10.7297
▁wandered	-10.7298
▁bill	-10.731
ned	-10.7311
▁shine	-10.7312
19	-10.7319
▁smart	-10.732
▁Christmas	-10.732
▁control	-10.732
▁Clare	-10.7321
▁Farewell	-10.7321
▁hesitated	-10.7328
▁ACT	-10.7336
▁Think	-10.734
▁observation	-10.7343
▁beating	-10.7345
▁Susan	-10.7349
▁monstrous	-10.7349
▁Whale	-10.7349
▁permitted	-10.7349
▁Am	-10.7352
▁furnished	-10.7356
▁offence	-10.7367
▁shouldn	-10.7375
▁abide	-10.7376
▁earlier	-10.7378
▁seeking	-10.7379
▁owe	-10.7381
▁purse	-10.7381
▁mock	-10.7387
▁rod	-10.7387
▁describe	-10.7387
▁Being	-10.739
▁freely	-10.7393
▁Apes	-10.7398
11	-10.7398
▁council	-10.7402
▁captive	-10.7402
▁lantern	-10.7402
▁guest	-10.7402
▁center	-10.7405
20	-10.7406
▁permit	-10.7406
che	-10.7407
▁smaller	-10.7407
▁Clym	-10.7407
▁moreover	-10.7411
▁Surely	-10.7412
▁frequently	-10.7413
▁breadth	-10.7416
▁seventh	-10.742
▁opinions	-10.7422
when	-10.7425
▁grateful	-10.7429
▁shortly	-10.7432
▁fed	-10.7434
▁possibility	-10.7436
▁tune	-10.7437
▁fulfilled	-10.7438
ru	-10.7439
▁domestic	-10.744
▁nodded	-10.744
▁notion	-10.7443
14	-10.7445
12	-10.7446
▁counted	-10.7453
▁described	-10.7456
▁prize	-10.7458
▁handle	-10.7461
▁Bishop	-10.7465
▁Woodman	-10.7466
▁distinctly	-10.7472
▁TO	-10.7475
▁trick	-10.7484
IN	-10.7491
▁harvest	-10.7495
▁charity	-10.7495
work	-10.7497
▁inter	-10.7498
▁carpet	-10.75
▁crack	-10.7502
▁offended	-10.7504
▁trembled	-10.7515
▁maiden	-10.7522
▁hiding	-10.7524
▁procession	-10.7526
▁Call	-10.7527
▁startled	-10.7528
▁backward	-10.7531
▁tremble	-10.7534
▁remote	-10.7548
▁smite	-10.7552
▁Jennings	-10.7554
▁RICHARD	-10.7554
▁probable	-10.7554
▁pool	-10.7554
▁Betteredge	-10.7554
▁Wendy	-10.7555
▁difficulties	-10.7555
▁flash	-10.7558
▁affected	-10.7561
▁bedroom	-10.7565
▁12	-10.7567
▁missed	-10.7574
▁stiff	-10.7576
▁rays	-10.7581
ler	-10.7582
▁testimony	-10.7584
▁AND	-10.7584
▁prayed	-10.7587
▁swiftly	-10.7594
ba	-10.7599
▁details	-10.76
ow	-10.7604
▁masters	-10.761
▁dentist	-10.7613
▁assistance	-10.7614
▁ladder	-10.7615
▁captains	-10.7616
▁fastened	-10.7617
▁weakness	-10.7618
▁shout	-10.7618
▁becomes	-10.7626
line	-10.7628
▁faults	-10.763
▁dearest	-10.7632
▁pointing	-10.7634
▁curtain	-10.7641
▁niece	-10.7643
▁Chauvelin	-10.7644
▁treat	-10.7647
▁cow	-10.7652
▁manage	-10.7653
▁heed	-10.7676
▁instruments	-10.7684
▁flow	-10.7686
▁tribes	-10.7687
▁deceived	-10.769
▁ghost	-10.7694
▁generous	-10.7696
▁garment	-10.7702
▁sunshine	-10.7703
▁reality	-10.7708
▁appeal	-10.7709
▁distinguished	-10.7711
Look	-10.7722
▁24	-10.7722
▁pro	-10.7723
ering	-10.7723
▁union	-10.7724
▁infinite	-10.7726
▁23	-10.7727
▁Madam	-10.7729
▁dew	-10.7732
▁Cedric	-10.7733
▁SIR	-10.7733
son	-10.7738
▁bade	-10.7741
▁incense	-10.7743
▁damp	-10.7748
▁granted	-10.7749
▁leader	-10.7753
▁silk	-10.7761
▁Little	-10.7765
▁principles	-10.7772
▁En	-10.7773
▁washed	-10.7781
▁powder	-10.7784
table	-10.7789
▁quarters	-10.7792
ke	-10.7792
▁rifle	-10.7793
▁Liddy	-10.7795
▁Colin	-10.7795
▁slightest	-10.7798
▁retreat	-10.7802
▁inn	-10.7804
▁du	-10.7804
▁mo	-10.7804
▁distinct	-10.7813
▁bag	-10.7813
16	-10.7817
mer	-10.7817
▁bind	-10.7819
▁lightly	-10.7822
▁popular	-10.7823
▁glimpse	-10.7824
▁valuable	-10.7824
▁mist	-10.7827
▁ashes	-10.7833
▁embrace	-10.7835
fe	-10.784
▁wave	-10.784
▁protection	-10.7856
17	-10.7856
▁aught	-10.7858
ible	-10.786
▁encounter	-10.7863
▁guns	-10.7869
15	-10.7872
▁enjoyed	-10.7873
ped	-10.7874
Thank	-10.7874
▁pile	-10.7875
ag	-10.7885
▁vow	-10.7885
▁Suddenly	-10.7885
▁marble	-10.7886
▁sinned	-10.7886
▁Alma	-10.7888
▁sailor	-10.7888
▁starting	-10.7888
▁throwing	-10.7889
▁honourable	-10.7891
▁bend	-10.7894
law	-10.7896
bye	-10.7906
▁citizens	-10.7907
▁debt	-10.7911
ily	-10.7913
▁Jeremiah	-10.7916
▁stole	-10.7916
▁precisely	-10.7919
▁devoted	-10.7922
18	-10.7926
▁knocked	-10.7928
▁sp	-10.7942
▁l	-10.7955
▁mourning	-10.7956
▁concern	-10.7957
▁Hence	-10.7958
▁rolling	-10.7962
ger	-10.7967
▁anyway	-10.7969
four	-10.797
▁managed	-10.7973
▁local	-10.7977
▁francs	-10.7978
▁Saturday	-10.7978
▁fifth	-10.7979
22	-10.798
▁maybe	-10.7984
▁visited	-10.7985
▁demand	-10.7989
▁trace	-10.7991
AN	-10.7996
▁outward	-10.8
▁Edna	-10.8009
▁contempt	-10.8009
▁driving	-10.8009
▁respectable	-10.8012
▁wing	-10.8016
ud	-10.8019
▁depend	-10.802
▁inward	-10.8026
ile	-10.8036
qui	-10.8039
▁lofty	-10.804
By	-10.8044
▁correct	-10.8049
▁wandering	-10.8051
▁Bar	-10.8053
ak	-10.8054
ai	-10.8063
▁grandfather	-10.8072
▁lake	-10.8074
▁suggestion	-10.8074
▁employed	-10.8079
▁oneself	-10.8082
▁senses	-10.8083
▁parting	-10.8083
▁forces	-10.8089
will	-10.8089
▁supply	-10.809
du	-10.8099
▁Se	-10.81
▁clearing	-10.8102
▁depth	-10.8105
▁sober	-10.8108
▁sorts	-10.811
just	-10.8113
▁Mo	-10.8115
▁Andrew	-10.8116
▁farmer	-10.8118
▁erect	-10.812
▁maketh	-10.8123
▁Peace	-10.8135
▁Court	-10.8138
▁reasonable	-10.8142
▁firmly	-10.8146
▁Up	-10.816
light	-10.8161
▁inquiry	-10.8165
▁Woodhouse	-10.8165
▁saints	-10.8166
▁benefit	-10.8169
▁error	-10.817
▁beaten	-10.8171
▁steep	-10.8172
▁calls	-10.8174
▁plunged	-10.8175
▁pronounced	-10.8176
▁recognize	-10.8176
▁hedge	-10.8178
▁restored	-10.8181
▁po	-10.8193
▁PRINCE	-10.8196
▁Garth	-10.8197
▁bay	-10.8198
▁assembled	-10.8202
▁ram	-10.8205
▁turns	-10.8211
▁arrive	-10.8214
▁breathe	-10.8218
▁plate	-10.8226
▁Cassio	-10.8228
▁Blessed	-10.8232
▁ambition	-10.8232
▁Roman	-10.8233
▁wheels	-10.8235
▁boots	-10.8239
▁withal	-10.824
▁None	-10.8241
▁load	-10.8244
▁scent	-10.825
▁flocks	-10.8252
▁horn	-10.8257
▁shows	-10.8258
ure	-10.826
▁Werper	-10.826
▁medicine	-10.826
▁countries	-10.826
▁expense	-10.8265
▁shirt	-10.8265
▁retired	-10.8272
▁ruler	-10.8273
▁experiment	-10.8281
ology	-10.8286
▁fore	-10.8287
▁federal	-10.8292
▁funeral	-10.8292
eyed	-10.8293
▁mixed	-10.8296
▁jealousy	-10.8297
▁method	-10.8297
▁motive	-10.8297
▁maintain	-10.8301
▁divide	-10.8302
▁concealed	-10.8302
▁card	-10.8303
gr	-10.8306
▁limbs	-10.8306
▁ate	-10.8307
▁directions	-10.8318
▁Rebecca	-10.8324
▁helpless	-10.8326
▁article	-10.833
▁Against	-10.8333
den	-10.8333
▁scale	-10.8336
▁leisure	-10.8348
▁intense	-10.8348
▁horns	-10.835
▁prefer	-10.8351
▁Blake	-10.8356
▁disappointed	-10.8357
▁Thomasin	-10.8362
▁conceal	-10.8364
▁corners	-10.8368
▁relations	-10.8372
▁ta	-10.8377
▁CLOWN	-10.8388
▁Rokoff	-10.8388
▁college	-10.8388
▁mud	-10.8389
▁stolen	-10.8392
▁Princess	-10.8394
▁tenderness	-10.8395
ise	-10.84
▁cell	-10.8401
▁views	-10.8415
▁active	-10.8417
▁famine	-10.842
▁measures	-10.8423
▁follows	-10.8424
13	-10.8428
▁Saxon	-10.8428
ized	-10.8433
▁mild	-10.8436
▁plates	-10.8448
▁Defarge	-10.8452
▁indignation	-10.8452
▁denied	-10.8453
▁President	-10.8453
▁non	-10.8454
▁desk	-10.8454
▁Grand	-10.8454
▁11	-10.8457
▁preach	-10.8469
21	-10.8477
ca	-10.8479
▁Joe	-10.8481
▁sailors	-10.8484
▁doubtless	-10.8493
▁laying	-10.8493
▁Emil	-10.8495
▁pitched	-10.8499
▁brains	-10.8501
▁Amen	-10.8511
▁process	-10.8513
▁design	-10.8515
book	-10.8516
▁horrid	-10.8517
▁waist	-10.8518
ally	-10.8527
▁objection	-10.8529
▁suspected	-10.853
tu	-10.8534
▁awhile	-10.8536
▁folks	-10.8538
▁inch	-10.8541
▁desires	-10.8544
▁compassion	-10.8545
yes	-10.855
▁species	-10.855
▁Dickon	-10.8551
▁repose	-10.8551
▁thirst	-10.8551
▁announced	-10.8555
▁Tip	-10.8557
▁murmur	-10.8558
▁constantly	-10.856
▁clothing	-10.8564
▁riding	-10.8566
▁despised	-10.8568
ries	-10.857
▁slaughter	-10.8573
rate	-10.8578
▁Moonstone	-10.8583
▁readily	-10.8585
▁Romeo	-10.8586
▁commenced	-10.8588
▁fountain	-10.8592
▁hint	-10.8594
▁movements	-10.8594
▁Bath	-10.8595
▁se	-10.8596
▁boats	-10.8597
▁towns	-10.8601
▁intend	-10.8607
▁range	-10.861
▁poverty	-10.8616
▁twilight	-10.8616
▁Wesley	-10.8616
▁merit	-10.8616
▁sabbath	-10.8625
▁wherewith	-10.8626
▁trusted	-10.863
▁consumed	-10.863
▁male	-10.8636
▁shoot	-10.8639
▁Virginia	-10.8639
▁contents	-10.864
ative	-10.8641
▁grain	-10.8648
▁tones	-10.8649
▁appetite	-10.8649
▁tidings	-10.8649
▁unpleasant	-10.8649
▁compelled	-10.865
ub	-10.8657
der	-10.8657
▁betray	-10.866
▁corpse	-10.8661
▁defence	-10.8666
At	-10.867
iah	-10.8674
▁foe	-10.8676
▁MESSENGER	-10.8682
▁gospel	-10.8682
▁examination	-10.8682
▁arch	-10.8684
▁considering	-10.8684
▁heavenly	-10.8688
ner	-10.8689
▁statutes	-10.8691
▁earnestly	-10.8692
▁lane	-10.8694
Perhaps	-10.8704
▁practical	-10.8708
One	-10.8711
▁2	-10.8711
▁Alexander	-10.8715
▁Gavroche	-10.8715
▁Percy	-10.8716
▁VII	-10.8719
▁lovers	-10.8724
▁repeat	-10.8726
▁merchant	-10.8727
▁envy	-10.8733
▁obeyed	-10.8735
▁owner	-10.8736
▁neighbours	-10.8742
▁log	-10.8747
▁BRUTUS	-10.8748
▁heavily	-10.8748
▁wheat	-10.8749
ery	-10.875
▁chiefly	-10.8753
▁trip	-10.8755
▁Ro	-10.8758
▁Martian	-10.876
▁realize	-10.8764
▁bond	-10.8767
▁preserved	-10.8774
▁unexpected	-10.8775
▁lean	-10.8778
▁SERVANT	-10.8782
▁dried	-10.8782
▁bride	-10.8782
▁goeth	-10.8784
▁extended	-10.8789
▁pretend	-10.8794
▁corridor	-10.8794
▁warrior	-10.8794
▁affliction	-10.8794
▁shouting	-10.8796
▁Phil	-10.8796
▁reaching	-10.8798
▁wonders	-10.8805
▁sadly	-10.881
▁Put	-10.8811
▁comparison	-10.8815
▁formidable	-10.8815
▁merciful	-10.8815
▁stuck	-10.8815
▁assurance	-10.8816
▁fiery	-10.8816
▁exhausted	-10.8818
though	-10.8823
▁recover	-10.8823
▁incident	-10.8826
▁existed	-10.8826
▁flag	-10.8826
▁Bring	-10.8829
▁combat	-10.884
▁Manasseh	-10.8849
▁Verinder	-10.8849
▁solitary	-10.8849
▁discourse	-10.8849
▁amazement	-10.8849
▁Whether	-10.885
▁knowest	-10.8851
▁obscure	-10.8854
▁marks	-10.8855
▁exist	-10.8857
▁heir	-10.886
▁manifest	-10.8862
▁Ja	-10.888
▁indifferent	-10.8881
25	-10.8883
▁goats	-10.8883
▁McLean	-10.8883
▁expedition	-10.8883
ach	-10.8887
▁torture	-10.8889
head	-10.889
▁Englishman	-10.8891
▁hail	-10.8893
▁whereof	-10.8899
▁tents	-10.8901
▁unusual	-10.8909
▁greatness	-10.8913
▁Po	-10.8913
▁Godfrey	-10.8917
▁Terry	-10.8917
▁Arabella	-10.8917
▁doom	-10.8922
▁troops	-10.8923
▁insisted	-10.8924
▁knoweth	-10.8935
▁sheet	-10.8936
▁counter	-10.8943
▁sentiment	-10.8946
▁cloak	-10.8951
▁Hill	-10.8954
▁City	-10.8955
▁Indians	-10.8955
▁enjoyment	-10.8955
▁kindred	-10.8956
▁puzzled	-10.8958
▁invited	-10.8963
▁rivers	-10.8964
▁punish	-10.8973
why	-10.8974
▁fa	-10.8977
▁bench	-10.8983
▁uneasy	-10.8985
▁rescue	-10.8986
▁expecting	-10.8987
au	-10.8987
▁fright	-10.9
ey	-10.9002
▁thread	-10.9003
▁satisfy	-10.9007
▁Eve	-10.9017
▁term	-10.9019
▁Stand	-10.9025
▁detail	-10.9025
▁mayest	-10.9026
▁humanity	-10.9026
Can	-10.9027
▁beggar	-10.9028
▁climb	-10.9031
ath	-10.9032
▁decide	-10.9034
▁exchange	-10.9034
▁summit	-10.9034
▁phrase	-10.9035
▁earthly	-10.9044
▁Into	-10.9045
▁tongues	-10.9045
▁independent	-10.9046
▁dig	-10.9046
stone	-10.9047
▁PAGE	-10.9054
▁easier	-10.9054
▁Joab	-10.9054
▁Book	-10.9054
▁silly	-10.9055
▁sunk	-10.9059
▁magic	-10.9066
▁challenge	-10.9068
▁knave	-10.9069
▁elbow	-10.9069
▁bars	-10.9071
▁entreat	-10.9073
▁occasions	-10.9074
▁properly	-10.9078
▁feeble	-10.9085
▁communication	-10.9088
▁yoke	-10.9091
▁meantime	-10.9092
▁27	-10.9093
▁protect	-10.9096
▁condemned	-10.9097
▁Within	-10.9098
▁recalled	-10.9098
▁imp	-10.9101
▁jump	-10.9101
▁crowded	-10.9117
▁10	-10.9117
▁Over	-10.9118
▁Ex	-10.9122
les	-10.9122
▁b	-10.9122
▁steadily	-10.9123
▁guessed	-10.9124
▁Everything	-10.9125
▁trap	-10.9126
▁Louis	-10.9129
▁persuade	-10.9137
▁Je	-10.9141
▁lust	-10.9142
▁resting	-10.9143
▁chariots	-10.9147
▁Dashwood	-10.9157
▁Fauchelevent	-10.9157
▁awoke	-10.9157
▁piano	-10.9157
▁moonlight	-10.9158
▁habits	-10.9162
headed	-10.9174
▁mode	-10.9174
▁source	-10.9175
▁lively	-10.9177
▁Emperor	-10.9192
▁coffee	-10.9192
▁indifference	-10.9192
▁womb	-10.9192
▁reverence	-10.9192
▁attachment	-10.9193
▁raising	-10.9196
▁chains	-10.9197
▁strangely	-10.9198
ving	-10.9204
▁establish	-10.9205
▁elephant	-10.921
Jane	-10.9216
▁universal	-10.922
▁giveth	-10.9221
pa	-10.9222
▁mar	-10.9227
▁agitation	-10.9227
▁Irene	-10.9227
▁lieutenant	-10.9227
▁dining	-10.9234
▁sending	-10.9234
▁von	-10.9235
24	-10.924
▁answering	-10.9241
▁suburbs	-10.9241
▁breathed	-10.9244
29	-10.9253
▁bury	-10.9255
▁ventured	-10.9256
▁Le	-10.9258
▁Casterbridge	-10.9262
▁Vincy	-10.9262
▁Castle	-10.9263
▁Remember	-10.9264
▁aboard	-10.9269
▁protest	-10.9275
▁awe	-10.928
▁Soon	-10.928
gg	-10.9283
▁page	-10.9283
▁limb	-10.9284
▁tight	-10.9284
▁expectation	-10.9284
▁copy	-10.9286
▁wishing	-10.929
RS	-10.9295
▁lesson	-10.9295
▁steam	-10.9297
▁accordingly	-10.9301
board	-10.9305
▁chase	-10.9312
▁stomach	-10.9316
▁region	-10.9317
fi	-10.9324
▁covering	-10.9326
▁CHR	-10.9333
▁ridiculous	-10.9333
▁Fear	-10.9338
▁cutting	-10.9338
▁spoiled	-10.9351
▁bite	-10.9355
▁X	-10.9359
▁physical	-10.9362
▁Barsoom	-10.9368
▁Madeleine	-10.9368
▁Sapt	-10.9369
▁Tin	-10.9369
▁discussion	-10.9369
▁inches	-10.9382
▁planted	-10.9386
even	-10.9387
▁clerk	-10.9389
▁tables	-10.939
▁Li	-10.9392
▁prevented	-10.9392
Never	-10.9394
va	-10.9397
▁par	-10.9397
▁des	-10.94
▁Exit	-10.9401
▁pin	-10.9402
▁Willoughby	-10.9404
▁professor	-10.9405
▁Porter	-10.9406
▁witch	-10.9411
▁Away	-10.9416
▁descend	-10.9417
▁gesture	-10.9425
▁redeem	-10.9429
▁Almighty	-10.944
▁blew	-10.944
▁abode	-10.944
▁purposes	-10.9444
▁North	-10.9449
▁dense	-10.9456
▁misfortune	-10.9461
▁spectacle	-10.9461
▁lip	-10.9463
▁Gloucester	-10.9475
▁Conseil	-10.9475
▁virtuous	-10.9475
▁Coggan	-10.9476
▁elsewhere	-10.9477
▁intervals	-10.9479
▁emerged	-10.9483
now	-10.9484
▁examine	-10.9492
▁Red	-10.9495
▁seize	-10.9498
▁unconscious	-10.9502
▁nonsense	-10.9511
▁Green	-10.9512
▁collar	-10.9512
▁Whom	-10.9512
▁saving	-10.9515
▁confined	-10.952
▁jewels	-10.9524
▁cage	-10.9526
▁coward	-10.9527
ley	-10.9535
Because	-10.9536
▁confused	-10.9542
▁drops	-10.9542
ham	-10.9546
▁joke	-10.9546
▁OTHELLO	-10.9547
▁folded	-10.9553
▁floating	-10.9554
▁madness	-10.9559
▁disgrace	-10.956
pro	-10.9563
▁dreamed	-10.9563
▁ruined	-10.9569
▁Greek	-10.957
▁humor	-10.9571
▁effects	-10.9572
▁bush	-10.9578
▁jewel	-10.9579
▁solitude	-10.9584
▁porch	-10.9584
▁community	-10.9584
▁im	-10.9584
▁complexion	-10.9586
27	-10.9586
▁Highness	-10.9588
▁introduced	-10.9595
▁test	-10.9596
▁recall	-10.9598
▁succeed	-10.9598
26	-10.9601
▁bark	-10.9601
▁Ar	-10.9604
▁pot	-10.9606
▁mirror	-10.962
▁pavement	-10.962
▁June	-10.962
▁staff	-10.9623
twas	-10.9623
▁knights	-10.9624
▁searching	-10.9626
▁leap	-10.9632
▁Know	-10.9645
▁arrow	-10.9646
▁El	-10.9647
▁Lucetta	-10.9657
▁inclination	-10.9657
▁Next	-10.9658
▁drag	-10.9662
▁gets	-10.9666
▁resist	-10.967
▁frequent	-10.9677
▁bone	-10.9679
Will	-10.9682
▁articles	-10.9686
▁fiend	-10.969
Arnot	-10.9693
▁Hiawatha	-10.9693
▁IAGO	-10.9693
▁Ladislaw	-10.9693
▁abundance	-10.9693
▁ceremony	-10.9693
▁wearing	-10.9697
▁attracted	-10.9699
▁relieved	-10.9705
▁lions	-10.9706
▁prevail	-10.9708
▁letting	-10.9712
▁humour	-10.9718
▁belly	-10.9728
▁Marry	-10.9731
▁spell	-10.9732
30	-10.974
▁devour	-10.9742
▁15	-10.9746
▁traitor	-10.9755
▁Bo	-10.9756
▁Sing	-10.9757
av	-10.9759
▁actual	-10.976
▁positive	-10.976
▁enterprise	-10.9767
▁pockets	-10.9767
▁Carter	-10.9767
▁parish	-10.9767
▁theory	-10.9767
▁Mistress	-10.9768
▁armour	-10.977
▁fog	-10.9772
▁March	-10.9772
▁Day	-10.9773
kin	-10.9773
ENT	-10.9779
▁speaks	-10.978
▁seeming	-10.9781
▁pillars	-10.9782
old	-10.9793
OR	-10.9794
▁library	-10.9804
▁Arthur	-10.9804
▁majority	-10.9804
▁gas	-10.9817
▁VIII	-10.9821
▁holds	-10.9826
tion	-10.983
▁wondrous	-10.9841
▁interview	-10.9841
▁Nicholl	-10.9841
▁warmth	-10.9849
▁causes	-10.9851
28	-10.9851
▁betrayed	-10.9853
▁devils	-10.9856
uf	-10.9861
▁dislike	-10.9861
ip	-10.9865
▁despise	-10.9867
▁virgin	-10.9868
▁connection	-10.9869
▁actions	-10.9872
▁constitution	-10.9874
ze	-10.9876
▁Samaria	-10.9878
▁remainder	-10.9879
▁faded	-10.9887
23	-10.9895
▁West	-10.9897
▁aged	-10.9898
▁doctrine	-10.9906
34	-10.9906
▁serpent	-10.9906
▁resolve	-10.9909
▁wages	-10.9914
ice	-10.9914
▁pole	-10.9923
gue	-10.9941
▁pine	-10.9945
▁mutual	-10.9946
▁Smith	-10.9953
▁romantic	-10.9953
▁studied	-10.9953
▁Night	-10.9954
▁civilization	-10.9954
▁disagreeable	-10.9954
▁tempest	-10.9954
▁curtains	-10.9956
▁downstairs	-10.9957
▁troubles	-10.9959
born	-10.9964
▁treasures	-10.9964
▁hired	-10.9965
od	-10.9968
▁boast	-10.9974
▁wretch	-10.9978
▁sweat	-10.9979
▁cleared	-10.9982
▁Thuvia	-10.9991
▁parlor	-10.9991
▁observing	-10.9992
▁chambers	-10.9996
▁neighbors	-11.0006
▁cock	-11.0015
▁tenth	-11.0019
lu	-11.0028
▁fancied	-11.0029
▁pressure	-11.0029
▁absorbed	-11.0031
pp	-11.0033
▁fairy	-11.0035
▁et	-11.0035
▁bitterness	-11.0037
end	-11.0041
▁roses	-11.0047
▁provide	-11.0047
▁conceived	-11.0049
▁acted	-11.0052
▁footsteps	-11.0057
▁chimney	-11.0059
31	-11.0062
▁Middlemarch	-11.0067
▁invitation	-11.0067
▁Ardan	-11.0067
▁miracle	-11.0098
▁operation	-11.0099
▁experienced	-11.0101
▁wits	-11.0105
▁coffin	-11.0105
▁smoking	-11.0105
▁lunch	-11.0105
▁series	-11.0106
▁preferred	-11.0106
▁Becky	-11.0106
▁Russian	-11.0106
▁blacks	-11.0109
▁hereafter	-11.0109
ments	-11.011
ping	-11.0112
▁creeping	-11.0116
▁cannon	-11.0121
▁amongst	-11.0121
▁push	-11.0122
▁performed	-11.0122
▁likeness	-11.0123
▁reserved	-11.0125
then	-11.0129
▁peril	-11.0138
▁courts	-11.0142
▁exceeding	-11.0143
▁regiment	-11.0144
▁Fix	-11.0144
▁killing	-11.0146
▁graceful	-11.0146
▁wasted	-11.0148
▁Island	-11.0151
▁damned	-11.0151
▁ascended	-11.0152
▁borders	-11.0153
▁Must	-11.0156
▁jaws	-11.0158
▁provision	-11.0158
▁chairs	-11.0162
▁gladly	-11.0164
had	-11.0165
▁perpetual	-11.0175
▁formerly	-11.0176
▁gathering	-11.0176
▁tin	-11.0177
▁thereby	-11.0178
ten	-11.0178
▁Hell	-11.018
▁Pearl	-11.0182
▁brake	-11.0182
▁pattern	-11.0184
can	-11.0187
▁muscles	-11.0187
▁buildings	-11.0189
▁hasn	-11.0191
▁emotions	-11.0196
▁teacher	-11.0196
▁disturb	-11.0198
▁commission	-11.0203
▁whales	-11.0206
▁execution	-11.0207
▁physician	-11.0214
▁performance	-11.0215
Ay	-11.0218
car	-11.022
▁ANTONY	-11.0221
▁bargain	-11.0221
▁notwithstanding	-11.0221
▁obedience	-11.0221
▁preceding	-11.0221
▁supreme	-11.0221
▁Life	-11.0222
▁Brother	-11.0222
▁anointed	-11.0224
▁witnesses	-11.0229
▁united	-11.023
▁scream	-11.0231
▁climbed	-11.0233
▁compared	-11.0235
ding	-11.024
▁Martians	-11.0246
▁awkward	-11.0249
▁tells	-11.0251
▁20	-11.0251
▁cheap	-11.0253
▁volume	-11.0254
▁leaf	-11.0256
▁Utterson	-11.0259
▁Daniel	-11.0259
▁losing	-11.026
▁Number	-11.026
▁Simon	-11.0261
▁sunlight	-11.0262
▁Kate	-11.0265
▁angle	-11.027
▁roots	-11.0275
▁measured	-11.0279
▁slumber	-11.0286
▁plead	-11.0287
▁guards	-11.0295
▁purchase	-11.0295
▁Hezekiah	-11.0298
▁Martha	-11.0298
▁crazy	-11.0298
▁Cuff	-11.0299
▁employment	-11.03
▁fur	-11.0302
▁perfection	-11.0308
▁grasped	-11.0313
ify	-11.0315
bi	-11.0317
pl	-11.032
▁restore	-11.032
▁sharply	-11.0326
▁fortunes	-11.0327
▁Tis	-11.0328
▁missing	-11.0328
▁aim	-11.033
▁vineyard	-11.0333
▁sensation	-11.0333
▁withdrew	-11.0337
▁sub	-11.0339
▁cent	-11.0342
▁indicated	-11.0345
▁Mine	-11.0347
▁hunted	-11.0356
▁inquire	-11.0357
▁saddle	-11.0357
▁fruits	-11.0359
ons	-11.036
▁acknowledge	-11.036
▁Pro	-11.036
▁offend	-11.0362
▁wax	-11.0365
▁stout	-11.0369
▁reserve	-11.0369
▁interval	-11.0373
▁nigger	-11.0373
▁occur	-11.0377
▁Sweet	-11.0377
▁Stubb	-11.0378
▁oxen	-11.0378
ever	-11.0378
king	-11.0379
▁26	-11.0386
▁disease	-11.0393
▁bitterly	-11.0397
▁repair	-11.0406
▁quantity	-11.0416
▁opposition	-11.0416
▁collection	-11.0417
35	-11.0424
▁inform	-11.0425
▁murderer	-11.0426
▁hay	-11.0426
▁deceive	-11.0431
▁contented	-11.0438
▁hundreds	-11.0443
▁heath	-11.045
▁oak	-11.0453
▁swore	-11.0455
▁variety	-11.0455
▁landscape	-11.0456
▁uncertain	-11.0457
▁coach	-11.0457
▁amusement	-11.0457
▁Down	-11.0459
▁rang	-11.0471
▁swallow	-11.0473
▁Dear	-11.0476
▁adventures	-11.0478
tree	-11.0481
ED	-11.0483
▁throng	-11.0485
▁essential	-11.0488
▁revolver	-11.0493
▁chances	-11.0494
▁clung	-11.0495
▁slender	-11.0495
▁Perry	-11.0496
▁globe	-11.0498
▁Br	-11.0499
▁amazed	-11.05
▁visitor	-11.05
▁crossing	-11.0506
▁pack	-11.0511
▁badly	-11.0516
▁Ten	-11.0518
faced	-11.0519
▁songs	-11.0521
Dear	-11.0525
▁esteem	-11.0525
▁blush	-11.053
▁Keep	-11.0539
ability	-11.0552
▁sofa	-11.0552
ap	-11.0556
▁calmly	-11.0556
▁sealed	-11.0558
▁alarmed	-11.0558
▁convention	-11.056
▁trumpets	-11.0561
▁steamer	-11.0563
▁warned	-11.0565
▁ideal	-11.0568
▁gallant	-11.0569
▁Has	-11.0569
▁Assyria	-11.0571
▁convent	-11.0573
▁nerves	-11.0574
▁enthusiasm	-11.0575
▁qualities	-11.0575
▁devotion	-11.0575
▁General	-11.0578
▁toil	-11.0579
▁tossed	-11.058
▁exalted	-11.058
▁afflicted	-11.0581
▁abandoned	-11.0581
▁porter	-11.0582
ging	-11.0589
▁keeps	-11.0592
▁lodge	-11.0594
▁lawful	-11.0605
▁ca	-11.0608
ings	-11.0617
▁Something	-11.0619
▁agent	-11.062
▁cur	-11.0621
God	-11.0639
37	-11.0653
▁disguise	-11.0654
▁eldest	-11.0656
▁Meanwhile	-11.0656
▁intelligent	-11.0656
▁landed	-11.0663
▁altered	-11.0665
▁consequences	-11.0672
▁conceive	-11.0678
▁guilt	-11.0684
▁someone	-11.0685
▁deer	-11.0691
▁begins	-11.0695
cy	-11.0696
▁GENTLEMAN	-11.0696
▁impatience	-11.0696
▁scientific	-11.0696
▁marvellous	-11.0696
▁strife	-11.0696
▁darling	-11.0696
▁applied	-11.0698
9.	-11.07
▁represented	-11.0703
▁shaken	-11.0706
lt	-11.0706
▁glasses	-11.071
▁staying	-11.0713
▁distinguish	-11.0713
▁reckoned	-11.0717
▁bestow	-11.0717
▁Dan	-11.0722
▁chill	-11.0725
▁condemn	-11.0725
▁Arab	-11.0726
▁deserved	-11.0726
▁tha	-11.0727
▁characters	-11.0728
▁continual	-11.073
▁zeal	-11.0736
▁coarse	-11.0737
▁insomuch	-11.0737
▁staircase	-11.0737
▁Caleb	-11.0737
▁lowered	-11.0737
▁searched	-11.0738
▁club	-11.0738
▁daring	-11.0741
▁fired	-11.0749
▁roads	-11.0749
▁wont	-11.0751
▁assumed	-11.0755
▁butter	-11.0756
▁willingly	-11.0756
▁bonds	-11.0763
▁secrets	-11.0765
▁villages	-11.0768
lin	-11.0769
▁furious	-11.077
only	-11.0771
tur	-11.0774
▁Britain	-11.0777
▁TIMON	-11.0777
▁Watson	-11.0777
▁Summerlee	-11.0777
▁timber	-11.0777
▁Enjolras	-11.0778
▁ransom	-11.0778
▁Instead	-11.078
▁fitted	-11.078
▁abruptly	-11.0781
▁Nobody	-11.0782
▁remarks	-11.0783
▁swallowed	-11.0788
▁gleam	-11.0796
▁marrying	-11.08
▁tri	-11.0805
▁inherit	-11.0807
▁fortunate	-11.0812
▁spy	-11.0813
da	-11.0814
▁rail	-11.0816
▁India	-11.0816
▁terrified	-11.0818
▁Farebrother	-11.0818
▁Fox	-11.0819
▁Grant	-11.0819
▁recollection	-11.082
ib	-11.0823
▁etc	-11.0827
▁longing	-11.0831
▁intimate	-11.0832
▁changes	-11.0833
oh	-11.0844
▁idols	-11.0848
▁strict	-11.0851
▁obvious	-11.0852
▁employ	-11.0853
▁East	-11.0854
▁valour	-11.086
▁Gables	-11.086
▁flashed	-11.0874
▁frown	-11.0878
▁convenient	-11.0894
▁Tz	-11.0895
▁rulers	-11.0896
▁assembly	-11.0901
▁repentance	-11.0902
▁preparation	-11.0904
▁million	-11.0904
▁lodging	-11.0905
▁apple	-11.0905
▁string	-11.0907
▁cake	-11.0907
▁lace	-11.0909
▁robe	-11.0911
▁Pe	-11.0914
▁sixth	-11.0919
▁bears	-11.0922
▁completed	-11.0922
▁wander	-11.0922
▁assist	-11.0923
▁barn	-11.0929
▁prophesy	-11.0929
▁caution	-11.0932
▁block	-11.0934
▁exquisite	-11.0935
▁bulk	-11.0938
▁paths	-11.094
▁Fairfax	-11.0942
▁dominion	-11.0942
▁uncomfortable	-11.0942
ied	-11.0944
▁collected	-11.0949
▁coal	-11.095
▁dangers	-11.0959
▁mouths	-11.0965
wa	-11.0967
▁mourn	-11.0969
▁prosper	-11.0972
Miss	-11.0973
Nothing	-11.0973
minded	-11.0973
RE	-11.0975
▁Temple	-11.0982
▁raft	-11.0983
▁gardens	-11.0984
▁Tilney	-11.0984
▁discretion	-11.0984
▁threshold	-11.0984
▁drunken	-11.0985
▁childhood	-11.0985
▁revolution	-11.0987
▁66	-11.0994
▁fangs	-11.0995
▁suggest	-11.1002
▁abominations	-11.1002
▁falls	-11.1003
▁pig	-11.1005
▁contain	-11.1007
▁liveth	-11.1016
▁naught	-11.1022
▁waving	-11.1026
▁Churchill	-11.1026
▁failure	-11.1027
▁wrapped	-11.1027
▁occasional	-11.1027
▁gravely	-11.103
▁flushed	-11.1033
▁tempted	-11.1036
pi	-11.1036
▁grieved	-11.1044
▁create	-11.105
▁Ga	-11.1054
rie	-11.1057
▁leather	-11.1065
▁bands	-11.1067
▁inferior	-11.1067
▁YORK	-11.1068
▁courtesy	-11.1068
▁paying	-11.1068
▁Lucy	-11.1068
▁Silver	-11.1069
▁Sister	-11.1069
▁Woe	-11.107
dy	-11.1074
ras	-11.1076
▁kindled	-11.1085
▁flames	-11.1087
▁contrast	-11.1088
▁sacrifices	-11.1088
▁rushing	-11.109
▁supported	-11.1097
▁neat	-11.1107
▁delicious	-11.111
▁treason	-11.111
▁Rosanna	-11.1111
▁closing	-11.1111
▁bonnet	-11.1111
▁lamps	-11.1111
▁stopping	-11.1113
▁messengers	-11.1122
bar	-11.1124
▁happens	-11.1126
▁Mu	-11.1132
▁roaring	-11.1133
▁Judas	-11.1137
box	-11.1139
side	-11.1147
▁Hirst	-11.1152
▁dismal	-11.1153
▁railway	-11.1153
▁Turn	-11.1154
▁pleasing	-11.1158
▁firstborn	-11.1161
▁modest	-11.1161
past	-11.1161
▁bestowed	-11.1164
▁5	-11.1164
▁canoe	-11.1165
▁dressing	-11.1166
oc	-11.1166
▁danced	-11.1169
▁sailed	-11.1174
tal	-11.1182
▁sweep	-11.1183
ung	-11.1185
▁vent	-11.1185
▁eighteen	-11.1193
▁subtle	-11.1195
▁Gillenormand	-11.1195
▁Templar	-11.1195
▁Saw	-11.1196
▁theatre	-11.1197
▁Him	-11.12
▁problem	-11.1201
▁crushed	-11.1201
▁drum	-11.1202
▁drowned	-11.1204
▁whereas	-11.1209
▁Mont	-11.1219
ft	-11.1222
row	-11.1223
ld	-11.1235
ified	-11.1236
▁images	-11.1236
▁LADY	-11.1238
▁henceforth	-11.1238
▁romance	-11.1238
▁Isabella	-11.1238
▁Senate	-11.1238
▁Hewet	-11.1238
▁2:3	-11.1239
▁clay	-11.1239
▁Place	-11.1239
▁awakened	-11.1243
▁pillow	-11.1244
▁unlike	-11.1246
▁illness	-11.1262
Just	-11.1269
ification	-11.1271
▁acting	-11.1271
▁absurd	-11.1272
▁gross	-11.1273
▁halt	-11.1275
ain	-11.1275
▁Finally	-11.1281
▁separation	-11.1281
▁residence	-11.1281
▁creation	-11.1281
▁stove	-11.1284
▁ox	-11.1288
long	-11.1289
▁talents	-11.1295
▁harsh	-11.1314
▁mid	-11.1317
▁beds	-11.1318
▁fan	-11.1319
▁determination	-11.1325
▁preparing	-11.1326
▁dirty	-11.1328
▁receiving	-11.1328
▁hoping	-11.1329
▁oppressed	-11.1329
▁brick	-11.1331
▁Hall	-11.1332
▁tie	-11.1332
▁blade	-11.1333
▁intently	-11.1337
▁knowed	-11.134
▁bending	-11.1341
▁Hast	-11.1344
▁neglect	-11.1346
▁blank	-11.1361
▁BOOK	-11.1367
▁verily	-11.1367
▁intellectual	-11.1368
▁Queequeg	-11.1368
here	-11.137
▁facing	-11.137
▁justified	-11.1372
▁occupation	-11.1375
▁admired	-11.1387
▁colours	-11.1388
▁Ra	-11.1399
▁Doth	-11.1404
▁grows	-11.1405
▁unjust	-11.1407
▁Congress	-11.1411
▁crimson	-11.1411
▁saloon	-11.1411
▁Bruff	-11.1411
▁lent	-11.1412
▁park	-11.1414
40	-11.1419
▁errand	-11.1422
▁furnish	-11.1426
▁Egyptians	-11.1429
▁assume	-11.1435
▁smallest	-11.1435
▁creep	-11.1439
▁pleasures	-11.1441
▁belonging	-11.1442
▁impatient	-11.1447
▁genuine	-11.1454
▁teaching	-11.1456
▁favourite	-11.1461
▁doubtful	-11.1467
ide	-11.147
▁liege	-11.1474
▁discern	-11.1474
▁advise	-11.1475
▁fist	-11.1476
▁Allan	-11.1479
▁murdered	-11.1481
low	-11.1481
▁abuse	-11.1482
▁feathers	-11.1482
▁marched	-11.1482
▁propose	-11.1485
yard	-11.1491
▁sixteen	-11.1496
▁Tarkas	-11.1498
▁ceiling	-11.1498
▁tyrant	-11.1498
▁Duncan	-11.1498
▁clergyman	-11.1498
▁bondage	-11.1499
▁rules	-11.1499
▁horsemen	-11.1504
▁paces	-11.1505
▁heartily	-11.1506
▁restless	-11.1507
▁seats	-11.1508
▁arrangement	-11.1509
▁boldly	-11.1518
enter	-11.1521
▁affections	-11.1527
▁defeat	-11.1532
▁witnessed	-11.1536
▁origin	-11.1538
▁British	-11.1542
▁Esau	-11.1542
▁gang	-11.1542
▁atonement	-11.1542
▁destiny	-11.1542
▁advancing	-11.1543
▁Lu	-11.1547
▁threatened	-11.1548
▁confounded	-11.1549
▁vice	-11.1554
▁encountered	-11.1557
▁legal	-11.156
▁accord	-11.1564
▁Fa	-11.1564
▁release	-11.1566
vo	-11.1567
▁curiously	-11.157
▁trespass	-11.1573
▁accompany	-11.1575
▁couch	-11.1576
▁weigh	-11.1577
▁lambs	-11.1579
iest	-11.1584
▁extremity	-11.1586
▁nephew	-11.1586
▁enclosure	-11.1586
▁malice	-11.1586
▁assault	-11.1587
▁cruelty	-11.1588
▁6	-11.1589
▁goodly	-11.159
▁peaceful	-11.1591
▁published	-11.1593
▁compliment	-11.1597
▁doeth	-11.1599
▁loins	-11.1604
LE	-11.1608
▁admire	-11.1611
rr	-11.1611
▁Pa	-11.1612
▁sentiments	-11.1612
▁career	-11.1629
▁criminal	-11.1631
▁dropping	-11.1631
▁behaviour	-11.1633
▁3	-11.1633
▁careless	-11.1633
▁confession	-11.1635
▁Unto	-11.1635
▁baptized	-11.1636
▁justify	-11.1637
ris	-11.1638
where	-11.1642
mi	-11.1642
▁distinction	-11.1643
▁acquired	-11.1644
▁Ba	-11.1645
ered	-11.1646
▁worm	-11.165
▁bows	-11.1651
▁lessons	-11.1654
▁Tars	-11.1655
two	-11.1656
EN	-11.1662
▁mask	-11.1665
▁proceeding	-11.1667
atory	-11.1669
▁submit	-11.1674
▁text	-11.1675
▁Moroni	-11.1675
▁Akut	-11.1675
▁mirth	-11.1675
▁tempt	-11.1681
▁citizen	-11.1688
▁establishment	-11.1688
▁sunset	-11.1694
▁cares	-11.1696
▁entertain	-11.1697
▁bloom	-11.1698
▁contract	-11.1709
An	-11.1712
▁War	-11.1712
▁1:3	-11.1713
▁Rushworth	-11.172
▁narrative	-11.172
▁neighbourhood	-11.1721
▁Harry	-11.1721
▁speedily	-11.1721
▁forsaken	-11.1725
▁floated	-11.1727
▁healed	-11.1729
▁dashed	-11.173
▁bullock	-11.1733
▁chariot	-11.1733
▁grounds	-11.1734
▁46	-11.1735
▁pages	-11.1741
▁waved	-11.175
▁Di	-11.1752
off	-11.1754
▁hearth	-11.1754
ction	-11.1758
▁passions	-11.1758
ties	-11.1764
▁rings	-11.1764
▁WARWICK	-11.1765
▁iniquities	-11.1765
▁policy	-11.1765
▁struggling	-11.1765
▁proposal	-11.1766
▁fortnight	-11.1766
ps	-11.1767
▁earn	-11.1768
▁hasty	-11.1768
▁nay	-11.1771
▁Young	-11.1772
▁Ray	-11.1781
▁smiles	-11.1783
▁anxiously	-11.1787
▁axe	-11.1788
keeper	-11.1797
glass	-11.1797
cap	-11.1799
lon	-11.1799
▁nobles	-11.1805
▁Avonlea	-11.1811
▁banquet	-11.1811
▁injury	-11.1811
▁Laban	-11.1811
▁interpretation	-11.1811
▁clasped	-11.1815
▁adopted	-11.1817
▁followers	-11.1823
▁income	-11.1828
▁convey	-11.1833
▁reasoning	-11.184
ient	-11.1841
▁Venn	-11.185
▁dealt	-11.1852
▁successful	-11.1852
▁CHORUS	-11.1856
▁Jeroboam	-11.1856
▁sepulchre	-11.1856
▁permission	-11.1856
▁Clarence	-11.1856
▁Room	-11.1856
▁blowing	-11.1867
▁boughs	-11.1867
▁type	-11.187
▁exposed	-11.1871
ick	-11.1874
▁brows	-11.1888
▁anchor	-11.1891
▁onward	-11.1892
▁bringeth	-11.1894
▁vivid	-11.1894
▁recent	-11.1895
▁fourteen	-11.19
▁innocence	-11.1902
▁legislative	-11.1902
▁skull	-11.1902
▁hesitation	-11.1902
▁attraction	-11.1904
▁artist	-11.1905
▁hinder	-11.1909
7.	-11.1915
▁standard	-11.1921
qu	-11.1922
▁afar	-11.1925
▁retain	-11.1926
Sir	-11.1938
▁downward	-11.194
▁complain	-11.1944
▁IX	-11.1945
▁Absalom	-11.1948
▁Front	-11.1948
▁Wentworth	-11.1948
▁desolation	-11.1948
▁elegant	-11.1948
▁deaf	-11.1948
▁flies	-11.1951
▁penny	-11.1951
▁gasped	-11.1953
ess	-11.1955
liness	-11.1958
▁37	-11.196
▁Ona	-11.1962
ram	-11.1966
▁pressing	-11.1968
▁alter	-11.1968
▁released	-11.1968
ency	-11.1972
▁fatigue	-11.1974
▁wi	-11.1982
▁total	-11.1983
han	-11.1991
See	-11.1992
▁thirteen	-11.1992
▁Chicago	-11.1994
▁Providence	-11.1994
▁Warwick	-11.1994
▁FORD	-11.1994
▁expedient	-11.1994
▁quitted	-11.1995
▁consume	-11.1996
▁kin	-11.1998
▁stain	-11.2
▁ours	-11.2006
▁prevailed	-11.2007
▁sickness	-11.201
▁league	-11.201
▁eighty	-11.2014
▁reveal	-11.2018
▁ascend	-11.2018
▁rags	-11.2023
shop	-11.2025
gate	-11.2029
▁revolt	-11.2029
▁4	-11.2032
▁slope	-11.2037
▁thankful	-11.2038
pot	-11.2039
▁bourgeois	-11.2039
▁ROSALIND	-11.204
▁smitten	-11.204
▁copper	-11.204
▁Montgomery	-11.204
▁descent	-11.204
▁kinds	-11.2041
▁feather	-11.2043
▁darted	-11.2045
▁secretly	-11.2046
▁twins	-11.2049
——”	-11.205
▁subdued	-11.2051
ium	-11.2053
▁heel	-11.2055
▁apprehension	-11.2057
▁folk	-11.2061
▁exception	-11.2061
▁attacked	-11.207
▁lifting	-11.2071
▁Al	-11.2074
rt	-11.208
▁51	-11.2083
▁Phillotson	-11.2086
▁Teeka	-11.2086
▁consolation	-11.2086
▁gossip	-11.2086
▁threescore	-11.2087
▁chap	-11.2089
▁reduced	-11.2096
ions	-11.2097
▁governments	-11.2105
▁sinking	-11.2108
▁45	-11.2109
▁borrow	-11.2111
▁blast	-11.2113
▁pledge	-11.2113
▁discharge	-11.2116
▁stare	-11.2121
▁proceedings	-11.2121
▁conflict	-11.2121
▁faced	-11.2122
▁chanced	-11.2123
AL	-11.2124
▁grieve	-11.2125
▁dusk	-11.2129
▁forsake	-11.213
▁Phileas	-11.2133
▁gigantic	-11.2133
▁squire	-11.2133
▁lump	-11.2133
▁funny	-11.2133
▁jury	-11.2134
▁7:3	-11.2134
▁cellar	-11.2134
▁results	-11.2145
▁lame	-11.2148
rous	-11.215
Ho	-11.2151
▁related	-11.2152
▁behalf	-11.2156
▁prompt	-11.2162
▁crow	-11.2163
▁butcher	-11.2165
wood	-11.2166
because	-11.2169
pt	-11.217
▁Mac	-11.2174
ged	-11.2178
▁Bracy	-11.218
▁Claudio	-11.218
▁epoch	-11.218
▁tarry	-11.2181
▁happier	-11.2181
▁travelling	-11.2182
▁Marie	-11.2182
▁Jove	-11.2183
▁prime	-11.2186
▁ranks	-11.2187
▁relative	-11.2192
post	-11.2195
▁vaguely	-11.2195
▁Oz	-11.2197
▁Mar	-11.2201
▁convince	-11.2207
▁sting	-11.2214
▁foes	-11.2214
▁harness	-11.2217
▁fe	-11.2217
▁virtues	-11.2223
▁literature	-11.2227
▁carpenter	-11.2227
▁Maxon	-11.2227
▁desirous	-11.2227
oth	-11.2228
▁Norris	-11.2228
▁agitated	-11.2229
▁Hero	-11.2229
▁16	-11.2232
▁training	-11.2232
▁certainty	-11.2234
▁Sally	-11.2235
▁lucky	-11.2238
▁swinging	-11.2238
und	-11.2238
▁roused	-11.224
▁attain	-11.2242
▁snake	-11.2249
▁cab	-11.2258
▁Ca	-11.2262
▁walks	-11.2268
ists	-11.227
Urberville	-11.2275
▁ivory	-11.2275
▁tedious	-11.2275
▁vulgar	-11.2275
▁prosperity	-11.2276
▁slavery	-11.2277
▁crest	-11.2278
▁changing	-11.2279
▁youngest	-11.2283
▁sewer	-11.2284
ors	-11.2287
▁novel	-11.2289
▁praised	-11.2289
▁vi	-11.2292
▁temptation	-11.2296
▁drown	-11.23
▁execute	-11.2302
▁ashore	-11.2307
▁undertake	-11.231
▁arrest	-11.2312
▁uniform	-11.2315
ES	-11.2316
izing	-11.2316
▁secured	-11.232
▁concert	-11.2322
▁Pontellier	-11.2322
▁inquiries	-11.2322
▁philosophy	-11.2322
▁remedy	-11.2322
▁desirable	-11.2323
▁Seven	-11.2326
▁Spirits	-11.234
▁affect	-11.2345
▁comprehend	-11.2348
▁dreaming	-11.2351
▁handful	-11.2355
▁hanged	-11.2355
▁banks	-11.2356
▁tremendous	-11.2363
▁Taug	-11.2368
▁breach	-11.2368
▁torch	-11.2368
▁MACBETH	-11.237
▁Marija	-11.237
▁centuries	-11.237
▁foliage	-11.237
▁shrill	-11.237
▁capacity	-11.237
▁forbear	-11.237
▁sprung	-11.2371
▁poetry	-11.2371
▁thumb	-11.2371
cur	-11.2372
▁Moor	-11.2374
▁tend	-11.2374
▁celebrated	-11.2376
▁vexed	-11.2376
▁landing	-11.2377
▁growth	-11.238
▁devoured	-11.2384
▁thoughtful	-11.2384
▁shaft	-11.2392
▁official	-11.2392
▁dearly	-11.2398
▁Hold	-11.2419
▁Julia	-11.2419
▁hairy	-11.242
▁plants	-11.242
▁privilege	-11.2421
▁succession	-11.2421
▁sung	-11.2431
▁punished	-11.2433
tri	-11.2437
▁honesty	-11.244
▁bundle	-11.2441
▁attic	-11.2441
▁cliff	-11.2441
▁appointment	-11.2442
ill	-11.2443
▁surrounding	-11.2445
▁presume	-11.2447
▁relate	-11.245
eg	-11.2454
▁apply	-11.2455
▁autumn	-11.2456
▁Gilead	-11.246
▁millions	-11.2464
▁CLEOPATRA	-11.2467
▁World	-11.2467
▁necessarily	-11.2467
▁tumult	-11.2467
▁orchard	-11.2467
▁Four	-11.2469
▁dishes	-11.2469
On	-11.2473
▁model	-11.2474
▁candles	-11.2476
▁hopeless	-11.2477
▁services	-11.2479
▁beings	-11.2487
rus	-11.2488
▁district	-11.249
▁21	-11.2491
▁enable	-11.2501
ug	-11.2503
▁lots	-11.2504
▁fare	-11.2512
▁tooth	-11.2512
▁Aladdin	-11.2515
▁Silas	-11.2515
▁reference	-11.2515
▁tame	-11.2516
port	-11.2517
▁bath	-11.2518
▁renewed	-11.2522
ened	-11.253
▁learnt	-11.253
cus	-11.2536
▁everyone	-11.2538
▁stake	-11.2539
▁feature	-11.254
▁git	-11.2542
field	-11.2551
Tell	-11.2553
Take	-11.2553
ade	-11.2554
▁organ	-11.2562
”;	-11.2563
▁scandal	-11.2563
▁swim	-11.2564
▁withdraw	-11.2564
▁Greystoke	-11.2564
▁Weatherbury	-11.2564
▁amiable	-11.2564
▁1:4	-11.2564
▁kid	-11.2564
▁unnatural	-11.2564
▁stirring	-11.2566
▁Right	-11.2567
▁owing	-11.2567
▁doings	-11.257
▁impressed	-11.2572
fu	-11.2572
▁pi	-11.2573
▁scared	-11.2577
▁Lest	-11.2578
▁lowest	-11.2585
▁belongs	-11.2586
▁discipline	-11.2586
▁sack	-11.2587
▁rebuke	-11.2593
▁determine	-11.2596
rn	-11.2602
▁Canaan	-11.2612
ress	-11.2613
▁Bartley	-11.2613
▁SYRACUSE	-11.2613
▁Between	-11.2613
▁Monday	-11.2613
▁oppression	-11.2614
tin	-11.2614
▁liking	-11.2615
▁activity	-11.2616
▁hurled	-11.2618
tre	-11.262
▁gall	-11.2622
▁limit	-11.2626
ls	-11.2627
▁joyful	-11.2632
▁using	-11.2637
▁stated	-11.2638
▁accomplish	-11.2639
▁faintly	-11.264
▁yielded	-11.2641
▁thereon	-11.2645
▁winding	-11.265
▁sour	-11.2654
▁Count	-11.2657
▁insist	-11.266
▁project	-11.2662
▁Levi	-11.2662
▁Fritz	-11.2662
▁resurrection	-11.2662
▁intercourse	-11.2662
▁gorgeous	-11.2662
▁meanwhile	-11.2663
▁treatment	-11.2664
▁retorted	-11.2665
▁shekels	-11.2667
▁European	-11.2667
▁sorrows	-11.2669
▁stooped	-11.2669
▁bowl	-11.267
▁reminded	-11.2672
▁29	-11.2677
▁previously	-11.2678
▁ink	-11.2683
▁holes	-11.2685
▁mast	-11.2687
▁confessed	-11.2694
▁Law	-11.2697
▁worry	-11.27
▁dish	-11.2703
▁filling	-11.271
▁propriety	-11.2712
▁unnecessary	-11.2712
▁lesser	-11.2712
▁worshipped	-11.2712
▁Shakespeare	-11.2712
▁Harrison	-11.2712
▁flour	-11.2713
▁eggs	-11.2713
▁pet	-11.2715
▁twisted	-11.2717
▁developed	-11.2717
▁wouldst	-11.2718
▁decree	-11.2718
▁containing	-11.2726
▁dine	-11.2726
▁descending	-11.2728
▁amused	-11.2729
▁betwixt	-11.2733
▁churches	-11.2735
▁lance	-11.2736
uff	-11.2738
▁rival	-11.2739
▁bounds	-11.2739
▁advantages	-11.2745
su	-11.2748
▁avail	-11.275
▁hazard	-11.275
▁corrupt	-11.2751
water	-11.2751
nce	-11.2752
▁longed	-11.2755
▁dirt	-11.2757
▁47	-11.2759
▁casting	-11.276
▁Antonio	-11.2761
▁Fantine	-11.2761
▁Venice	-11.2761
▁responsibility	-11.2761
▁aloft	-11.2761
▁Walter	-11.2762
▁Although	-11.2762
▁Half	-11.2766
▁cents	-11.2767
▁snatched	-11.2767
▁provisions	-11.277
▁ample	-11.2771
▁thanked	-11.2775
▁instructions	-11.2776
▁belt	-11.2777
▁sadness	-11.2777
▁breed	-11.2782
▁nail	-11.2788
▁avoided	-11.2789
▁accent	-11.2789
▁monkey	-11.2789
▁abomination	-11.2789
▁newspaper	-11.279
▁dash	-11.2792
lay	-11.2793
▁offices	-11.2794
woman	-11.28
Indeed	-11.28
horse	-11.28
▁polite	-11.2801
▁rows	-11.2803
▁4:3	-11.2804
lic	-11.2809
▁torment	-11.2811
▁conception	-11.2811
▁Hyde	-11.2812
▁5:3	-11.2812
▁gloves	-11.2813
▁regarding	-11.2815
▁passes	-11.2817
par	-11.2818
▁pound	-11.2824
▁doubted	-11.2828
▁vine	-11.2829
▁legislature	-11.284
▁electric	-11.2842
▁attending	-11.2843
▁Car	-11.2844
▁shallow	-11.2848
▁coin	-11.2849
colored	-11.2852
▁JOHN	-11.2862
▁Napoleon	-11.2862
▁Friday	-11.2862
▁Light	-11.2862
▁petty	-11.2862
▁founded	-11.2863
▁bo	-11.2863
▁glittering	-11.2864
US	-11.2865
▁insult	-11.2868
▁feels	-11.2872
▁classes	-11.2872
▁Mis	-11.2875
pose	-11.2875
▁papa	-11.2875
▁fleet	-11.2876
▁finds	-11.2876
▁Noah	-11.2878
▁glowing	-11.2883
cu	-11.2893
▁habitation	-11.2894
piece	-11.2902
▁su	-11.2905
▁grievous	-11.2905
▁affectionate	-11.2907
▁executive	-11.2912
▁temporary	-11.2912
▁pencil	-11.2912
▁neighborhood	-11.2912
▁petition	-11.2912
▁gallery	-11.2912
cher	-11.2913
▁Italian	-11.2913
▁12:3	-11.2913
▁Stay	-11.2916
▁cautiously	-11.2916
▁Latin	-11.2916
ulate	-11.2922
▁spared	-11.2931
▁forming	-11.2934
ration	-11.2937
har	-11.2939
▁dagger	-11.2942
▁pillar	-11.2943
▁Sha	-11.2944
▁em	-11.2945
res	-11.2946
▁proclaim	-11.2952
▁struggled	-11.2961
▁planet	-11.2963
▁Sheeta	-11.2963
▁Lamb	-11.2963
▁barren	-11.2963
▁Mademoiselle	-11.2964
▁anon	-11.2969
▁recently	-11.2971
▁sire	-11.2972
▁forgiven	-11.2974
▁county	-11.2975
▁wherever	-11.2975
▁neighbor	-11.2982
▁62	-11.2984
▁beer	-11.2991
▁swell	-11.2992
ea	-11.2992
▁infant	-11.2993
▁ripe	-11.2993
vis	-11.2994
▁reap	-11.3004
▁statement	-11.3004
▁Sp	-11.3009
▁10:3	-11.301
▁lists	-11.3011
▁Fair	-11.3013
▁CREON	-11.3014
▁tendency	-11.3014
▁medical	-11.3014
▁15:3	-11.3015
▁development	-11.3015
▁Edith	-11.3015
▁kingdoms	-11.3017
▁Per	-11.3017
▁suspended	-11.3017
▁arrested	-11.3025
▁sale	-11.3026
uck	-11.3027
▁net	-11.3028
▁scenes	-11.303
▁comforted	-11.3031
▁7	-11.3035
▁executed	-11.3035
▁solemnly	-11.3036
▁afforded	-11.3038
nor	-11.3038
▁Does	-11.3041
▁reflect	-11.3041
use	-11.3046
▁harp	-11.3048
▁shan	-11.3051
▁highway	-11.3051
▁array	-11.3055
▁DON	-11.3061
▁velvet	-11.3062
ave	-11.3062
▁Harsanyi	-11.3065
▁satisfactory	-11.3065
▁damsel	-11.3065
▁LEAR	-11.3065
▁Club	-11.3065
▁increasing	-11.3066
▁tribute	-11.3066
▁believing	-11.3067
▁crooked	-11.3069
▁XI	-11.3072
▁aroused	-11.3073
▁preached	-11.3082
▁token	-11.3084
▁addressing	-11.3093
▁approve	-11.3095
▁passengers	-11.3095
▁tearing	-11.3097
war	-11.3097
▁fetched	-11.3097
most	-11.3097
▁avenue	-11.3097
▁wagon	-11.31
▁jaw	-11.31
cal	-11.3105
▁particulars	-11.3106
▁cord	-11.3106
▁sow	-11.3107
▁mill	-11.3108
▁Syria	-11.3113
▁disc	-11.3114
▁mute	-11.3116
▁vows	-11.3116
▁apparel	-11.3117
▁furnace	-11.3117
▁thieves	-11.3117
▁3:3	-11.3117
ao	-11.3121
▁inhabited	-11.3124
▁involved	-11.3126
▁neglected	-11.3129
rid	-11.3145
▁intentions	-11.3145
▁contend	-11.3146
▁suffice	-11.3149
▁mail	-11.3149
ran	-11.315
▁peasant	-11.315
lier	-11.3155
▁wreck	-11.3158
▁driver	-11.3166
▁natives	-11.3168
▁Signior	-11.3169
▁THIRD	-11.3169
▁radiant	-11.3169
▁void	-11.3169
▁quaint	-11.317
▁birthday	-11.3171
▁straightway	-11.3171
▁Baal	-11.3172
▁background	-11.3174
▁alas	-11.3176
▁lordship	-11.3178
▁loaded	-11.3186
▁violently	-11.3186
bu	-11.3187
▁roared	-11.3193
▁tax	-11.3201
▁whereby	-11.3202
▁lov	-11.3214
▁talent	-11.3214
▁thrice	-11.3221
▁reverie	-11.3221
▁canvas	-11.3221
▁strive	-11.3221
▁panting	-11.3227
down	-11.323
ple	-11.3242
▁slid	-11.3243
▁marvel	-11.3244
▁endless	-11.3244
▁locks	-11.3245
▁boot	-11.325
▁provoke	-11.3253
▁retire	-11.3255
▁eagle	-11.3255
▁chapter	-11.3256
▁engine	-11.3257
perhaps	-11.3262
▁swing	-11.3263
▁conducted	-11.3264
test	-11.3267
▁trans	-11.3269
▁extra	-11.3269
▁contact	-11.3273
▁delicacy	-11.3273
▁mixture	-11.3273
▁Terence	-11.3275
▁Save	-11.3278
▁comrades	-11.3281
▁veins	-11.3282
▁Ad	-11.3284
▁pretended	-11.329
▁qui	-11.3294
▁rob	-11.3299
▁compare	-11.3306
mis	-11.331
▁appoint	-11.3314
▁barely	-11.3314
▁brings	-11.3319
▁immortal	-11.3325
▁liquid	-11.3326
▁Starbuck	-11.3326
▁resistance	-11.3326
▁writer	-11.3337
▁duel	-11.3346
▁cigar	-11.3362
▁division	-11.3362
▁element	-11.3363
▁liberal	-11.337
▁comment	-11.3371
▁remorse	-11.3371
ening	-11.3373
▁bodily	-11.3379
▁prudent	-11.3379
▁vacant	-11.3379
▁parcel	-11.3379
▁embarrassment	-11.3379
▁consequently	-11.3381
▁23:2	-11.3381
▁Far	-11.3382
▁supposing	-11.3382
▁injured	-11.3388
▁totally	-11.3388
gen	-11.3389
▁nostrils	-11.3389
▁momentary	-11.339
▁groan	-11.3392
ches	-11.3396
ute	-11.3398
▁wildly	-11.3401
▁Gad	-11.3414
▁merchants	-11.3414
▁instruction	-11.3417
▁sincere	-11.3419
▁fain	-11.3421
▁catching	-11.3427
▁bald	-11.3429
▁reception	-11.3432
▁Edom	-11.3432
▁Jeff	-11.3432
▁destined	-11.3433
▁massive	-11.3434
▁Z	-11.3436
▁persisted	-11.3437
▁redeemed	-11.3448
▁cheerfully	-11.345
▁woo	-11.3455
▁endeavour	-11.3463
▁extend	-11.3463
▁newly	-11.3469
▁election	-11.3471
▁pupil	-11.3472
▁doubts	-11.3473
fashioned	-11.3475
▁Any	-11.3477
....	-11.3483
▁Mansfield	-11.3485
▁rotten	-11.3485
▁sinister	-11.3486
▁Norman	-11.3494
▁Whatever	-11.3496
▁brightness	-11.3505
▁questioned	-11.3513
▁22	-11.3517
▁perished	-11.352
▁snare	-11.3524
right	-11.3526
Certainly	-11.3528
▁motives	-11.3529
▁partner	-11.353
▁9:3	-11.3531
▁passionate	-11.3534
▁48	-11.3534
▁commander	-11.3537
▁loyal	-11.3539
▁file	-11.3539
▁Cassius	-11.3539
▁innumerable	-11.3539
▁Several	-11.354
▁threatening	-11.354
▁rat	-11.3548
▁resembled	-11.3549
▁ver	-11.3549
.’”	-11.355
▁seest	-11.3551
▁leads	-11.3552
▁hearkened	-11.3561
▁flatter	-11.3568
▁hateful	-11.3568
tain	-11.357
▁rascal	-11.3571
▁painting	-11.3575
▁knot	-11.3579
▁magistrate	-11.3579
▁plot	-11.3579
▁traveller	-11.358
▁ruins	-11.3581
▁suspicious	-11.3586
▁Si	-11.3586
▁monarch	-11.3588
▁6:3	-11.3589
Only	-11.359
▁super	-11.3591
▁Wilt	-11.3593
▁EDWARD	-11.3593
▁champion	-11.3593
▁17:2	-11.3594
▁Hamlet	-11.3596
▁calculated	-11.36
▁commands	-11.3601
▁heaps	-11.3604
▁realm	-11.3612
▁dies	-11.362
▁melt	-11.3621
Re	-11.3622
▁distressed	-11.3622
▁anyhow	-11.3622
▁pulling	-11.3622
▁Ere	-11.3623
▁writ	-11.3634
▁strengthen	-11.3634
▁confirm	-11.3635
▁owned	-11.3636
▁department	-11.3637
▁8:3	-11.364
▁blot	-11.3646
▁Jeddak	-11.3647
▁Fortune	-11.3647
▁Verily	-11.3648
▁respects	-11.3651
▁ordained	-11.3652
▁rejected	-11.3654
▁trousers	-11.3655
▁ability	-11.3655
▁mostly	-11.3661
▁screamed	-11.3662
▁hue	-11.3662
▁stillness	-11.3665
▁depended	-11.3666
▁urge	-11.3667
▁60	-11.3671
▁roughly	-11.3674
▁gladness	-11.368
▁mothers	-11.3681
master	-11.3681
▁Rogers	-11.3683
▁tore	-11.369
▁blown	-11.3692
▁timid	-11.3694
▁pitiful	-11.3695
▁despite	-11.3699
▁CITIZEN	-11.37
▁egg	-11.3701
▁Rowena	-11.3702
▁THESEUS	-11.3702
▁blemish	-11.3702
▁forlorn	-11.3702
▁bowels	-11.3702
▁mournful	-11.3704
▁stool	-11.3704
▁frost	-11.3705
▁entitled	-11.3705
▁consisted	-11.3708
ye	-11.3716
▁bliss	-11.3717
▁shudder	-11.3734
▁display	-11.3735
▁invite	-11.3737
▁reported	-11.3744
▁exclamation	-11.3745
▁moss	-11.3753
▁preparations	-11.3754
ame	-11.3755
▁ornaments	-11.3756
▁flaming	-11.3757
▁multiply	-11.3757
▁resemblance	-11.3757
▁childish	-11.3758
▁Jekyll	-11.3758
▁Dog	-11.3758
▁supplied	-11.3758
▁frozen	-11.3758
▁eastward	-11.3759
▁northward	-11.3759
▁mantle	-11.3762
▁hardened	-11.3766
▁mustn	-11.3768
De	-11.3772
▁needn	-11.3775
▁bred	-11.3776
▁cousins	-11.3776
▁accused	-11.3777
▁acknowledged	-11.3785
ae	-11.3789
▁ra	-11.3791
▁washing	-11.3792
▁salute	-11.3792
▁instances	-11.3799
TH	-11.3803
▁brutal	-11.3811
come	-11.3812
▁ANTIPHOLUS	-11.3812
▁Courfeyrac	-11.3812
▁MENENIUS	-11.3812
▁happily	-11.3812
▁unseen	-11.3812
▁jolly	-11.3812
▁wolf	-11.3812
▁central	-11.3812
▁sware	-11.3812
▁unworthy	-11.3813
▁13:3	-11.3814
ju	-11.3814
▁honorable	-11.3816
▁Sal	-11.3819
▁banished	-11.3821
▁rejoiced	-11.3821
▁printed	-11.3823
▁shapes	-11.3826
▁inspired	-11.3826
▁joint	-11.3826
▁towers	-11.3832
▁Pharisees	-11.3835
door	-11.3841
ou	-11.3842
▁flourish	-11.3843
▁whispering	-11.3843
▁hammer	-11.3847
▁rigid	-11.386
▁confident	-11.3861
▁monument	-11.3866
▁Reuben	-11.3868
▁Hector	-11.3868
▁adversary	-11.3868
▁calamity	-11.3868
▁dungeon	-11.3868
▁ferocious	-11.3868
▁dishonour	-11.3868
▁Issus	-11.3868
▁Beyond	-11.3868
med	-11.3869
▁Arise	-11.387
▁polished	-11.3872
▁eagerness	-11.3874
▁traversed	-11.3876
▁impatiently	-11.3877
▁shuddered	-11.3879
▁tops	-11.3879
▁dispute	-11.3893
▁divers	-11.3897
very	-11.3901
▁disgust	-11.3901
▁greet	-11.3901
▁feeding	-11.3904
▁claims	-11.3904
▁odds	-11.3909
▁print	-11.3911
▁continent	-11.3912
▁Chi	-11.3913
▁preacher	-11.3913
▁troop	-11.3914
▁barrier	-11.3914
▁fowls	-11.3918
ations	-11.3918
▁vote	-11.392
▁charms	-11.3921
▁damn	-11.3923
▁gravity	-11.3924
▁Friar	-11.3924
▁Athens	-11.3924
▁construction	-11.3924
▁Welcome	-11.3925
▁situated	-11.3925
▁robbed	-11.3925
▁Everybody	-11.3926
▁selfish	-11.3926
Mrs	-11.3927
fold	-11.3931
▁Much	-11.3934
▁Hark	-11.3936
▁U	-11.3938
ux	-11.3939
▁hadst	-11.3939
▁verge	-11.3944
▁wheeled	-11.3944
▁bi	-11.3953
▁grove	-11.3955
▁kick	-11.3957
six	-11.3958
▁kneel	-11.3958
cat	-11.3963
▁faster	-11.3973
gle	-11.3977
▁BUCKINGHAM	-11.398
▁Square	-11.398
▁industry	-11.398
▁prithee	-11.398
▁response	-11.398
▁steward	-11.398
▁waking	-11.3982
▁24:2	-11.3983
▁musical	-11.3986
▁awaiting	-11.399
set	-11.399
your	-11.3991
▁Wa	-11.3995
ue	-11.3998
▁regions	-11.4005
His	-11.4007
▁harpoon	-11.4012
▁stately	-11.4017
▁strip	-11.4024
▁comrade	-11.4027
▁According	-11.403
▁Earl	-11.4032
▁concerns	-11.4034
▁inevitable	-11.4036
▁obedient	-11.4036
▁sanctified	-11.4036
▁Gurth	-11.4036
▁sublime	-11.4036
▁probability	-11.4036
▁sphere	-11.4037
▁Barry	-11.4038
▁guarded	-11.4038
▁justly	-11.404
▁summoned	-11.4044
▁combined	-11.4044
▁52	-11.4046
▁sheets	-11.4047
▁k	-11.4048
▁defiled	-11.4053
fl	-11.4054
▁fires	-11.4057
ney	-11.4062
▁dreaded	-11.4067
▁seconds	-11.4074
ear	-11.4081
▁poet	-11.4082
▁Follow	-11.4083
▁cards	-11.4084
▁Set	-11.4085
▁moth	-11.4086
▁slander	-11.4093
▁Ishmael	-11.4093
▁Ivanhoe	-11.4093
▁Limberlost	-11.4093
▁Pequod	-11.4093
▁application	-11.4093
▁bewildered	-11.4093
▁intellect	-11.4093
▁navy	-11.4093
▁population	-11.4093
▁CORIOLANUS	-11.4093
▁rubbed	-11.4093
▁helping	-11.4094
▁woke	-11.4094
▁Faith	-11.4094
▁mouse	-11.4095
▁Bois	-11.4095
▁ladyship	-11.4099
▁maids	-11.41
ash	-11.4102
▁girdle	-11.4103
▁abominable	-11.4103
▁signed	-11.4111
act	-11.4113
▁nails	-11.4118
▁harder	-11.4124
▁Carl	-11.4131
▁owed	-11.4134
tra	-11.4136
▁tasted	-11.4138
nothing	-11.414
▁colors	-11.4141
▁patch	-11.4142
▁column	-11.4143
▁wanton	-11.4143
▁critical	-11.4144
▁ANTONIO	-11.415
▁harbor	-11.415
▁Witch	-11.415
▁Baker	-11.415
▁jacket	-11.4152
▁asses	-11.4153
▁tip	-11.4154
▁ridge	-11.4155
▁verse	-11.4157
▁howl	-11.4164
never	-11.4167
▁elements	-11.4167
pin	-11.4169
▁leaping	-11.4169
▁appearing	-11.4172
ale	-11.418
▁Com	-11.4181
▁blaze	-11.4188
▁arguments	-11.4191
▁frank	-11.4198
▁student	-11.4202
▁38	-11.4208
▁EMILIA	-11.4208
▁Ptarth	-11.4208
▁TITUS	-11.4208
▁dainty	-11.4208
▁terrific	-11.4208
Guilbert	-11.4208
▁Dick	-11.4208
▁Wolf	-11.4208
▁humbly	-11.4208
▁rosy	-11.4208
▁calf	-11.4208
▁ninety	-11.421
▁Leave	-11.4211
▁Fl	-11.4212
▁sorrowful	-11.4212
▁Fairy	-11.4213
▁modesty	-11.4214
▁haunted	-11.4216
▁included	-11.4217
▁rams	-11.4218
▁gra	-11.4223
▁packed	-11.4223
shot	-11.4227
▁17	-11.4229
▁scatter	-11.4241
▁professional	-11.4245
▁promises	-11.4248
Poor	-11.4255
▁spots	-11.4255
▁improvement	-11.426
▁mule	-11.426
▁sensitive	-11.4264
mar	-11.4265
▁riot	-11.4265
▁Prynne	-11.4266
▁draught	-11.4266
▁ragged	-11.4266
▁forbidden	-11.4266
▁sergeant	-11.4266
ose	-11.4266
▁alert	-11.4267
▁section	-11.4269
▁responded	-11.427
▁119	-11.427
▁taketh	-11.4273
▁Listen	-11.4273
▁masses	-11.4278
▁28	-11.4283
▁pushing	-11.4283
▁wiser	-11.4291
▁1.	-11.4299
▁San	-11.4303
▁hurrying	-11.4306
▁unc	-11.4307
▁nowhere	-11.4309
▁dispatch	-11.4313
▁definite	-11.4316
▁Eli	-11.4321
▁overthrow	-11.4322
▁FEDERALIST	-11.4324
▁Jehoshaphat	-11.4324
▁Sieppe	-11.4324
▁suspense	-11.4324
▁trifling	-11.4324
▁investigation	-11.4324
▁spies	-11.4325
▁decline	-11.4326
▁guardian	-11.4327
▁speaketh	-11.4328
▁Farmer	-11.433
▁wire	-11.433
▁Made	-11.4331
▁True	-11.4331
put	-11.4332
▁growled	-11.4333
tes	-11.4336
▁limited	-11.4336
▁oaths	-11.4341
▁noted	-11.4351
▁withered	-11.4352
▁advised	-11.4355
▁tramp	-11.4356
▁represent	-11.4357
▁beams	-11.4364
▁adding	-11.4368
hole	-11.437
▁Pan	-11.4371
▁portrait	-11.4377
▁device	-11.4378
▁split	-11.4382
▁Demetrius	-11.4382
▁Musgrove	-11.4382
▁Shirley	-11.4382
▁defiance	-11.4382
▁harmony	-11.4382
▁responsible	-11.4382
▁simplicity	-11.4382
▁reverend	-11.4382
▁nought	-11.4382
▁Until	-11.4382
▁travelled	-11.4383
▁Hook	-11.4383
uz	-11.4383
▁carved	-11.4389
▁accounts	-11.4393
▁plains	-11.4403
▁spears	-11.4406
fer	-11.4407
rk	-11.4409
▁finest	-11.4415
▁est	-11.4418
▁politics	-11.4422
▁comp	-11.4429
twenty	-11.443
▁sullen	-11.4434
▁Dost	-11.4437
▁Everdene	-11.4441
▁Jondrette	-11.4441
▁SUFFOLK	-11.4441
▁Spanish	-11.4441
▁sugar	-11.4441
▁Blakeney	-11.4441
▁individuals	-11.4441
▁Job	-11.4442
▁visions	-11.4443
boy	-11.4445
▁reflections	-11.4448
▁2.	-11.4452
such	-11.4453
more	-11.4454
fa	-11.4456
▁protested	-11.4459
▁rightly	-11.4464
▁dey	-11.4465
▁spectacles	-11.4465
▁crowns	-11.4465
▁records	-11.4466
▁ward	-11.4469
▁shoe	-11.4469
▁limits	-11.4469
▁openly	-11.448
▁loudly	-11.448
skin	-11.4486
X	-11.4491
▁youthful	-11.4492
▁resources	-11.4493
▁olive	-11.4497
▁CLAUDIO	-11.45
▁applause	-11.45
▁contemplation	-11.45
▁empire	-11.45
▁raiment	-11.45
▁admirable	-11.45
▁Palace	-11.45
▁Above	-11.4501
▁corruption	-11.4502
haired	-11.4503
▁mansion	-11.4505
▁overtake	-11.4505
▁awaited	-11.451
have	-11.4512
▁02	-11.4526
▁howling	-11.4528
▁flush	-11.4538
▁plunge	-11.454
▁Wu	-11.4541
▁colored	-11.4549
▁screen	-11.455
▁saint	-11.455
▁worldly	-11.4553
▁moor	-11.4556
▁vehicle	-11.4557
▁stable	-11.4559
▁Canadian	-11.456
▁Ermengarde	-11.456
▁Ottenburg	-11.456
▁VALENTINE	-11.456
▁parallel	-11.456
▁perception	-11.456
▁disdain	-11.4561
▁Martin	-11.4561
▁sunny	-11.4562
▁keeper	-11.4562
▁dollar	-11.4563
▁Page	-11.4563
▁Rose	-11.4566
▁bleeding	-11.4569
▁raging	-11.4569
return	-11.4571
▁err	-11.4574
▁hero	-11.4578
▁armor	-11.458
▁route	-11.458
▁brush	-11.4597
▁suck	-11.4601
▁Iago	-11.4602
▁sacrificed	-11.4602
▁ascent	-11.4606
three	-11.4608
Thou	-11.4609
▁conceit	-11.4611
ric	-11.4615
▁moderate	-11.4616
ez	-11.4619
▁BEROWNE	-11.462
▁sombre	-11.462
▁Poorgrass	-11.462
▁weird	-11.462
▁encouragement	-11.4621
▁glove	-11.4621
▁interruption	-11.4622
▁29:1	-11.4622
▁van	-11.4622
▁entertainment	-11.4622
Twas	-11.4623
▁ro	-11.4623
▁favorite	-11.4623
▁raw	-11.4624
▁endured	-11.4625
▁Unless	-11.4626
▁wisely	-11.4627
▁tailor	-11.463
▁encouraged	-11.4634
▁thoughtfully	-11.4634
▁ministers	-11.4638
▁tragic	-11.4639
AT	-11.464
▁patiently	-11.4641
▁thorns	-11.4641
▁frighten	-11.4641
▁praying	-11.4641
▁flowing	-11.4643
▁additional	-11.4651
▁cliffs	-11.4651
▁lodged	-11.4651
▁sa	-11.4652
▁relieve	-11.466
▁enjoying	-11.4661
▁sails	-11.4662
▁vault	-11.4667
Nay	-11.4669
▁pronounce	-11.4672
▁tranquil	-11.4672
▁ancestors	-11.4674
▁savour	-11.4676
▁spit	-11.468
▁Athelstane	-11.468
▁DESDEMONA	-11.468
▁ROMEO	-11.468
▁Tantor	-11.468
▁Wamba	-11.468
▁grotesque	-11.468
▁rejoicing	-11.468
▁universe	-11.468
▁gulf	-11.468
▁average	-11.468
▁blackness	-11.468
▁Tuesday	-11.468
▁Prior	-11.4681
▁passover	-11.4682
▁Monseigneur	-11.4682
▁visitors	-11.4685
▁remind	-11.469
wise	-11.469
▁harmless	-11.4695
bit	-11.4704
▁fearing	-11.4706
▁decay	-11.4718
▁conclude	-11.4721
▁whistle	-11.4722
▁estimate	-11.4722
."]	-11.4723
▁Pen	-11.4725
▁engage	-11.4727
▁reform	-11.4728
▁profane	-11.4728
▁screw	-11.4731
hal	-11.4735
▁49	-11.4735
▁28:1	-11.4735
▁pistol	-11.4739
▁frantic	-11.474
▁refer	-11.474
▁Ablewhite	-11.474
▁Lavendar	-11.474
▁feminine	-11.474
▁incredible	-11.474
▁palisade	-11.474
▁durst	-11.474
▁Thorpe	-11.4741
▁dreary	-11.4741
▁conspicuous	-11.4741
ttle	-11.4742
▁vexation	-11.4742
▁14:3	-11.4742
▁Royal	-11.4742
▁sleeve	-11.4743
og	-11.4744
▁clinging	-11.4749
▁Tu	-11.4749
▁clad	-11.4751
▁Germany	-11.4753
▁pupils	-11.4757
▁induced	-11.4758
pan	-11.476
▁te	-11.4765
▁speaker	-11.4772
▁doll	-11.4775
▁basin	-11.4777
▁50	-11.4778
▁shift	-11.4779
▁hind	-11.4783
rum	-11.4784
see	-11.4785
▁Bear	-11.4787
▁irregular	-11.48
▁ribbon	-11.4801
▁DROMIO	-11.4801
▁PETRUCHIO	-11.4801
▁Pompey	-11.4801
▁examining	-11.4801
▁repetition	-11.4801
▁proposition	-11.4802
▁Manette	-11.4802
▁parlour	-11.4802
▁Paradise	-11.4803
▁courtyard	-11.4804
▁26:2	-11.4804
omp	-11.481
▁passages	-11.481
▁dismissed	-11.481
▁promptly	-11.4811
▁nakedness	-11.4811
▁quivering	-11.4812
▁forgetting	-11.4817
▁maintained	-11.4822
▁sufferings	-11.4825
▁cows	-11.4845
▁bullet	-11.4862
▁gait	-11.4863
▁PROTEUS	-11.4863
▁identity	-11.4863
▁prostrate	-11.4863
▁northern	-11.4863
▁shawl	-11.4863
▁Baynes	-11.4863
▁Revolution	-11.4863
▁lamentation	-11.4866
▁consult	-11.4866
▁m	-11.4867
▁placing	-11.4868
▁animated	-11.4868
▁Du	-11.487
net	-11.4871
▁headlong	-11.4871
▁forthwith	-11.4871
▁confirmed	-11.4875
▁observations	-11.4875
▁tightly	-11.4876
▁attained	-11.4877
▁elderly	-11.4879
▁pleaded	-11.488
EL	-11.4884
▁pirates	-11.4886
thou	-11.489
▁43	-11.489
▁shovel	-11.4892
▁tradition	-11.4898
▁interfere	-11.4904
▁disorder	-11.4907
▁ornament	-11.491
▁proudly	-11.4913
▁Too	-11.4913
▁refrain	-11.4914
Say	-11.4915
▁tricks	-11.4916
ari	-11.4916
▁studying	-11.4916
▁robin	-11.4917
▁rash	-11.4919
▁closet	-11.4921
Aye	-11.4924
▁Galilee	-11.4925
▁bastard	-11.4925
▁structure	-11.4925
▁tragedy	-11.4925
▁obscurity	-11.4925
▁loyalty	-11.4925
▁falsehood	-11.4925
▁runs	-11.4926
▁nerve	-11.4927
▁Pross	-11.4927
▁wrinkled	-11.4928
▁melted	-11.4937
▁greeting	-11.4939
▁camels	-11.4941
▁fig	-11.4943
▁oppose	-11.4945
ias	-11.4958
▁sailing	-11.4959
▁ruled	-11.4965
▁accuse	-11.4967
▁sinners	-11.4967
▁...	-11.4967
pen	-11.4967
▁tales	-11.4969
▁spectators	-11.4969
▁objections	-11.4971
▁defense	-11.4972
▁dismay	-11.4976
▁Park	-11.4976
▁posts	-11.4985
These	-11.4985
▁Behind	-11.4987
▁December	-11.4987
▁Eleazar	-11.4987
▁adversaries	-11.4987
▁ecstasy	-11.4987
▁liquor	-11.4987
▁PANDARUS	-11.4987
▁bishop	-11.4987
▁Shang	-11.4987
▁allowance	-11.4989
▁invention	-11.4989
▁captured	-11.5004
hour	-11.5009
▁declined	-11.5009
▁provoked	-11.501
▁dimly	-11.5013
▁shades	-11.5015
▁crystal	-11.5016
▁jet	-11.5018
▁shared	-11.502
rick	-11.5025
▁hire	-11.5027
▁reverse	-11.503
▁8	-11.5033
▁commend	-11.5034
▁warmly	-11.5034
▁30	-11.5039
▁decent	-11.5044
▁frail	-11.5049
▁knelt	-11.5049
▁prophesied	-11.5049
▁Hebron	-11.5049
▁president	-11.505
▁visage	-11.505
▁Bill	-11.505
▁transgression	-11.5053
▁01	-11.5054
▁sensations	-11.5056
▁map	-11.5057
▁Bell	-11.5061
▁proclaimed	-11.5062
▁54	-11.5063
▁infinitely	-11.5064
▁weighed	-11.5065
▁wiped	-11.5066
liest	-11.5068
would	-11.5072
gy	-11.5082
J	-11.5083
▁exchanged	-11.5086
▁privately	-11.5086
▁Wherein	-11.5089
▁endeavor	-11.5089
▁rattle	-11.5092
With	-11.5098
▁breathless	-11.5098
Ha	-11.5099
▁64	-11.51
▁resort	-11.5102
dom	-11.5107
▁republic	-11.511
▁hospital	-11.5111
▁Paulvitch	-11.5112
▁accursed	-11.5112
▁administration	-11.5112
▁external	-11.5112
▁memories	-11.5112
▁Elijah	-11.5112
▁Hartfield	-11.5112
▁destination	-11.5112
▁4:4	-11.5112
▁XIV	-11.5112
▁estimation	-11.5113
▁Italy	-11.5113
▁authorities	-11.5113
▁customary	-11.5113
▁Bates	-11.5113
▁Cor	-11.5114
▁chapel	-11.5114
▁Ruby	-11.5114
▁27:2	-11.5115
▁combination	-11.5116
▁diligently	-11.5116
▁photograph	-11.5116
▁nobility	-11.5119
cho	-11.5119
▁gotten	-11.5122
▁pierced	-11.5127
▁Send	-11.5127
▁Fate	-11.5128
▁severely	-11.5129
▁visits	-11.5137
▁Ass	-11.5138
▁wert	-11.514
▁representatives	-11.5144
▁lasted	-11.5151
▁glare	-11.5156
▁Cha	-11.5156
Monsieur	-11.5164
▁loveth	-11.5164
ng	-11.5164
▁unwilling	-11.5165
▁Cap	-11.5168
▁thorough	-11.5168
▁tap	-11.5172
IT	-11.5175
▁Belgian	-11.5175
▁ambitious	-11.5175
▁commerce	-11.5175
▁conquest	-11.5175
▁prodigious	-11.5175
▁audible	-11.5175
▁displeasure	-11.5175
▁Valley	-11.5175
▁studies	-11.5175
▁grandmother	-11.5176
▁Sinton	-11.5176
▁herds	-11.5176
▁resentment	-11.5176
▁marvelous	-11.5176
▁Either	-11.5176
▁Bible	-11.5177
▁multiplied	-11.5177
▁utterance	-11.5177
▁dug	-11.5178
▁superiority	-11.5178
▁Order	-11.5178
▁revel	-11.5178
▁Pre	-11.5181
▁curled	-11.5182
lie	-11.5183
▁discussed	-11.5184
▁stamped	-11.5185
▁respected	-11.519
▁spreading	-11.5191
oo	-11.5193
▁preaching	-11.5199
▁tiger	-11.5201
▁elbows	-11.521
▁travelers	-11.5213
▁heal	-11.5216
▁disappear	-11.5216
▁introduce	-11.5219
▁mare	-11.522
▁shriek	-11.5222
CH	-11.5226
▁honoured	-11.5231
trees	-11.5236
▁Achmet	-11.5239
▁Featherstone	-11.5239
▁circular	-11.5239
▁ingenious	-11.5239
▁prophecy	-11.5239
▁symbol	-11.5239
▁welfare	-11.5239
▁torrent	-11.5239
▁Jonah	-11.5239
▁testify	-11.5239
▁prosperous	-11.524
▁landlord	-11.524
▁helmet	-11.524
▁trained	-11.5241
▁comfortably	-11.5241
▁pursuing	-11.5242
▁partial	-11.5242
▁XII	-11.5243
▁wo	-11.5244
lus	-11.5245
▁requires	-11.5245
▁conquered	-11.5249
▁40	-11.5255
▁Came	-11.5256
▁ray	-11.5257
IL	-11.5261
▁checked	-11.5263
▁ba	-11.5265
▁Ta	-11.5267
val	-11.5272
▁behave	-11.5275
other	-11.5275
▁attract	-11.5277
▁wool	-11.528
int	-11.5283
▁Yu	-11.5286
▁drawer	-11.5287
▁Pr	-11.5288
▁button	-11.5293
▁skirts	-11.5293
▁afore	-11.5296
ets	-11.5297
▁demands	-11.5299
▁excess	-11.53
coming	-11.5301
▁attempts	-11.5302
▁Rosalind	-11.5303
▁introduction	-11.5303
▁Lowick	-11.5303
▁Morland	-11.5303
▁hasten	-11.5304
▁Almost	-11.5304
▁hostile	-11.5304
▁adjoining	-11.5305
▁fold	-11.5305
▁cats	-11.5305
▁Thank	-11.5305
▁quest	-11.5306
▁hook	-11.5306
▁readiness	-11.5308
▁Ware	-11.531
▁characteristic	-11.531
▁Allen	-11.5311
▁fowl	-11.5311
▁displayed	-11.5316
▁retained	-11.5318
▁terrors	-11.5322
▁Draw	-11.533
▁Last	-11.5334
▁husbands	-11.5341
▁tenderly	-11.5341
▁scratch	-11.5345
▁devise	-11.5348
▁merits	-11.5348
▁marching	-11.5349
about	-11.535
ination	-11.535
top	-11.5351
ular	-11.5351
ised	-11.5353
▁Jo	-11.5354
▁crowned	-11.5365
▁bunch	-11.5366
▁CRESSIDA	-11.5368
▁luxury	-11.5368
▁April	-11.5368
▁fraud	-11.5368
▁Sawyer	-11.5368
▁2:4	-11.5368
▁rational	-11.5368
▁pilot	-11.5368
▁besought	-11.5368
▁whipped	-11.5368
▁gable	-11.5369
▁25:2	-11.5369
▁30:1	-11.537
▁deliberately	-11.5373
▁shouts	-11.5373
—‘	-11.5373
▁Gr	-11.5374
▁replaced	-11.5378
▁dragon	-11.5378
▁strictly	-11.5379
▁bells	-11.5382
▁XIII	-11.5383
▁personage	-11.5383
▁speeches	-11.5387
▁opposed	-11.539
▁restraint	-11.539
▁strongest	-11.5399
made	-11.5402
▁picking	-11.5403
▁babe	-11.5404
▁leagues	-11.5409
▁recollect	-11.5409
oon	-11.5411
▁perfume	-11.5412
▁graves	-11.5413
▁Saying	-11.5417
▁lament	-11.5417
Was	-11.5419
▁convict	-11.5422
▁goat	-11.5425
▁weeds	-11.5425
▁ISABELLA	-11.5433
▁MARGARET	-11.5433
▁Marquis	-11.5433
▁Russell	-11.5433
▁SHALLOW	-11.5433
▁Xodar	-11.5433
▁dignified	-11.5433
▁haughty	-11.5433
▁mamma	-11.5433
▁mysteries	-11.5433
▁apron	-11.5433
▁entry	-11.5433
▁Carton	-11.5433
▁issued	-11.5433
▁Macbeth	-11.5435
fully	-11.5439
▁Five	-11.544
▁countrymen	-11.5447
▁retreated	-11.5455
▁monsters	-11.5456
▁sits	-11.5456
▁Lou	-11.5457
▁strained	-11.5457
▁sweetest	-11.546
▁pouring	-11.5463
▁lain	-11.5465
▁decidedly	-11.5472
▁recommend	-11.5473
▁prick	-11.5476
▁53	-11.5476
say	-11.5477
▁argue	-11.5478
▁35	-11.5486
phi	-11.5489
▁lecture	-11.549
▁Brandon	-11.5498
▁TOBY	-11.5498
▁catastrophe	-11.5498
▁generosity	-11.5498
▁umbrella	-11.5498
▁cheese	-11.5498
▁supposition	-11.5498
▁Selah	-11.5498
▁Zek	-11.5499
▁production	-11.5499
▁surprising	-11.55
▁overwhelmed	-11.5501
▁Help	-11.5501
▁Sarah	-11.5502
▁educated	-11.5504
▁cedar	-11.5507
▁ALL	-11.5507
▁grapes	-11.5508
▁pasture	-11.551
▁stumbled	-11.5513
qua	-11.5515
▁await	-11.5521
take	-11.5532
▁consented	-11.5536
▁lungs	-11.5536
▁bother	-11.5539
▁noises	-11.554
▁govern	-11.5542
▁shouldest	-11.5544
▁al	-11.5549
▁deceit	-11.5549
▁occupy	-11.5552
Give	-11.5555
uv	-11.5556
▁din	-11.5559
▁fragments	-11.5562
▁Benedick	-11.5564
▁Buckingham	-11.5564
▁Raffles	-11.5564
▁independence	-11.5564
▁tunnel	-11.5564
▁persuasion	-11.5564
▁rebellion	-11.5564
▁composition	-11.5564
▁7:4	-11.5564
▁Polly	-11.5564
▁lazy	-11.5564
▁methinks	-11.5564
▁liable	-11.5564
▁stature	-11.5564
▁surgeon	-11.5565
nder	-11.5566
▁filthy	-11.5566
▁bolt	-11.5566
▁embarrassed	-11.5566
cent	-11.5569
▁handmaid	-11.557
ral	-11.5571
▁skeleton	-11.5573
▁province	-11.5574
▁Frenchman	-11.5575
▁consulted	-11.5575
▁whereon	-11.5579
▁44	-11.5582
▁panic	-11.5585
▁foundations	-11.5586
▁presents	-11.5588
▁g	-11.5589
▁notions	-11.5589
▁lieth	-11.559
▁Mi	-11.5591
▁islands	-11.5594
▁9	-11.5597
▁stockings	-11.5599
▁waggon	-11.5607
▁excite	-11.5609
▁sway	-11.5612
cloth	-11.5614
natured	-11.5616
▁y	-11.5619
▁skirt	-11.5619
▁Pi	-11.5621
▁fling	-11.5628
▁Instantly	-11.563
▁LUCIUS	-11.563
▁pestilence	-11.563
▁revenue	-11.563
▁tobacco	-11.563
▁disaster	-11.563
▁blazing	-11.5631
▁schoolmaster	-11.5631
▁bidding	-11.5631
▁quoth	-11.5632
▁bigger	-11.5633
▁frock	-11.5634
▁guided	-11.5635
part	-11.5635
▁promising	-11.5635
▁staggered	-11.5636
▁holiday	-11.564
▁Power	-11.5641
▁Show	-11.5642
ean	-11.5643
▁plays	-11.5645
▁derived	-11.5645
▁repaired	-11.5648
▁dresses	-11.565
▁doomed	-11.5651
▁materials	-11.5651
▁sockets	-11.5653
▁visiting	-11.5659
za	-11.5659
▁suspicions	-11.5669
▁thrill	-11.5674
▁exceed	-11.5674
point	-11.5675
▁drift	-11.5676
▁moan	-11.5681
▁whore	-11.5681
▁envelope	-11.5681
▁arrangements	-11.5682
▁pie	-11.5682
▁elect	-11.5684
SE	-11.5685
▁impress	-11.5685
▁Romans	-11.5686
Some	-11.5689
▁precise	-11.5689
hill	-11.569
▁Soulsby	-11.5697
▁intimacy	-11.5697
▁rebellious	-11.5697
▁garret	-11.5697
▁medium	-11.5697
▁5:4	-11.5697
▁incline	-11.5697
▁cream	-11.57
▁rusty	-11.57
▁customs	-11.5704
▁Dora	-11.5706
▁scholar	-11.5707
▁inconvenience	-11.5708
▁diamond	-11.5708
▁robbers	-11.5711
▁screaming	-11.5717
▁climbing	-11.572
▁fits	-11.5723
▁gardener	-11.5723
ition	-11.5727
▁fiercely	-11.573
▁scribes	-11.5734
La	-11.5739
▁hesitate	-11.5744
form	-11.5745
▁expose	-11.5748
▁banish	-11.5753
ef	-11.5756
▁boards	-11.5761
▁August	-11.5761
gent	-11.5763
▁Lebanon	-11.5764
▁Malbihn	-11.5764
▁extensive	-11.5764
▁recognition	-11.5764
▁underneath	-11.5764
▁Richmond	-11.5764
▁Boston	-11.5764
▁Justice	-11.5765
▁31:1	-11.5765
▁commonplace	-11.5767
▁partition	-11.5767
▁Looking	-11.5767
▁favourable	-11.5769
▁darkened	-11.577
▁61	-11.577
▁obligation	-11.5776
ack	-11.5777
▁na	-11.5778
▁rub	-11.5779
bus	-11.5782
▁Amorites	-11.5787
▁BE	-11.5787
▁amiss	-11.579
▁beforehand	-11.5792
▁newspapers	-11.5793
▁mould	-11.58
ture	-11.58
▁collect	-11.5803
gainst	-11.5804
ground	-11.5808
▁sweetness	-11.581
▁crash	-11.581
▁pond	-11.5819
▁heave	-11.5822
nny	-11.5823
▁grip	-11.5824
▁Moon	-11.5829
▁seventeen	-11.583
▁Slowly	-11.5831
▁Zarahemla	-11.5831
▁Darnay	-11.5831
▁imaginary	-11.5831
▁westward	-11.5833
▁springs	-11.5833
▁troth	-11.5833
eau	-11.5835
▁July	-11.5837
▁lingered	-11.5838
▁spark	-11.584
▁frankly	-11.584
ien	-11.584
ny	-11.5841
▁Ze	-11.5844
▁unconsciously	-11.5845
;”	-11.5861
▁knocking	-11.5861
▁coldly	-11.5871
tte	-11.5872
▁RE	-11.5876
▁25	-11.5885
self	-11.589
green	-11.589
coat	-11.5892
▁tire	-11.5893
▁bulls	-11.5893
▁hearty	-11.5893
▁triumphant	-11.5894
▁lodgings	-11.5896
▁joyous	-11.5899
▁indescribable	-11.5899
▁literary	-11.5899
▁twain	-11.5899
▁Admiral	-11.5899
▁1:5	-11.59
▁HELENA	-11.59
▁Born	-11.59
▁curve	-11.59
▁bursting	-11.59
▁Tower	-11.5902
▁pulse	-11.5903
▁compact	-11.5903
▁Better	-11.5903
▁78	-11.5904
▁suitable	-11.5904
▁eighth	-11.5904
▁Suppose	-11.5905
ibility	-11.5908
▁rum	-11.5908
▁echoed	-11.5909
▁drifted	-11.591
▁homeward	-11.5911
▁healthy	-11.592
nes	-11.5922
▁meek	-11.5925
▁enabled	-11.5927
▁gap	-11.593
▁Arm	-11.593
▁temples	-11.5932
▁gravel	-11.5933
▁jail	-11.5948
▁formal	-11.5952
▁XV	-11.5953
known	-11.5955
east	-11.5956
school	-11.5956
▁wink	-11.5957
▁soup	-11.5961
▁rack	-11.5964
▁groups	-11.5965
▁fox	-11.5965
▁42	-11.5967
▁Priscilla	-11.5968
▁convenience	-11.5968
▁crisis	-11.5968
▁irresistible	-11.5968
▁negative	-11.5968
▁reddleman	-11.5968
▁subsequent	-11.5968
▁frenzy	-11.5968
▁tolerably	-11.5968
▁kinsman	-11.5968
gone	-11.5968
▁luminous	-11.5968
▁perilous	-11.5969
▁opera	-11.5969
▁drooping	-11.5972
▁Boy	-11.5973
▁fo	-11.5974
oe	-11.5975
▁softened	-11.5975
▁deemed	-11.5976
▁selected	-11.5977
▁com	-11.5979
▁strengthened	-11.5983
run	-11.5985
▁begging	-11.5987
▁cords	-11.5993
▁tracks	-11.5994
cha	-11.5996
▁Africa	-11.6004
▁reins	-11.6004
▁louder	-11.6006
ST	-11.6007
ote	-11.6009
▁befall	-11.6012
▁owl	-11.6013
▁float	-11.6015
▁communicate	-11.6017
▁defile	-11.6017
fish	-11.6017
▁quiver	-11.6019
▁praises	-11.602
▁11:3	-11.6022
▁suited	-11.6024
▁pleasantly	-11.6025
Would	-11.6025
▁stubborn	-11.6027
▁pan	-11.6027
▁27:1	-11.6029
ization	-11.6035
rod	-11.6037
▁Chinese	-11.6037
▁Durbeyfield	-11.6037
▁November	-11.6037
▁siege	-11.6037
▁XVI	-11.6037
▁Lucius	-11.6037
▁railroad	-11.6037
▁Believe	-11.6037
▁perceiving	-11.6038
▁edition	-11.6038
▁sur	-11.6038
▁hermit	-11.6038
▁earliest	-11.6038
▁pinch	-11.6038
▁planned	-11.6039
▁28:2	-11.6039
▁Fourth	-11.604
▁comparatively	-11.6041
▁steed	-11.6043
▁MAN	-11.6045
▁converted	-11.6045
▁wretchedness	-11.6046
▁captives	-11.6049
▁miracles	-11.605
▁tar	-11.6056
▁solely	-11.6057
▁demon	-11.6059
▁upset	-11.6059
▁fearfully	-11.6066
bra	-11.6074
tie	-11.6075
▁skins	-11.6076
▁f	-11.6078
ere	-11.6078
▁Lay	-11.608
▁shiver	-11.6084
ending	-11.6088
ban	-11.609
▁idiot	-11.6096
▁acquire	-11.6096
▁Flushing	-11.6106
▁Juliet	-11.6106
▁October	-11.6106
▁apparatus	-11.6106
▁vegetation	-11.6106
▁venerable	-11.6106
▁worried	-11.6106
▁shrank	-11.6106
▁Chaldeans	-11.6106
▁alms	-11.6106
▁offense	-11.6106
▁burial	-11.6106
▁dragging	-11.6107
▁Wednesday	-11.6107
▁civilized	-11.6107
▁strait	-11.6115
▁Mayor	-11.6116
▁conveyed	-11.6122
▁entertained	-11.6123
▁backs	-11.6126
▁teachers	-11.6126
fire	-11.6128
▁commanding	-11.6136
▁fantastic	-11.6138
▁peculiarly	-11.6139
▁stretching	-11.6139
▁Sit	-11.6142
ix	-11.6145
▁sticks	-11.6147
▁carriages	-11.615
▁renew	-11.6152
▁conquer	-11.6153
▁crush	-11.6155
▁recompense	-11.6156
eight	-11.6161
▁seasons	-11.6162
▁coasts	-11.6162
jo	-11.6164
▁snuff	-11.6165
▁confound	-11.6166
▁Consider	-11.6167
▁shy	-11.617
▁brand	-11.6172
▁bottles	-11.6173
▁CAESAR	-11.6176
▁PAROLLES	-11.6176
▁counterfeit	-11.6176
▁hymn	-11.6176
▁sanctify	-11.6176
▁vicinity	-11.6176
▁oracle	-11.6176
▁Sperm	-11.6176
▁costume	-11.6177
▁terrace	-11.6177
▁contest	-11.6177
▁Palmer	-11.6177
▁winning	-11.6177
▁Cain	-11.6178
▁bucket	-11.6178
▁pathetic	-11.6178
▁rapidity	-11.6178
▁deliverance	-11.618
▁exhibited	-11.6183
▁plantation	-11.6183
▁Louisa	-11.6186
▁happening	-11.6189
art	-11.6191
bri	-11.6194
▁raven	-11.6195
▁magician	-11.6195
▁Other	-11.6199
▁needle	-11.6209
▁deserves	-11.6209
▁circles	-11.6212
pit	-11.6221
▁capture	-11.6227
▁sketch	-11.6233
▁blunt	-11.6239
▁contains	-11.6241
▁hats	-11.6241
▁questioning	-11.6244
ule	-11.6245
▁Francis	-11.6246
▁EPHESUS	-11.6247
▁bachelor	-11.6247
▁glancing	-11.6247
▁ninth	-11.6247
▁travail	-11.6247
▁twentieth	-11.6247
▁wroth	-11.6247
▁riddle	-11.6247
▁sparkling	-11.6248
▁glorified	-11.6248
mate	-11.6249
▁illuminated	-11.6251
▁cabinet	-11.6255
▁Wood	-11.6255
▁warmed	-11.6256
▁sermon	-11.6266
▁distrust	-11.6271
▁Em	-11.6273
▁stealing	-11.628
▁Da	-11.6284
▁neighbouring	-11.6286
▁fruitful	-11.6291
▁outline	-11.6292
ancy	-11.6298
▁bits	-11.6303
▁apostles	-11.6306
road	-11.6307
cia	-11.6308
▁Ge	-11.6314
je	-11.6317
▁patron	-11.6317
▁Mugambi	-11.6318
▁PALAMON	-11.6318
▁possibilities	-11.6318
▁terribly	-11.6318
▁expert	-11.6318
▁solicitude	-11.6318
▁whirlwind	-11.6318
▁12:4	-11.6318
▁testified	-11.6318
▁Golden	-11.6318
▁indulgence	-11.6319
▁33:1	-11.6319
▁imagining	-11.6319
▁considerably	-11.6319
▁undone	-11.632
▁Things	-11.632
▁Back	-11.6321
▁adieu	-11.6322
▁import	-11.6322
read	-11.6323
▁ri	-11.6324
▁wholesome	-11.6326
▁Sheik	-11.6327
▁carelessly	-11.6329
▁drama	-11.6329
▁greeted	-11.6331
ax	-11.6335
▁idol	-11.6338
▁packing	-11.6339
▁36	-11.6341
ole	-11.6343
air	-11.6354
▁graven	-11.6355
▁experiences	-11.636
▁da	-11.6361
▁exists	-11.6362
going	-11.6365
▁converse	-11.6369
▁bees	-11.6376
▁Te	-11.6378
umb	-11.6384
▁lick	-11.6385
▁Might	-11.6389
▁majestic	-11.6389
▁Jericho	-11.6389
▁Thursday	-11.6389
▁ghastly	-11.6389
▁horribly	-11.6389
▁turf	-11.6389
▁sleeves	-11.639
▁WHICH	-11.639
▁conjecture	-11.639
▁Women	-11.6391
▁pa	-11.6391
▁Armand	-11.6393
▁endureth	-11.6397
Does	-11.64
▁XVIII	-11.6403
▁wealthy	-11.6406
▁enquired	-11.6409
▁odor	-11.6409
▁3.	-11.6411
▁behaved	-11.6413
▁Che	-11.6421
▁savages	-11.6421
▁coats	-11.6424
▁blankets	-11.6427
▁bravely	-11.643
▁Sola	-11.6436
▁ge	-11.6437
▁stamp	-11.6437
ory	-11.6438
▁sustain	-11.6438
▁chickens	-11.6438
▁stoop	-11.6439
▁sc	-11.644
rest	-11.6444
▁shouldst	-11.6449
▁largest	-11.645
Shall	-11.6451
▁permanent	-11.6454
▁attentive	-11.6454
▁ditch	-11.6458
▁CASSIUS	-11.6461
▁Damascus	-11.6461
▁February	-11.6461
▁Thurid	-11.6461
▁Tybalt	-11.6461
▁harlot	-11.6461
▁jeddak	-11.6461
▁Douglas	-11.6461
▁eyelids	-11.6461
▁southern	-11.6461
▁margin	-11.6461
▁panther	-11.6461
▁statue	-11.6461
▁unequal	-11.6461
▁picturesque	-11.6462
▁Bethel	-11.6462
▁crimes	-11.6462
▁Whither	-11.6462
▁crouched	-11.6463
▁pouch	-11.6463
mor	-11.6465
lim	-11.647
lock	-11.647
▁crawled	-11.647
▁invented	-11.6471
▁dispersed	-11.6472
maker	-11.6474
▁goose	-11.6475
▁evils	-11.6475
▁improved	-11.6481
50	-11.6481
▁rogue	-11.6483
▁chicken	-11.6483
▁Ram	-11.6484
▁regularly	-11.6486
▁sinner	-11.6486
▁glances	-11.6487
▁Carr	-11.6488
ans	-11.6493
▁mayor	-11.6493
hood	-11.6494
ump	-11.6497
▁Su	-11.6499
ek	-11.6499
▁Char	-11.65
▁Jav	-11.6509
▁claimed	-11.6509
▁abandon	-11.651
▁enquire	-11.6513
▁invent	-11.6514
▁instruct	-11.6517
▁expenses	-11.6521
▁shrink	-11.6522
▁complaint	-11.6526
▁Jupiter	-11.6533
▁ORLANDO	-11.6533
▁Octavius	-11.6533
▁insurrection	-11.6533
▁vapor	-11.6533
▁cudgel	-11.6533
▁Jehu	-11.6533
▁penalty	-11.6533
▁pomp	-11.6534
▁snapped	-11.6534
▁detective	-11.6534
▁undoubtedly	-11.6535
▁pious	-11.6536
▁18:3	-11.6536
nic	-11.6537
▁mission	-11.6547
▁precaution	-11.6557
▁sayest	-11.6562
▁gale	-11.6563
▁specimens	-11.6565
▁Sh	-11.6569
▁repented	-11.657
▁mob	-11.6572
bell	-11.6582
▁Victor	-11.6583
▁stores	-11.6585
▁Wait	-11.6587
▁dire	-11.6589
▁builded	-11.6589
cut	-11.659
lar	-11.6591
did	-11.6595
▁cherish	-11.6596
▁wipe	-11.6599
▁Sid	-11.6599
ka	-11.6599
▁Cadwallader	-11.6606
▁artificial	-11.6606
▁chorus	-11.6606
▁diligence	-11.6606
▁intolerable	-11.6606
▁paradise	-11.6606
▁radiance	-11.6606
▁mercies	-11.6606
▁Bulan	-11.6606
▁infernal	-11.6606
▁6:4	-11.6607
▁pulpit	-11.6607
▁robes	-11.6607
▁waistcoat	-11.6607
▁horseback	-11.6608
▁Six	-11.6609
▁rebel	-11.6609
sar	-11.6609
▁agreement	-11.6611
▁policeman	-11.6612
▁deposited	-11.6613
▁tools	-11.6614
▁dismiss	-11.6614
▁bait	-11.6616
▁singers	-11.6616
▁tangled	-11.6619
▁choked	-11.6619
▁shower	-11.6619
▁endeavoured	-11.6621
▁Gun	-11.6622
seven	-11.6623
tus	-11.6623
handed	-11.6624
▁assisted	-11.6625
▁beware	-11.6631
▁briefly	-11.6636
▁footing	-11.6638
look	-11.6642
▁Asa	-11.6646
bal	-11.6648
▁lacking	-11.6649
▁Seeing	-11.6657
ette	-11.6662
Has	-11.6665
▁sighs	-11.6665
▁constitutional	-11.6668
▁afflict	-11.6668
stricken	-11.6668
▁Part	-11.6669
▁sometime	-11.6672
▁hoarse	-11.6674
▁allowing	-11.6674
▁access	-11.6678
▁sleepy	-11.6678
▁Cleopatra	-11.668
▁Emerald	-11.668
▁celestial	-11.668
▁explosion	-11.668
▁injustice	-11.668
▁uneasiness	-11.668
▁Elisha	-11.668
▁sobbing	-11.668
▁Abner	-11.668
▁preference	-11.6681
▁Moreau	-11.6681
▁thigh	-11.6681
▁Eden	-11.6681
got	-11.6682
▁representation	-11.6683
▁Herod	-11.6684
▁83	-11.6684
▁attempting	-11.6684
▁astonishing	-11.6685
▁68	-11.6685
▁recognised	-11.669
▁streams	-11.669
ake	-11.6691
▁firing	-11.6692
▁contemplated	-11.6694
▁dwelleth	-11.6698
▁boxes	-11.67
▁attentions	-11.6701
▁gleaming	-11.6701
▁Na	-11.6702
▁strokes	-11.6702
▁publish	-11.6703
▁supplication	-11.6705
▁Sam	-11.6707
▁traveled	-11.6708
▁stem	-11.6709
▁asunder	-11.6723
itude	-11.6725
▁indoors	-11.6726
▁mix	-11.6732
▁honestly	-11.6736
oli	-11.6745
▁unkind	-11.6745
▁workers	-11.6745
▁vanish	-11.675
▁abyss	-11.6751
▁vital	-11.6753
▁Aouda	-11.6754
▁BENEDICK	-11.6754
▁Henderson	-11.6754
▁Hilda	-11.6754
▁Mbonga	-11.6754
▁PEDRO	-11.6754
▁PORTIA	-11.6754
▁SICINIUS	-11.6754
▁alternative	-11.6754
▁goddess	-11.6754
▁alliance	-11.6754
▁9:4	-11.6754
▁Abram	-11.6754
▁internal	-11.6754
▁knitting	-11.6754
▁ju	-11.6756
▁offspring	-11.6757
▁framed	-11.6757
▁secretary	-11.6758
▁acceptable	-11.6758
nine	-11.6764
▁Ask	-11.6768
CE	-11.6768
▁groaned	-11.6769
▁eh	-11.6769
▁exile	-11.6772
▁growling	-11.6773
▁sap	-11.6773
▁nervously	-11.6775
iel	-11.6778
▁rarely	-11.6779
▁flowed	-11.678
▁Beast	-11.6781
▁exertion	-11.6781
▁semi	-11.6792
▁stuffed	-11.6793
lot	-11.6793
▁shocked	-11.6794
▁payment	-11.6796
▁echo	-11.6804
▁wail	-11.6806
▁seeth	-11.6811
▁21:2	-11.6815
▁bleed	-11.6817
▁provinces	-11.6817
▁vicious	-11.6821
▁serene	-11.6823
▁Irish	-11.6827
▁ARCITE	-11.6829
▁Government	-11.6829
▁Medlock	-11.6829
▁September	-11.6829
▁TROILUS	-11.6829
▁colonel	-11.6829
▁offensive	-11.6829
▁tyranny	-11.6829
▁swimming	-11.6829
▁monsieur	-11.6829
▁humility	-11.6829
▁debate	-11.683
▁whereupon	-11.6831
▁continuing	-11.6832
▁distracted	-11.6833
▁countless	-11.6833
▁Bank	-11.6834
▁Line	-11.6835
▁blessings	-11.6836
▁rag	-11.6837
▁paw	-11.6837
ay	-11.6837
lit	-11.6838
▁dove	-11.6842
ew	-11.6849
▁sweeping	-11.685
▁overhead	-11.685
▁cracked	-11.6855
TE	-11.6857
▁revelation	-11.6857
ja	-11.6858
▁anew	-11.6863
▁attendants	-11.6864
wi	-11.6867
▁pearl	-11.6868
▁lawn	-11.6876
▁piled	-11.6881
▁si	-11.6886
ically	-11.6887
▁arrange	-11.6888
▁rouse	-11.6888
▁sounding	-11.6889
▁diamonds	-11.689
worn	-11.6891
▁spout	-11.6892
white	-11.6893
mine	-11.6893
love	-11.6894
▁cordial	-11.6896
▁obstinate	-11.6896
▁quo	-11.6897
▁Rev	-11.6899
▁cakes	-11.69
▁uproar	-11.6904
▁cavern	-11.6904
▁ANTIGONE	-11.6904
▁Abimelech	-11.6904
▁JULIET	-11.6904
▁KATHARINE	-11.6904
▁Zedekiah	-11.6904
▁Gideon	-11.6904
▁Maston	-11.6904
▁Esther	-11.6904
▁tolerable	-11.6904
▁Price	-11.6904
▁cursing	-11.6904
▁89	-11.6907
▁shrewd	-11.6908
▁sackcloth	-11.6908
▁displeased	-11.691
▁serving	-11.6912
▁moths	-11.6915
▁spur	-11.6916
▁warlike	-11.6919
▁bills	-11.6921
▁kneeling	-11.6922
▁Certainly	-11.6924
ock	-11.6925
SS	-11.6925
▁Hu	-11.6927
▁meadow	-11.6933
▁plucked	-11.6934
▁minded	-11.6937
▁theft	-11.694
ria	-11.6941
▁rewarded	-11.6949
▁induce	-11.6958
▁swam	-11.6962
▁parent	-11.697
May	-11.6971
▁vigorous	-11.6973
▁debts	-11.6978
▁Cr	-11.6979
▁eternity	-11.698
▁exploit	-11.698
▁temperament	-11.698
▁terrestrial	-11.698
▁holiness	-11.698
▁confronted	-11.6983
▁Stone	-11.6983
▁arriving	-11.6984
▁procure	-11.6984
▁brandy	-11.6984
▁amusing	-11.6986
▁Ver	-11.6988
▁students	-11.6989
▁brushed	-11.6993
▁laden	-11.6994
▁positively	-11.6995
▁fishes	-11.6996
▁heroic	-11.6997
▁earned	-11.7
▁overboard	-11.7
▁painfully	-11.7004
▁gentleness	-11.7007
▁approved	-11.7011
▁barrel	-11.7013
▁fir	-11.7014
▁faithfully	-11.7015
after	-11.7017
▁mat	-11.7021
▁remembering	-11.7025
▁galleys	-11.7027
Or	-11.7039
▁wa	-11.704
▁mon	-11.7043
▁foam	-11.7045
▁treacherous	-11.7048
horn	-11.7049
▁considerations	-11.705
▁accounted	-11.7051
▁Harris	-11.7056
▁ANGELO	-11.7056
▁Christminster	-11.7056
▁angrily	-11.7056
▁improper	-11.7056
▁intensity	-11.7056
▁pretext	-11.7056
▁Philander	-11.7056
▁cherubims	-11.7056
▁Shechem	-11.7056
▁balloon	-11.7056
▁attractive	-11.7056
▁Chief	-11.7057
▁16:3	-11.7057
▁alien	-11.7059
▁mend	-11.706
▁devices	-11.7062
▁enclosed	-11.7063
▁touches	-11.7063
▁angles	-11.7067
▁tough	-11.7073
Me	-11.7082
▁spoon	-11.7089
▁murmuring	-11.7089
lly	-11.7093
▁trim	-11.7098
▁alarming	-11.7105
▁hain	-11.7113
▁bon	-11.7118
▁exalt	-11.7119
▁amuse	-11.7124
▁Andrews	-11.7125
▁lighter	-11.7126
▁therewith	-11.7126
▁coals	-11.7127
▁traces	-11.7128
▁beam	-11.7129
▁proverb	-11.7132
▁Atlantic	-11.7133
▁Balaam	-11.7133
▁Catholic	-11.7133
▁censure	-11.7133
▁faculties	-11.7133
▁integrity	-11.7133
▁primitive	-11.7133
▁Tyre	-11.7133
▁incapable	-11.7133
▁Scotland	-11.7133
▁unreasonable	-11.7133
▁meddle	-11.7133
▁pilgrimage	-11.7133
▁disappearance	-11.7133
▁Town	-11.7134
▁stepping	-11.7134
▁vo	-11.7135
▁attendance	-11.7135
▁machinery	-11.7135
▁management	-11.7135
▁acute	-11.7135
▁varied	-11.7135
▁expressions	-11.7136
▁Persian	-11.7142
▁Full	-11.7142
▁prolonged	-11.7142
▁elected	-11.7145
▁chat	-11.7149
▁grasses	-11.7152
▁communicated	-11.7155
▁tumbled	-11.7156
▁protected	-11.7156
▁entreated	-11.7156
▁summon	-11.7156
▁blossoms	-11.7162
▁Cape	-11.7164
▁antagonist	-11.7164
nu	-11.7168
▁fairest	-11.7171
▁purchased	-11.7172
▁bat	-11.7173
▁latest	-11.7179
▁82	-11.7184
▁boar	-11.7185
▁swarm	-11.7188
boat	-11.719
▁necks	-11.7205
▁apples	-11.7206
▁engineer	-11.721
▁extravagant	-11.721
▁substantial	-11.721
▁inscription	-11.721
▁composure	-11.721
▁dripping	-11.7211
▁temperature	-11.7211
▁Maule	-11.7211
▁including	-11.7211
▁seizing	-11.7212
▁29:2	-11.7213
▁trodden	-11.7213
▁perplexed	-11.7213
▁mess	-11.7214
▁alteration	-11.7216
▁constructed	-11.7217
▁diminished	-11.7217
▁Beth	-11.7218
▁breasts	-11.7219
▁amidst	-11.722
▁volumes	-11.7222
▁housekeeper	-11.7222
▁31	-11.7224
aud	-11.7225
▁fie	-11.7226
▁flattering	-11.7227
▁penetrated	-11.7229
▁manhood	-11.7229
ight	-11.7232
▁repeating	-11.7238
fall	-11.7239
▁loosed	-11.7239
▁dam	-11.724
▁rocky	-11.7241
▁grin	-11.7242
▁restrain	-11.7243
▁wrist	-11.7244
▁passenger	-11.7244
▁tails	-11.7248
▁liar	-11.7248
▁meals	-11.7254
▁und	-11.7256
▁interrupt	-11.7263
▁cable	-11.7265
▁cor	-11.7266
rat	-11.7266
▁beef	-11.7267
▁transgress	-11.7277
Wait	-11.7277
▁signify	-11.7278
▁launch	-11.7278
maid	-11.728
▁Bukawai	-11.7288
▁Ferrars	-11.7288
▁Nebuchadnezzar	-11.7288
▁PISTOL	-11.7288
▁eloquent	-11.7288
▁unaccountable	-11.7288
▁morsel	-11.7288
▁Waterloo	-11.7288
▁latitude	-11.7288
▁stripped	-11.7289
▁Arras	-11.7289
▁Magic	-11.7289
▁Luker	-11.7289
▁piercing	-11.7289
▁plow	-11.7289
▁hum	-11.729
▁wronged	-11.7292
▁solemnity	-11.7293
pping	-11.7293
▁effective	-11.7293
has	-11.7297
▁Kent	-11.7298
▁thirsty	-11.7299
▁instructed	-11.73
▁shivering	-11.7302
▁kisses	-11.7305
▁practically	-11.7306
▁borrowed	-11.7306
▁whit	-11.7311
▁threat	-11.7317
▁sy	-11.732
▁inhabit	-11.732
▁Shepherd	-11.7323
▁scribe	-11.7324
DE	-11.7326
▁apartments	-11.733
ik	-11.7334
from	-11.7337
▁altars	-11.7337
▁clap	-11.7342
iling	-11.7343
▁peep	-11.7345
chi	-11.7348
▁vines	-11.7348
▁valleys	-11.735
▁methods	-11.7353
back	-11.7355
▁grape	-11.7355
Horse	-11.7356
▁ledge	-11.7357
pper	-11.7357
▁viewed	-11.7359
▁folds	-11.7359
good	-11.7364
▁Ni	-11.7365
▁cra	-11.7366
▁beholding	-11.7366
▁SPEED	-11.7367
▁Sloane	-11.7367
▁apparition	-11.7367
▁babies	-11.7367
▁bridle	-11.7367
▁emperor	-11.7367
▁jurisdiction	-11.7367
▁redemption	-11.7367
▁dazzling	-11.7367
▁malicious	-11.7367
▁defy	-11.7367
▁carries	-11.7368
▁exercised	-11.7368
▁sidewalk	-11.7369
▁Marian	-11.7371
▁Later	-11.7372
▁reed	-11.7377
▁Jan	-11.7377
▁verses	-11.7378
▁cheerfulness	-11.7378
▁operations	-11.7383
▁rot	-11.7386
▁sojourn	-11.7386
▁travellers	-11.7387
▁painter	-11.7388
▁Ever	-11.7389
▁bud	-11.7389
▁cal	-11.7391
▁existing	-11.7395
▁appealed	-11.7395
▁aren	-11.74
▁herald	-11.7406
ulation	-11.7408
▁battles	-11.741
▁pearls	-11.7417
▁shell	-11.7419
vol	-11.7421
▁Others	-11.7426
▁hunter	-11.7427
uring	-11.743
▁ab	-11.7436
making	-11.7436
▁errors	-11.7437
▁gi	-11.7437
▁AN	-11.7438
▁abrupt	-11.7439
shaped	-11.744
▁assent	-11.7441
▁oars	-11.7441
sword	-11.7444
▁Ab	-11.7445
▁LEONTES	-11.7447
▁dialogue	-11.7447
▁humiliation	-11.7447
▁requisite	-11.7447
▁tavern	-11.7447
▁Caliph	-11.7447
▁cradle	-11.7447
▁Return	-11.7447
▁Highbury	-11.7447
▁Middleton	-11.7447
▁repay	-11.7447
istic	-11.7447
▁submitted	-11.7448
▁eventually	-11.7448
▁clenched	-11.7449
▁southward	-11.7449
▁crouching	-11.7449
▁undertaking	-11.745
▁fulness	-11.7452
▁Lucie	-11.7453
▁porters	-11.7454
▁regained	-11.7457
▁Horse	-11.7459
▁suits	-11.7462
▁contracted	-11.7465
ker	-11.7471
▁originally	-11.7473
▁scruple	-11.7473
bag	-11.7481
▁Thark	-11.7484
▁blanket	-11.7485
▁Anna	-11.7486
wing	-11.7486
iate	-11.7489
▁dreadfully	-11.7491
▁mu	-11.7493
▁discuss	-11.7502
ois	-11.7502
▁threaten	-11.7509
rant	-11.751
▁Ju	-11.7513
▁aye	-11.7514
▁regain	-11.7516
▁Persia	-11.7517
▁slim	-11.7517
▁kissing	-11.7518
▁Second	-11.7519
▁buck	-11.7522
▁Hon	-11.7522
▁Asia	-11.7523
▁wench	-11.7524
leg	-11.7526
▁Dimmesdale	-11.7527
▁Thornbury	-11.7527
▁Waziri	-11.7527
▁dervish	-11.7527
▁glacier	-11.7527
▁memorial	-11.7527
▁prudence	-11.7527
▁ungodly	-11.7527
▁Evelyn	-11.7527
▁beauties	-11.7527
▁review	-11.7527
▁pony	-11.7527
▁violin	-11.7528
▁Poole	-11.7528
▁32:1	-11.7528
▁23:3	-11.7528
▁companionship	-11.7529
▁XVII	-11.7529
▁rounded	-11.7529
▁extinguished	-11.7534
▁Angelo	-11.7536
▁br	-11.7538
▁glided	-11.7539
▁trot	-11.7541
▁contrived	-11.7542
▁dome	-11.7542
▁rein	-11.7544
▁swelling	-11.7546
▁blushed	-11.7548
▁waxed	-11.7548
▁plateau	-11.7552
lings	-11.7556
▁accidents	-11.7557
▁obstacle	-11.7565
▁candlestick	-11.7565
▁cooking	-11.7567
rd	-11.757
▁requested	-11.7573
▁princely	-11.7575
elle	-11.758
▁bust	-11.7583
▁Hal	-11.7585
▁sticking	-11.7586
▁plane	-11.7587
gui	-11.7589
▁Cat	-11.7592
chair	-11.7599
▁inquiring	-11.76
▁sobs	-11.76
▁carcass	-11.7604
▁wrap	-11.7606
▁Bashan	-11.7607
▁voluntary	-11.7607
▁January	-11.7607
▁parson	-11.7607
▁cotton	-11.7607
▁slang	-11.7607
▁gaily	-11.7607
▁Pilate	-11.7607
▁Elfonzo	-11.7608
▁Lehi	-11.7608
▁Hastings	-11.7608
▁20:3	-11.7609
▁western	-11.7609
▁plight	-11.7609
▁simultaneously	-11.7609
dge	-11.761
▁Dover	-11.7612
HO	-11.7614
▁lingering	-11.7616
hold	-11.7618
▁stricken	-11.762
▁moist	-11.7621
▁Hi	-11.7622
▁highness	-11.7622
▁Fare	-11.7625
▁Lot	-11.763
ille	-11.7633
▁ban	-11.7634
▁balls	-11.7635
▁bustle	-11.7642
ais	-11.7643
▁j	-11.7646
▁representative	-11.7648
▁alley	-11.7648
▁adopt	-11.7665
▁ache	-11.7665
▁crawl	-11.7666
▁appreciate	-11.7668
▁End	-11.767
aw	-11.767
▁fulfil	-11.7677
▁ardent	-11.7681
▁mechanical	-11.7682
▁banker	-11.7685
▁CELIA	-11.7688
▁PERICLES	-11.7688
▁Taylor	-11.7688
▁Whilst	-11.7688
▁Wunsch	-11.7688
▁cylinder	-11.7688
▁unleavened	-11.7688
▁Howbeit	-11.7688
▁chalk	-11.7688
▁Pacific	-11.7688
▁11:4	-11.7689
Our	-11.7689
▁Free	-11.7689
were	-11.7689
Ch	-11.7689
▁Robin	-11.7689
▁novelty	-11.7689
▁34:1	-11.769
▁19:3	-11.7691
▁republican	-11.7691
▁poem	-11.7692
▁elapsed	-11.7692
▁Open	-11.7698
▁boiling	-11.7699
▁assented	-11.7699
▁Emily	-11.7699
▁mire	-11.77
▁Gu	-11.77
lia	-11.7714
lessness	-11.7715
twere	-11.7716
▁herbs	-11.7717
▁workmen	-11.772
these	-11.7721
▁74	-11.7725
▁wrongs	-11.7727
▁Syrians	-11.7728
▁vale	-11.7731
▁sends	-11.774
▁afflictions	-11.7741
▁limp	-11.7748
ching	-11.7748
▁jerk	-11.7748
▁fists	-11.7753
▁Shu	-11.7753
▁trod	-11.7756
▁liver	-11.7758
Father	-11.7759
▁plaster	-11.776
Anne	-11.7761
▁Isn	-11.7762
▁depends	-11.7765
▁harden	-11.7768
▁boss	-11.777
▁Cruncher	-11.777
▁Dauphin	-11.777
▁Executive	-11.777
▁Jerry	-11.777
▁Pumpkinhead	-11.777
▁Talbot	-11.777
▁VIOLA	-11.777
▁earthquake	-11.777
▁envious	-11.777
▁lunar	-11.777
▁splendor	-11.777
▁odious	-11.777
▁ANNE	-11.7771
▁Arabs	-11.7771
▁Ireland	-11.7771
▁PRINCESS	-11.7771
▁anticipation	-11.7771
▁nook	-11.7771
▁grandeur	-11.7771
▁declaration	-11.7771
▁foremost	-11.7771
▁clamor	-11.7771
▁pitied	-11.7771
▁hospitality	-11.7772
▁spade	-11.7772
▁regretted	-11.7772
▁rejoined	-11.7773
▁startling	-11.7777
▁breaks	-11.7777
dog	-11.7786
▁sha	-11.7788
▁keys	-11.7792
▁73	-11.7794
▁ga	-11.7796
▁hurriedly	-11.7799
▁staves	-11.7807
gin	-11.7812
▁crop	-11.7814
▁inhabitant	-11.7814
▁eateth	-11.7816
▁attendant	-11.7816
▁tract	-11.7826
▁select	-11.7829
▁unite	-11.7834
▁River	-11.7837
▁Kan	-11.7838
▁homely	-11.7839
▁fee	-11.784
get	-11.7843
▁vex	-11.7843
▁abundant	-11.7846
▁deliberate	-11.7846
Get	-11.7846
ility	-11.7847
hy	-11.7849
▁je	-11.7851
▁LEONATO	-11.7853
▁Mordecai	-11.7853
▁SOLDIER	-11.7853
▁clumsy	-11.7853
▁escaping	-11.7853
▁exciting	-11.7853
▁eyebrows	-11.7853
▁invariably	-11.7853
▁sincerity	-11.7853
▁Donald	-11.7853
▁conference	-11.7853
▁antique	-11.7853
▁perplexity	-11.7853
▁approbation	-11.7854
▁rider	-11.7854
▁Bless	-11.7859
▁caps	-11.7861
▁fellowship	-11.7862
▁fireplace	-11.7862
▁op	-11.7865
▁stooping	-11.7867
▁forgiveness	-11.7867
▁ven	-11.7869
▁ascending	-11.7874
▁86	-11.7875
▁rats	-11.7875
▁wager	-11.7877
▁reconcile	-11.788
▁compassed	-11.7885
▁deepest	-11.7885
arch	-11.7888
▁stump	-11.7897
ros	-11.7901
▁snap	-11.7906
▁hairs	-11.7907
▁rend	-11.7911
ison	-11.7912
▁improve	-11.7916
▁damage	-11.7917
▁oppress	-11.7918
▁fainted	-11.7921
Quite	-11.7925
More	-11.7926
▁morn	-11.7926
▁needy	-11.7927
▁fishing	-11.793
▁transgressions	-11.7932
▁proportions	-11.7933
▁sentences	-11.7936
▁Ezra	-11.7936
▁Mombi	-11.7936
▁OLIVIA	-11.7936
▁clump	-11.7936
▁eclipse	-11.7936
▁posterity	-11.7936
▁pretence	-11.7936
▁treachery	-11.7936
▁ebb	-11.7936
▁spacious	-11.7937
----"	-11.7937
▁digging	-11.7937
▁mor	-11.7938
▁Truly	-11.7939
▁Boss	-11.794
▁fade	-11.7943
▁personality	-11.7943
▁translated	-11.7947
▁whiteness	-11.7949
▁wailing	-11.7951
▁Walk	-11.7952
▁span	-11.7954
▁unexpectedly	-11.7955
▁neighboring	-11.7956
▁Bl	-11.7956
ong	-11.7958
▁Hang	-11.7959
▁unfortunately	-11.7963
▁forests	-11.7963
▁waiter	-11.7964
▁securely	-11.7966
▁lined	-11.7969
oggle	-11.7971
▁withdrawn	-11.7972
▁heaped	-11.7974
▁disguised	-11.798
▁pump	-11.7982
ep	-11.7988
▁yielding	-11.799
▁65	-11.7991
▁ham	-11.7992
ball	-11.7993
▁unb	-11.7995
▁observer	-11.7996
▁Col	-11.7996
▁Tall	-11.7997
▁stray	-11.7998
▁Dor	-11.7998
▁encourage	-11.7999
▁believeth	-11.8002
▁32	-11.8002
▁184	-11.8007
▁convert	-11.801
▁indignant	-11.8013
▁resolute	-11.8013
▁sob	-11.8016
▁strings	-11.8016
▁buying	-11.8017
▁nineteen	-11.8019
▁Cardinal	-11.802
▁IMOGEN	-11.802
▁JULIA	-11.802
▁Josiah	-11.802
▁enchanted	-11.802
▁prominent	-11.802
▁strove	-11.802
▁telegram	-11.802
▁cigarette	-11.8021
▁6:5	-11.8021
▁criticism	-11.8021
▁muffled	-11.8021
▁disposal	-11.8021
▁Darling	-11.8021
▁accusation	-11.8021
▁Mount	-11.8021
▁nodding	-11.8022
▁Cousin	-11.8022
▁nursery	-11.8023
▁mi	-11.8024
▁feverish	-11.8025
▁pathway	-11.8028
▁mechanically	-11.8028
▁Fie	-11.803
▁restrained	-11.8032
▁sustained	-11.8033
▁seemingly	-11.8037
▁Fall	-11.8039
▁desperately	-11.8044
▁sinful	-11.805
gan	-11.8056
▁cre	-11.8057
mat	-11.8061
▁function	-11.8067
▁specimen	-11.8068
▁flier	-11.807
▁chased	-11.8071
▁pleas	-11.8075
▁airy	-11.8077
tric	-11.8083
▁compliments	-11.8084
▁penetrate	-11.8085
▁stumble	-11.8085
▁upwards	-11.8087
▁lapse	-11.8089
▁experiments	-11.8091
▁failing	-11.8092
▁transport	-11.8094
▁reports	-11.8095
▁impart	-11.8095
AM	-11.8096
▁brisk	-11.8098
▁feasts	-11.8099
▁sympathetic	-11.8105
▁Desdemona	-11.8105
▁Kerchak	-11.8105
▁Rupert	-11.8105
▁Troilus	-11.8105
▁proprietor	-11.8105
▁solution	-11.8105
▁thrive	-11.8105
▁tranquillity	-11.8105
▁Throne	-11.8105
▁striving	-11.8105
▁stealthily	-11.8105
▁patrol	-11.8105
▁severity	-11.8106
▁cupboard	-11.8106
▁relish	-11.8106
▁remarkably	-11.8106
▁rumour	-11.8107
▁Johnny	-11.8107
▁Answer	-11.8108
▁elevated	-11.8111
▁Hor	-11.8112
▁swearing	-11.8116
▁sincerely	-11.8117
▁partake	-11.8118
▁shops	-11.8122
▁Tal	-11.8126
▁discerned	-11.8126
▁stained	-11.8134
tail	-11.8135
▁sped	-11.8136
▁intending	-11.8136
▁worthless	-11.814
▁answers	-11.8145
▁plank	-11.8153
▁meditation	-11.8153
▁rescued	-11.8155
▁strikes	-11.816
▁Egyptian	-11.8163
ene	-11.8168
▁22:2	-11.8173
▁brim	-11.8178
▁blunder	-11.8179
▁les	-11.8179
something	-11.8179
▁shillings	-11.818
▁amazing	-11.8187
▁pe	-11.8188
▁Ambulinia	-11.8191
▁FRANCE	-11.8191
▁LUCIO	-11.8191
▁Nurse	-11.8191
▁picnic	-11.8191
▁rubbing	-11.8191
▁whaling	-11.8191
▁committee	-11.8191
▁fragrant	-11.8191
▁Woola	-11.8191
▁adultery	-11.8191
▁interference	-11.8191
▁loaf	-11.8191
▁knives	-11.8192
▁Othello	-11.8192
▁literally	-11.8193
▁richly	-11.8194
▁weed	-11.8195
▁ghosts	-11.8196
▁multitudes	-11.8196
▁concealment	-11.8196
▁Baron	-11.8201
nal	-11.8201
▁furiously	-11.8206
▁yer	-11.8207
vin	-11.821
▁gig	-11.8212
▁horrors	-11.8215
tend	-11.8215
fr	-11.8216
▁shooting	-11.8222
ford	-11.8223
▁slide	-11.8223
▁victims	-11.8224
▁gestures	-11.8227
▁peal	-11.823
▁prop	-11.8232
▁symptoms	-11.8233
▁sly	-11.8234
▁reared	-11.8237
▁phrases	-11.8238
urs	-11.8243
▁reckoning	-11.8246
▁burdens	-11.8252
▁pierce	-11.8257
▁faction	-11.8259
▁ending	-11.826
Which	-11.8265
▁quench	-11.8266
▁Har	-11.8267
▁fin	-11.8268
▁arts	-11.827
▁Grannis	-11.8277
▁BARDOLPH	-11.8277
▁PROSPERO	-11.8277
▁ducats	-11.8277
▁edifice	-11.8277
▁harbour	-11.8277
▁hereditary	-11.8277
▁maxim	-11.8277
▁molten	-11.8277
▁proclamation	-11.8277
▁skilful	-11.8277
▁vapour	-11.8277
▁5:5	-11.8277
▁referred	-11.8277
▁barley	-11.8278
3][	-11.8278
▁aisle	-11.8278
▁disturbance	-11.8278
▁ascertain	-11.8279
▁crust	-11.8279
▁wearied	-11.828
▁churchyard	-11.8281
▁judging	-11.8281
▁Sodom	-11.8283
▁resolutely	-11.8284
▁dispose	-11.8285
▁fitting	-11.8287
▁Towards	-11.8287
▁Han	-11.8289
▁Maybe	-11.829
▁70	-11.8293
▁indulged	-11.8295
▁joints	-11.8296
▁consists	-11.8305
▁lifetime	-11.8305
▁madame	-11.8311
fo	-11.8312
▁ropes	-11.8314
▁impressions	-11.8318
▁summons	-11.8327
▁purely	-11.8331
▁incidents	-11.8331
▁counting	-11.8332
tation	-11.8332
win	-11.8333
▁thicket	-11.8333
▁discovering	-11.8337
ked	-11.8339
▁baker	-11.8339
▁males	-11.8341
▁55	-11.8342
▁appropriate	-11.8344
▁promote	-11.8344
▁Thor	-11.8346
▁adore	-11.8347
▁19:2	-11.8349
▁drums	-11.8351
▁nourish	-11.8352
til	-11.8352
▁reject	-11.8352
since	-11.8353
rap	-11.8354
▁casual	-11.8356
▁slate	-11.8358
▁admiring	-11.8358
▁inspire	-11.8358
▁Lake	-11.8364
▁#8	-11.8364
▁Beatrice	-11.8364
▁Craven	-11.8364
▁DUCHESS	-11.8364
▁bridegroom	-11.8364
▁exterior	-11.8364
▁shaggy	-11.8364
▁Already	-11.8364
▁apology	-11.8364
▁pausing	-11.8364
▁shrugged	-11.8364
▁glaring	-11.8364
▁lonesome	-11.8364
▁Elzbieta	-11.8364
▁whistling	-11.8364
▁Spring	-11.8365
▁Morgan	-11.8365
▁dependent	-11.8365
▁random	-11.8365
▁hull	-11.8369
▁vest	-11.837
▁shutting	-11.837
▁uncovered	-11.8373
ild	-11.8374
▁chattering	-11.8374
▁vineyards	-11.8374
▁earnestness	-11.8375
▁anticipated	-11.8375
lan	-11.8375
▁recommended	-11.8378
▁kicked	-11.838
▁leaders	-11.8383
▁comforts	-11.8383
▁yo	-11.8387
▁ph	-11.8391
▁prejudices	-11.8397
▁differently	-11.8398
▁goest	-11.8398
▁shun	-11.8406
▁finer	-11.8409
▁lacked	-11.8409
▁stocks	-11.8413
aph	-11.8416
▁channel	-11.8416
▁slack	-11.8417
▁expressing	-11.8417
ister	-11.8417
▁rust	-11.842
TER	-11.8424
▁wonderfully	-11.8427
▁63	-11.8427
▁brighter	-11.8434
phon	-11.8439
▁prolong	-11.8441
▁huts	-11.8445
ina	-11.8445
▁writes	-11.8448
▁assassin	-11.845
▁#6	-11.8452
▁Charlotta	-11.8452
▁ENOBARBUS	-11.8452
▁Society	-11.8452
▁campaign	-11.8452
▁connexion	-11.8452
▁merchandise	-11.8452
▁semblance	-11.8452
▁territory	-11.8452
▁3:4	-11.8452
▁imitation	-11.8452
▁noticing	-11.8452
▁Road	-11.8453
▁ambush	-11.8453
▁claws	-11.8453
▁72	-11.8453
▁Tillie	-11.8454
▁Lane	-11.8455
▁nightgown	-11.8455
▁88	-11.8456
▁Pardon	-11.8457
▁peered	-11.846
▁attentively	-11.846
▁humbled	-11.8463
▁Pye	-11.8466
▁swaying	-11.8467
path	-11.8471
▁aimed	-11.8477
▁Ru	-11.8478
▁keenly	-11.8479
▁moods	-11.848
▁Canaanites	-11.8484
▁blossom	-11.8485
nate	-11.8485
▁prejudice	-11.8486
▁mocking	-11.8488
▁76	-11.8491
▁weaker	-11.8497
▁bounded	-11.8498
▁personally	-11.85
▁backed	-11.8502
▁dined	-11.8502
▁palaces	-11.8504
▁shepherds	-11.8508
▁pirate	-11.8508
▁parable	-11.8508
▁traced	-11.8508
aged	-11.8509
▁dock	-11.8515
under	-11.8517
▁qua	-11.8521
▁crave	-11.8522
▁madly	-11.8523
▁shaped	-11.8524
▁Run	-11.8525
▁smoked	-11.8527
▁assert	-11.8527
▁duck	-11.8531
▁uncommon	-11.8533
▁starve	-11.8537
▁cleave	-11.8538
▁CASSIO	-11.854
▁Dromio	-11.854
▁ELIZABETH	-11.854
▁Lieutenant	-11.854
▁encouraging	-11.854
▁ministry	-11.854
▁repulsive	-11.854
▁superstitious	-11.854
▁truck	-11.854
▁Spearman	-11.854
▁matron	-11.854
▁depression	-11.854
▁Fairway	-11.854
▁spectre	-11.8541
▁MURDERER	-11.8541
▁fuel	-11.8541
▁bourgeoisie	-11.8541
▁culture	-11.8542
▁weariness	-11.8542
▁syllable	-11.8542
▁30:2	-11.8542
▁depressed	-11.8543
▁foreseen	-11.8543
▁Fire	-11.8543
▁Praise	-11.8543
▁transformed	-11.8546
▁detected	-11.8549
▁peering	-11.8549
▁heareth	-11.855
▁foolishness	-11.8559
▁revived	-11.8561
▁races	-11.8561
▁Fe	-11.8562
▁Attendants	-11.8563
▁singularly	-11.8563
▁winged	-11.8574
▁shores	-11.8577
▁link	-11.8589
▁Water	-11.8596
yet	-11.8603
▁sage	-11.8603
▁er	-11.8605
rim	-11.8608
▁bruise	-11.8609
Tom	-11.8618
except	-11.8618
▁renown	-11.8619
▁hush	-11.8619
log	-11.862
▁Mors	-11.8621
▁detain	-11.8622
▁gaunt	-11.8629
▁ARMADO	-11.8629
▁Glinda	-11.8629
▁Leonato	-11.8629
▁Simeon	-11.8629
▁Weatherstaff	-11.8629
▁behavior	-11.8629
▁haggard	-11.8629
▁manuscript	-11.8629
▁memorable	-11.8629
▁occurrence	-11.8629
▁secrecy	-11.8629
▁homage	-11.8629
▁Oxford	-11.8629
▁submission	-11.8629
▁Matai	-11.8629
▁volley	-11.8629
▁cling	-11.863
▁inspection	-11.863
▁basis	-11.863
▁rustling	-11.863
▁grating	-11.863
▁tray	-11.8633
▁desiring	-11.8634
▁Dian	-11.8634
▁annoyed	-11.8635
Her	-11.8635
eh	-11.8637
▁abundantly	-11.8637
▁barred	-11.8638
▁Opar	-11.8639
▁perched	-11.8639
▁boil	-11.8641
▁bowing	-11.8641
▁peeped	-11.8641
▁lowering	-11.8644
▁Janet	-11.8644
Bug	-11.8644
▁bully	-11.8648
▁dimensions	-11.8655
▁plump	-11.8659
▁brutes	-11.866
▁formation	-11.8661
▁expressly	-11.8663
,—“	-11.8664
▁Hail	-11.8666
▁discharged	-11.8669
▁shadowy	-11.8674
▁thorn	-11.8684
▁horde	-11.8687
▁fairer	-11.8688
▁embraced	-11.8688
▁beak	-11.87
▁Powers	-11.8705
▁proofs	-11.8705
▁outrage	-11.8705
After	-11.8708
▁habitual	-11.8712
coloured	-11.8712
▁games	-11.8715
▁Swede	-11.8716
▁CLARENCE	-11.8719
▁Dutch	-11.8719
▁Falstaff	-11.8719
▁Greece	-11.8719
▁HORATIO	-11.8719
▁Humphrey	-11.8719
▁Leblanc	-11.8719
▁Methinks	-11.8719
▁POMPEY	-11.8719
▁garrison	-11.8719
▁trivial	-11.8719
▁Mosiah	-11.8719
▁sperm	-11.8719
▁demonstration	-11.8719
▁1:6	-11.8719
▁2:5	-11.872
▁8:4	-11.872
▁astray	-11.872
▁echoes	-11.8723
▁helm	-11.8724
▁sown	-11.8727
▁gorge	-11.8727
▁briskly	-11.8727
▁firmness	-11.8734
▁cleansed	-11.8735
▁drifting	-11.8736
▁calmness	-11.8738
▁Bull	-11.8738
stra	-11.8739
▁Lily	-11.8739
▁Cast	-11.8739
▁liv	-11.8742
▁springing	-11.8743
rot	-11.8743
▁Angels	-11.8749
▁sous	-11.875
▁biting	-11.8752
bred	-11.8754
▁Didn	-11.8757
▁Tomorrow	-11.876
▁abhor	-11.8763
▁whoso	-11.8766
▁Bou	-11.8772
▁grate	-11.8775
van	-11.8775
▁sights	-11.8778
▁defect	-11.8779
▁association	-11.8779
▁snatch	-11.8785
▁emerge	-11.879
▁Tri	-11.8793
▁Es	-11.8793
▁gasp	-11.8799
Enter	-11.8799
▁impressive	-11.8804
▁steer	-11.8807
▁sect	-11.8807
▁Republic	-11.8807
▁negro	-11.8807
▁scar	-11.8809
fore	-11.881
▁Messenger	-11.881
▁APEMANTUS	-11.881
▁Cambridge	-11.881
▁luxurious	-11.881
▁opportunities	-11.881
▁sceptre	-11.881
▁submarine	-11.881
▁superfluous	-11.881
▁invalid	-11.881
▁isolated	-11.881
▁Morison	-11.881
▁loneliness	-11.881
▁pepper	-11.881
▁rapture	-11.8811
▁inference	-11.8811
▁10:4	-11.8811
▁sobbed	-11.8811
▁genial	-11.8811
cup	-11.8811
▁39	-11.8811
▁slipping	-11.8811
▁knit	-11.8811
▁labours	-11.8811
▁posture	-11.8812
▁troublesome	-11.8815
▁polluted	-11.8818
▁resigned	-11.882
▁imposed	-11.8827
▁cowardly	-11.8829
▁inherited	-11.8834
▁Ke	-11.8835
▁shelf	-11.8837
▁enveloped	-11.884
▁railing	-11.8843
▁fret	-11.8859
▁extract	-11.8862
▁hunters	-11.8866
▁institution	-11.8871
▁avenge	-11.8875
▁amends	-11.8878
▁peg	-11.8881
▁Thir	-11.8883
▁gaining	-11.8887
▁fasting	-11.8887
▁ringing	-11.889
load	-11.889
ses	-11.8891
▁escort	-11.8891
▁oblige	-11.8892
girl	-11.8894
ook	-11.8895
▁Sin	-11.89
▁traditions	-11.89
▁revive	-11.89
▁Chettam	-11.8902
▁clue	-11.8902
▁complicated	-11.8902
▁insolent	-11.8902
▁persecution	-11.8902
▁strode	-11.8902
▁Truth	-11.8902
▁brink	-11.8902
▁clapped	-11.8902
▁Samson	-11.8902
▁stale	-11.8902
▁Timon	-11.8903
▁exhibition	-11.8904
▁expressive	-11.8904
NE	-11.8904
▁attire	-11.8907
▁instinctively	-11.8907
▁clutched	-11.8907
▁adorned	-11.8909
▁evermore	-11.8911
▁settlement	-11.8915
UR	-11.8916
▁talks	-11.8921
▁Lead	-11.8925
▁reconciled	-11.8926
RY	-11.8927
▁groans	-11.893
▁conductor	-11.8931
▁shields	-11.8931
▁arched	-11.8932
▁kindle	-11.8933
▁Roger	-11.8935
▁possessions	-11.8938
▁HE	-11.8938
▁consist	-11.8942
▁haunt	-11.8942
▁beautifully	-11.8943
▁lu	-11.8945
atic	-11.8945
aunt	-11.8947
▁delayed	-11.8951
▁privileges	-11.8952
▁prim	-11.8952
▁woes	-11.8954
▁guides	-11.8954
▁beget	-11.8955
▁returns	-11.8956
seat	-11.8963
▁profess	-11.8968
▁uttering	-11.8968
grown	-11.8974
▁scourge	-11.8975
Please	-11.8983
uch	-11.8985
utter	-11.8989
▁mayst	-11.8989
▁Amelia	-11.8995
▁Bwana	-11.8995
▁Empire	-11.8995
▁Eternal	-11.8995
▁Stryver	-11.8995
▁elevation	-11.8995
▁merrily	-11.8995
▁needful	-11.8995
▁Garden	-11.8995
▁XIX	-11.8995
▁minor	-11.8995
▁imprisonment	-11.8995
▁Norfolk	-11.8995
▁sunrise	-11.8996
▁mature	-11.8996
▁36:1	-11.8997
▁groom	-11.8997
▁shattered	-11.8997
▁assertion	-11.8998
▁refined	-11.8999
tell	-11.9
▁frontier	-11.9001
▁vizir	-11.9001
▁overlooked	-11.9003
▁weren	-11.9004
▁que	-11.9006
▁ribs	-11.9007
any	-11.9009
▁deprived	-11.9009
▁tossing	-11.9009
▁cane	-11.901
▁scrape	-11.9021
▁Sure	-11.9023
▁41	-11.9023
▁hinted	-11.9025
▁wears	-11.9026
▁lid	-11.9028
VE	-11.9031
▁willow	-11.9033
▁Bid	-11.9037
▁shutters	-11.9044
▁satin	-11.9046
▁spending	-11.9055
bat	-11.9058
▁superstition	-11.9059
▁rabbit	-11.9059
▁Hebrew	-11.9059
▁survey	-11.9062
▁confine	-11.9064
▁mingle	-11.9068
▁dealing	-11.9069
▁usage	-11.907
▁yeh	-11.9071
▁therns	-11.9082
▁blocks	-11.9082
▁blinded	-11.9085
▁33	-11.9086
▁potent	-11.9086
▁artillery	-11.9086
▁Ajax	-11.9088
▁Ambrose	-11.9088
▁BEATRICE	-11.9088
▁Council	-11.9088
▁Eleanor	-11.9088
▁NURSE	-11.9088
▁Orleans	-11.9088
▁Saviour	-11.9088
▁Serpent	-11.9088
▁Thuran	-11.9088
▁epistle	-11.9088
▁telescope	-11.9088
▁monotonous	-11.9088
▁Nathan	-11.9088
▁transparent	-11.9088
▁heritage	-11.9088
▁Tibo	-11.9088
▁victorious	-11.9088
▁14:4	-11.9088
▁Yorkshire	-11.9089
▁sweetheart	-11.9089
▁uttermost	-11.9089
▁orange	-11.9089
▁School	-11.909
▁condemnation	-11.9091
▁friar	-11.9092
▁constrained	-11.9093
▁noiselessly	-11.9093
▁cash	-11.9093
own	-11.9094
▁suppressed	-11.9095
▁Kor	-11.9096
▁protector	-11.9098
▁partially	-11.9099
▁renowned	-11.9099
▁pat	-11.91
▁freed	-11.91
▁ensued	-11.9103
▁shrieked	-11.9104
▁w	-11.9107
▁insulted	-11.9108
▁mourned	-11.9112
while	-11.9115
▁journal	-11.9116
▁traitors	-11.9117
▁safer	-11.9119
▁honours	-11.9125
▁mainly	-11.9127
▁objected	-11.9129
▁recorded	-11.9132
▁interpret	-11.9147
ET	-11.9148
▁plum	-11.9151
▁ferns	-11.9152
▁synagogue	-11.9154
▁indulge	-11.9162
▁substitute	-11.9162
▁reduce	-11.9163
▁practise	-11.9163
True	-11.9171
TO	-11.9173
▁graces	-11.9173
▁litter	-11.9174
▁Pu	-11.9175
▁workman	-11.9175
▁cautious	-11.9177
▁Cupid	-11.9182
▁DEMETRIUS	-11.9182
▁Egdon	-11.9182
▁Governor	-11.9182
▁Lysander	-11.9182
▁Zadok	-11.9182
▁colossal	-11.9182
▁constable	-11.9182
▁eloquence	-11.9182
▁firmament	-11.9182
year	-11.9183
▁EVANS	-11.9183
▁reproof	-11.9183
▁uncertainty	-11.9184
▁unbroken	-11.9184
▁sirrah	-11.9185
▁nod	-11.9186
▁imposing	-11.9186
▁Gentlemen	-11.9189
▁irritated	-11.9189
▁Gi	-11.919
▁growl	-11.919
▁interposed	-11.9191
▁dusky	-11.9191
▁Haman	-11.9192
▁speechless	-11.9194
eb	-11.9195
▁taxes	-11.9197
Le	-11.9198
▁hood	-11.9199
▁lads	-11.9203
▁judgement	-11.9205
▁gen	-11.9207
▁vol	-11.921
▁hare	-11.921
▁deem	-11.9211
▁valued	-11.9211
ky	-11.9212
▁vowed	-11.9215
▁Mahars	-11.9216
▁journeyed	-11.9216
▁mum	-11.9217
▁curses	-11.9218
said	-11.9219
▁compel	-11.9221
▁misfortunes	-11.9221
▁obtaining	-11.9226
verse	-11.9229
▁Toby	-11.9234
▁reg	-11.9239
Nor	-11.924
▁dip	-11.9241
▁h	-11.9249
word	-11.9254
▁sh	-11.9254
▁plea	-11.9254
ume	-11.9256
▁cough	-11.9256
▁16:2	-11.9257
▁Bow	-11.9257
▁griefs	-11.9262
think	-11.9265
eous	-11.9266
▁hangs	-11.9266
▁drain	-11.9267
▁Cur	-11.9271
ality	-11.9274
▁Bel	-11.9274
▁farmers	-11.9274
▁ben	-11.9276
▁neutral	-11.9277
▁XXI	-11.9277
▁stumbling	-11.9278
▁Bianca	-11.9278
▁Hercules	-11.9278
▁Pimpernel	-11.9278
▁derision	-11.9278
▁illustrious	-11.9278
▁rubbish	-11.9278
▁Jonas	-11.9278
▁divorce	-11.9278
▁gallows	-11.9278
▁plunder	-11.9278
▁Thirteen	-11.9278
▁lilies	-11.9278
▁Flask	-11.9278
▁translation	-11.9278
▁blest	-11.9278
▁Except	-11.9278
▁allusion	-11.9278
▁7:5	-11.9278
▁purity	-11.9278
▁Whosoever	-11.9279
▁Jared	-11.9279
▁producing	-11.9279
▁22:3	-11.9279
▁21:3	-11.9279
▁Watch	-11.9279
▁assistant	-11.9279
hu	-11.9279
▁sovereignty	-11.9279
▁lever	-11.928
▁31:2	-11.928
press	-11.928
▁59	-11.9282
far	-11.9282
▁69	-11.9283
▁politeness	-11.9283
▁Often	-11.9284
▁sings	-11.9286
▁assigned	-11.9287
▁politely	-11.9292
▁boldness	-11.9294
▁sprinkled	-11.9295
Two	-11.9297
▁swelled	-11.9298
▁pap	-11.9306
▁nut	-11.9307
▁argued	-11.9307
▁comb	-11.9311
▁pretending	-11.9312
bout	-11.9313
▁wider	-11.9316
▁costly	-11.9318
▁traveling	-11.9319
▁effected	-11.9321
Stop	-11.9321
aries	-11.9323
▁fork	-11.9326
▁indicate	-11.9327
Th	-11.9329
zar	-11.9332
ising	-11.9336
ko	-11.9342
▁consul	-11.9343
nah	-11.9344
▁perch	-11.9346
▁document	-11.9348
▁statute	-11.9348
▁drug	-11.9351
▁mates	-11.9353
▁survive	-11.9354
▁puzzle	-11.9354
▁Brown	-11.9355
▁XX	-11.9358
▁wig	-11.9359
▁fatherless	-11.9363
▁discontent	-11.9363
▁perverse	-11.9364
From	-11.9366
▁watery	-11.9367
ode	-11.9368
▁Gra	-11.9369
▁keepeth	-11.937
▁fuss	-11.9371
▁fortress	-11.9372
▁unfit	-11.9372
▁scrap	-11.9373
▁major	-11.9373
▁disadvantage	-11.9373
▁China	-11.9373
▁BERTRAM	-11.9374
▁COUNTESS	-11.9374
▁Jehoiada	-11.9374
▁Scarlet	-11.9374
▁baptism	-11.9374
▁chivalry	-11.9374
▁emptied	-11.9374
▁gratified	-11.9374
▁nowadays	-11.9374
▁tumultuous	-11.9374
▁ungrateful	-11.9374
▁unlucky	-11.9374
▁wolves	-11.9374
▁Lestrade	-11.9374
▁enmity	-11.9374
▁nasty	-11.9374
▁squirrel	-11.9374
▁wigwam	-11.9374
▁aperture	-11.9374
▁menacing	-11.9374
▁scope	-11.9374
▁insane	-11.9374
▁thanksgiving	-11.9374
▁swine	-11.9374
▁urgent	-11.9374
▁leak	-11.9375
▁humorous	-11.9375
▁Qu	-11.9375
▁obliging	-11.9376
▁bur	-11.9377
zi	-11.9377
▁soothing	-11.9377
▁vanquished	-11.9377
▁packet	-11.9378
▁sideways	-11.9378
▁profitable	-11.9378
▁Victory	-11.938
▁balu	-11.938
▁pitcher	-11.938
▁jam	-11.938
igh	-11.9385
▁idleness	-11.9386
▁printing	-11.9394
▁trains	-11.9394
▁prompted	-11.9396
▁senseless	-11.9396
▁manager	-11.9401
ces	-11.9402
▁blushing	-11.9403
▁hailed	-11.9404
▁stormy	-11.9405
▁appearances	-11.9408
▁saluted	-11.9409
▁spin	-11.9416
ific	-11.9424
▁threats	-11.9428
▁sheer	-11.9428
▁manly	-11.9428
tres	-11.9434
▁Arch	-11.9437
▁Americans	-11.9438
▁speculation	-11.9445
▁Mor	-11.9447
▁sweetly	-11.9448
▁sk	-11.9454
aving	-11.9455
▁futile	-11.9464
▁victor	-11.9466
▁Int	-11.9468
0,000	-11.9471
▁Apollo	-11.9471
▁BASTARD	-11.9471
▁Lavinia	-11.9471
▁Prithee	-11.9471
▁Strelsau	-11.9471
▁consternation	-11.9471
▁emphasis	-11.9471
▁ephod	-11.9471
▁imperial	-11.9471
▁clause	-11.9471
▁fancies	-11.9471
▁slice	-11.9471
▁perchance	-11.9471
▁happiest	-11.9472
▁acceptance	-11.9473
▁stammered	-11.9474
▁discoveries	-11.9474
▁coachman	-11.9475
▁version	-11.9477
▁butler	-11.9477
▁deserving	-11.9477
▁endowed	-11.9478
▁dart	-11.9479
▁sewing	-11.948
rist	-11.948
▁hopeful	-11.9481
▁exit	-11.9482
dress	-11.9485
▁abound	-11.9485
▁befallen	-11.9486
▁attributed	-11.9489
▁inwardly	-11.9494
▁Close	-11.9495
▁respectful	-11.9495
▁Lost	-11.9495
▁esteemed	-11.9497
des	-11.95
▁seeketh	-11.95
▁bide	-11.9503
▁bough	-11.9518
py	-11.9521
—"	-11.9521
▁Contents	-11.9522
AS	-11.9527
▁IS	-11.9529
ache	-11.9535
▁logs	-11.9536
rel	-11.9537
ometer	-11.9539
▁philosopher	-11.9545
ica	-11.9547
case	-11.9547
▁tube	-11.9548
▁explore	-11.9549
▁despairing	-11.9551
▁raced	-11.9553
▁puts	-11.9553
asse	-11.9555
▁pang	-11.9564
▁motions	-11.9565
▁brightly	-11.9566
▁EDGAR	-11.9569
▁HOTSPUR	-11.9569
▁expanse	-11.9569
▁grammar	-11.9569
▁rattling	-11.9569
▁rhyme	-11.9569
▁veritable	-11.9569
▁voluntarily	-11.9569
▁Hermia	-11.9569
▁Bardolph	-11.9569
▁Kantos	-11.9569
▁1:7	-11.9569
▁subordinate	-11.9569
▁3:5	-11.9569
▁4:5	-11.9569
▁8:5	-11.9569
▁admission	-11.9569
▁heavier	-11.9569
▁13:4	-11.9569
Ye	-11.9569
▁muddy	-11.957
▁fourscore	-11.957
▁el	-11.957
▁32:2	-11.9571
▁35:1	-11.9572
▁overthrown	-11.9575
▁overheard	-11.9576
▁uncleanness	-11.9582
▁murderers	-11.9587
▁subdue	-11.9592
▁destroying	-11.9596
▁commonly	-11.9597
▁resisted	-11.9598
▁succeeding	-11.9601
▁respecting	-11.9605
▁glowed	-11.9607
▁trunks	-11.9608
▁res	-11.9608
▁pr	-11.9608
▁flashing	-11.9609
town	-11.9613
▁obstacles	-11.962
▁Ivar	-11.9621
▁surroundings	-11.9621
▁tour	-11.9625
▁relatives	-11.9628
ways	-11.963
▁palms	-11.9634
▁punch	-11.9635
▁3:2	-11.9636
sign	-11.9639
▁bullocks	-11.964
▁Servant	-11.9645
▁streaming	-11.9647
▁resume	-11.9648
sure	-11.9651
arian	-11.9657
▁Near	-11.9657
▁oldest	-11.9657
Hold	-11.9658
▁moves	-11.9658
▁reckless	-11.9658
▁Thanks	-11.9659
▁resign	-11.966
houses	-11.9668
▁Achilles	-11.9668
▁Assembly	-11.9668
▁Bassanio	-11.9668
▁COSTARD	-11.9668
▁Kincaid	-11.9668
▁Naphtali	-11.9668
▁Redmond	-11.9668
▁SEBASTIAN	-11.9668
▁Venus	-11.9668
▁choosing	-11.9668
▁faculty	-11.9668
▁impenetrable	-11.9668
▁judicial	-11.9668
▁phenomenon	-11.9668
▁ridicule	-11.9668
▁telephone	-11.9668
▁outstretched	-11.9668
▁fabric	-11.9668
▁aloof	-11.9668
▁2:6	-11.9668
▁5:6	-11.9668
▁dipped	-11.9668
▁correspondence	-11.9668
▁annoyance	-11.9668
▁flint	-11.9668
▁spray	-11.9668
▁Stop	-11.9669
▁Frederick	-11.9669
▁vase	-11.967
▁refreshment	-11.9671
▁clambered	-11.9671
▁BA	-11.9672
▁Hare	-11.9673
▁alongside	-11.9673
▁familiarity	-11.9674
▁preceded	-11.9678
list	-11.9678
▁anti	-11.9679
▁doe	-11.968
None	-11.9682
aught	-11.9688
▁mistakes	-11.9689
▁Lie	-11.9689
▁reflecting	-11.9691
▁Sandy	-11.9691
▁duly	-11.9692
▁mightily	-11.9693
▁Bu	-11.9694
▁ON	-11.9696
▁frowning	-11.9696
▁whispers	-11.9697
▁thickness	-11.9697
▁rites	-11.97
▁enthusiastic	-11.9701
▁pleading	-11.9702
▁recovering	-11.9703
▁speedy	-11.9706
▁Head	-11.9706
▁expectations	-11.9716
▁80	-11.9718
▁portions	-11.972
▁71	-11.9724
cock	-11.9726
▁chronicles	-11.9729
mark	-11.9733
(	-11.9734
▁precautions	-11.9736
▁fenced	-11.9739
▁delights	-11.9739
▁Az	-11.9743
▁ticket	-11.9746
▁goal	-11.9748
▁lowly	-11.9748
▁rustic	-11.9748
▁vainly	-11.9755
▁scowl	-11.9756
Lord	-11.9757
▁herb	-11.9758
▁heights	-11.9759
▁Big	-11.9761
▁withstand	-11.9765
▁chaste	-11.9765
lation	-11.9765
▁respective	-11.9766
▁Blanc	-11.9766
▁bullets	-11.9767
▁CAPULET	-11.9768
▁Rehoboam	-11.9768
▁Strong	-11.9768
▁advocate	-11.9768
▁cathedral	-11.9768
▁charitable	-11.9768
▁episode	-11.9768
▁ferocity	-11.9768
▁heretofore	-11.9768
▁insensible	-11.9768
▁profile	-11.9768
▁refusal	-11.9768
▁scoundrel	-11.9768
▁shabby	-11.9768
▁succor	-11.9768
▁uncanny	-11.9768
▁animation	-11.9768
▁commotion	-11.9768
▁mellow	-11.9768
▁necklace	-11.9768
▁Mouse	-11.9768
▁consistent	-11.9768
▁Izz	-11.9768
▁removal	-11.9768
hur	-11.9769
▁editor	-11.9769
▁eastern	-11.9769
▁Candy	-11.9769
▁racing	-11.977
▁Immediately	-11.977
▁favorable	-11.9772
▁incessantly	-11.9774
▁latch	-11.9774
▁muttering	-11.9774
▁enlightened	-11.9775
▁discouraged	-11.9776
▁interpreted	-11.9779
▁namely	-11.9779
▁asserted	-11.978
▁chop	-11.9786
▁folding	-11.9787
▁flute	-11.9788
▁constituted	-11.9789
▁rout	-11.9789
▁adored	-11.9791
stones	-11.9799
▁handled	-11.98
▁lighting	-11.9804
▁bids	-11.981
▁blamed	-11.981
rew	-11.9812
legged	-11.9813
laid	-11.9817
arm	-11.9818
join	-11.982
▁sighing	-11.9836
▁hardness	-11.9841
lah	-11.9846
▁constitute	-11.9849
▁Beside	-11.9852
mic	-11.9852
▁robber	-11.9855
▁roofs	-11.9856
class	-11.9858
▁compound	-11.9858
▁ministered	-11.9858
▁sets	-11.9861
▁courageous	-11.9866
▁dairy	-11.9867
ement	-11.9868
▁circuit	-11.9868
▁19:119:0	-11.9869
▁Abbey	-11.9869
▁Gibeah	-11.9869
▁LAFEW	-11.9869
▁Mexican	-11.9869
▁Pyramus	-11.9869
▁Ratignolle	-11.9869
▁fascination	-11.9869
▁sensibility	-11.9869
▁subterranean	-11.9869
▁accommodation	-11.9869
▁keel	-11.9869
▁ruddy	-11.9869
▁Priest	-11.9869
▁idly	-11.9869
▁orchestra	-11.9869
▁Pepper	-11.9869
▁skies	-11.987
▁zealous	-11.987
▁expensive	-11.987
▁gust	-11.9873
▁Kala	-11.9875
▁Johnson	-11.9876
▁lily	-11.9877
too	-11.9878
▁naughty	-11.9879
▁Point	-11.9881
unt	-11.9893
▁Bob	-11.9895
▁curved	-11.9899
▁Whence	-11.99
used	-11.9901
▁der	-11.9905
illa	-11.9906
▁hatch	-11.9911
▁fixing	-11.9914
▁offers	-11.9919
▁HIS	-11.9919
cou	-11.9921
▁lifeless	-11.9922
ori	-11.9923
▁reeds	-11.9927
▁tortured	-11.9929
gar	-11.9931
▁nicely	-11.9932
▁li	-11.9936
▁jo	-11.9937
▁taper	-11.994
being	-11.9942
▁explaining	-11.9949
▁precipice	-11.9951
shu	-11.9952
▁sickly	-11.9953
▁cubit	-11.9953
▁twin	-11.996
iron	-11.9961
▁tub	-11.9962
▁elaborate	-11.9964
LY	-11.9965
ith	-11.9968
▁excepting	-11.9968
▁musing	-11.997
▁Abdul	-11.9971
▁Azariah	-11.9971
▁Isaiah	-11.9971
▁Notwithstanding	-11.9971
▁Pellucidar	-11.9971
▁boulevard	-11.9971
▁cherub	-11.9971
▁circling	-11.9971
▁commercial	-11.9971
▁injuries	-11.9971
▁pavilion	-11.9971
▁receipt	-11.9971
▁sample	-11.9971
▁kitten	-11.9971
▁afeard	-11.9971
▁Joash	-11.9971
▁meteor	-11.9972
▁fasten	-11.9973
▁midday	-11.9973
▁hawk	-11.9973
▁cups	-11.9974
▁sheath	-11.9974
▁achievement	-11.9976
▁Jacques	-11.9977
▁implored	-11.9983
▁shivered	-11.9987
▁pipes	-11.9987
▁pail	-11.9988
▁achieved	-11.999
▁practised	-11.9993
▁projected	-11.9993
▁complained	-11.9995
▁breeding	-11.9996
▁projecting	-11.9996
▁defeated	-11.9996
▁pangs	-11.9996
▁Mal	-11.9997
▁Soft	-11.9999
lip	-12
▁Ri	-12.0003
▁cloudy	-12.0004
▁snowy	-12.0009
still	-12.001
▁bathed	-12.001
▁Et	-12.0022
▁schools	-12.0027
▁meadows	-12.0034
▁90	-12.0036
dest	-12.0037
▁selling	-12.0042
▁arena	-12.005
▁watchful	-12.0054
▁dictate	-12.0054
▁attach	-12.0057
doctor	-12.0063
▁forfeit	-12.0063
▁affirm	-12.0065
▁pun	-12.0065
ATE	-12.0066
▁hesitating	-12.0067
bridge	-12.0069
▁Hope	-12.0073
▁confer	-12.0074
▁ale	-12.0074
▁Bolingbroke	-12.0074
▁Cyprus	-12.0074
▁Launcelot	-12.0074
▁Lucentio	-12.0074
▁PUBLIUS	-12.0074
▁Philadelphia	-12.0074
▁Saffir	-12.0074
▁Somerset	-12.0074
▁bungalow	-12.0074
▁equivalent	-12.0074
▁ivy	-12.0074
▁kettle	-12.0074
▁languish	-12.0074
▁precision	-12.0074
▁swoon	-12.0074
▁tumbling	-12.0074
▁uncircumcised	-12.0074
▁Blythe	-12.0074
▁Trust	-12.0074
▁yeoman	-12.0074
▁grudge	-12.0074
▁6:6	-12.0074
▁exultation	-12.0074
▁Jesse	-12.0074
▁Portia	-12.0075
▁mockery	-12.0075
▁XXII	-12.0075
▁Play	-12.0076
▁curate	-12.0076
▁announcement	-12.0076
▁fray	-12.0077
▁decorated	-12.0077
▁removing	-12.0078
▁imprisoned	-12.0078
▁effectually	-12.0081
▁portal	-12.0081
▁Abel	-12.0084
▁vail	-12.0084
▁surveyed	-12.0086
▁natures	-12.0086
▁chide	-12.0086
▁Seek	-12.009
▁noblest	-12.0091
St	-12.0094
▁thereto	-12.0107
▁sternly	-12.0108
▁jumping	-12.011
▁assign	-12.0118
▁Live	-12.013
▁lasting	-12.0131
▁Abi	-12.0135
▁hissing	-12.0137
▁cruelly	-12.0137
▁Crow	-12.0138
▁Zo	-12.0139
▁awfully	-12.0142
.—“	-12.0145
▁corpses	-12.0149
▁gird	-12.015
▁joining	-12.0156
ray	-12.0156
▁tense	-12.0157
▁stays	-12.0157
▁vein	-12.0162
▁fi	-12.0163
▁lumber	-12.0166
cept	-12.0168
▁differ	-12.0171
▁indistinct	-12.0171
found	-12.0175
▁wasting	-12.0176
▁discord	-12.0178
tempered	-12.0178
▁Suffolk	-12.0178
▁Twice	-12.0178
▁barbarous	-12.0178
▁bronze	-12.0178
▁confederate	-12.0178
▁deliberation	-12.0178
▁festival	-12.0178
▁glorify	-12.0178
▁leprosy	-12.0178
▁miraculous	-12.0178
▁premises	-12.0178
▁uplifted	-12.0178
ABLE	-12.0178
▁whereabouts	-12.0178
▁Helaman	-12.0179
▁Spain	-12.0179
▁pork	-12.0179
▁Common	-12.0179
▁regards	-12.0179
▁Deep	-12.0179
▁accordance	-12.0179
▁glimpses	-12.0179
▁34:2	-12.018
▁drunkard	-12.018
▁beckoned	-12.018
▁landlady	-12.018
▁38:1	-12.0182
▁Quickly	-12.0184
▁relaxed	-12.0185
▁scenery	-12.0185
▁drawers	-12.0186
▁spotted	-12.0186
▁Mad	-12.0188
▁disclosed	-12.0188
▁crude	-12.0189
hook	-12.019
▁Whenever	-12.019
▁fashioned	-12.0191
▁columns	-12.0192
▁Noble	-12.0193
▁rises	-12.0194
▁scratched	-12.0195
bel	-12.0196
▁neatly	-12.0196
▁endeavouring	-12.0201
▁poll	-12.0204
▁groaning	-12.0204
▁serpents	-12.0205
▁Sho	-12.0206
▁profoundly	-12.0209
▁needless	-12.0214
▁erected	-12.0214
phe	-12.0216
▁languages	-12.0216
▁Den	-12.0218
▁attacks	-12.0218
ui	-12.0219
▁travels	-12.0222
▁accents	-12.0225
▁dances	-12.0226
▁Read	-12.0228
ography	-12.0229
▁Sundays	-12.0232
▁counsels	-12.0234
▁puff	-12.0244
▁hints	-12.0252
▁worms	-12.0256
▁loath	-12.0257
▁nun	-12.0257
rating	-12.026
▁Bal	-12.0261
▁Fo	-12.0262
stick	-12.0262
▁ordinance	-12.0267
▁Strange	-12.0268
▁brace	-12.0269
▁93	-12.0271
Exactly	-12.0272
Pray	-12.0273
▁corps	-12.0276
▁excessive	-12.0277
▁cured	-12.0279
▁spurn	-12.0279
▁ce	-12.0279
▁insects	-12.0279
▁prospects	-12.0281
pers	-12.0281
▁extinct	-12.0283
rack	-12.0283
▁Beneath	-12.0284
▁Bethlehem	-12.0284
▁Cuthbert	-12.0284
▁adequate	-12.0284
▁indispensable	-12.0284
▁mortification	-12.0284
▁prairie	-12.0284
▁scaffold	-12.0284
▁diameter	-12.0284
▁overtook	-12.0284
▁nightmare	-12.0284
▁9:5	-12.0284
▁Oscar	-12.0284
▁parrot	-12.0284
▁Sinai	-12.0284
▁inspiration	-12.0284
▁PART	-12.0284
▁Deliver	-12.0284
▁breastplate	-12.0284
▁destitute	-12.0284
▁forsook	-12.0284
▁Cross	-12.0285
▁gentlewoman	-12.0285
▁transaction	-12.0285
▁choking	-12.0285
▁subjected	-12.0287
▁curls	-12.0287
▁reasoned	-12.0287
▁lair	-12.0288
▁stack	-12.0288
▁Zat	-12.0288
▁Dead	-12.0292
▁monarchy	-12.0292
▁flattery	-12.0292
▁indignantly	-12.0293
▁forcing	-12.0294
▁panted	-12.0295
▁sums	-12.0296
▁crawling	-12.0299
▁influences	-12.0299
▁madman	-12.0302
▁surety	-12.0302
▁sling	-12.0303
▁Hart	-12.0308
leave	-12.031
▁proves	-12.031
▁blindness	-12.0311
▁victuals	-12.0312
Sp	-12.0312
▁divisions	-12.0316
over	-12.032
UL	-12.0322
▁va	-12.0322
▁retreating	-12.0325
shed	-12.0327
west	-12.0328
▁finishing	-12.0329
▁doubled	-12.033
vert	-12.0334
▁African	-12.0335
▁Mountains	-12.0337
wind	-12.0337
▁usurp	-12.0342
▁sane	-12.0346
▁enforce	-12.0348
▁seeds	-12.0357
pence	-12.036
▁attribute	-12.0361
▁nameless	-12.0366
▁exclaim	-12.0368
▁chatter	-12.0368
▁persecute	-12.037
▁contemplate	-12.037
▁gallop	-12.037
▁involve	-12.037
▁fugitive	-12.0374
Those	-12.0379
without	-12.038
▁Find	-12.038
▁contention	-12.0381
▁buttons	-12.0382
shire	-12.0382
▁rib	-12.0386
▁orb	-12.0386
▁eminent	-12.0386
▁Turk	-12.039
▁Baltimore	-12.039
▁Capulet	-12.039
▁Driscoll	-12.039
▁Lancaster	-12.039
▁Wessner	-12.039
▁cavalry	-12.039
▁license	-12.039
▁pacing	-12.039
▁granite	-12.039
▁tuft	-12.039
▁jack	-12.039
▁Plain	-12.039
▁misgiving	-12.039
▁steamboat	-12.039
▁Muda	-12.039
▁unbelief	-12.0391
▁mice	-12.0391
▁strap	-12.0391
▁approval	-12.0391
nhead	-12.0391
▁33:2	-12.0392
▁faltered	-12.0392
▁skip	-12.0392
▁contradiction	-12.0393
▁40:1	-12.0393
▁coral	-12.0393
▁daybreak	-12.0393
▁causing	-12.0393
▁courtier	-12.0396
▁Ti	-12.0398
▁Fool	-12.0398
▁fashionable	-12.0399
▁unfolded	-12.04
▁shells	-12.04
▁inflicted	-12.04
▁diseases	-12.0401
▁transgressed	-12.0404
▁maidens	-12.0405
▁panel	-12.0406
▁nobly	-12.0407
▁swayed	-12.0407
▁successfully	-12.0408
▁rely	-12.0408
▁groves	-12.0409
▁pill	-12.0412
▁jug	-12.042
▁devised	-12.0423
▁peasants	-12.0428
▁chip	-12.0429
die	-12.043
▁specially	-12.0431
heads	-12.0431
▁nets	-12.0434
thought	-12.0434
▁cheered	-12.0435
▁garb	-12.0437
▁widows	-12.0438
▁abused	-12.0439
▁eyed	-12.0441
▁gar	-12.0443
▁fl	-12.0445
bone	-12.0445
▁pins	-12.0456
ouch	-12.0456
▁1:2	-12.0462
tent	-12.0463
▁AT	-12.0465
pole	-12.0468
bon	-12.0471
▁pleases	-12.0474
▁linger	-12.0476
▁lash	-12.0477
▁25:1	-12.0478
▁possessing	-12.0479
bound	-12.0483
▁muscle	-12.0483
chamber	-12.0484
▁surrender	-12.0487
▁roast	-12.0487
▁fewer	-12.0487
▁significant	-12.049
▁diligent	-12.049
▁hound	-12.049
▁musician	-12.0492
▁75	-12.0494
▁telegraph	-12.0497
▁MOTH	-12.0497
▁Awake	-12.0497
▁Confederation	-12.0497
▁HASTINGS	-12.0497
▁WOLSEY	-12.0497
▁perceptible	-12.0497
▁resembling	-12.0497
▁treasury	-12.0497
▁velocity	-12.0497
▁fisherman	-12.0497
▁giddy	-12.0498
▁Harville	-12.0498
▁Titus	-12.0498
▁Zebulun	-12.0498
▁napkin	-12.0498
▁moisture	-12.0498
▁rebelled	-12.0498
▁icy	-12.0499
▁Happy	-12.0499
▁Brian	-12.0499
▁26:3	-12.0499
▁magnified	-12.05
▁handwriting	-12.05
▁mounting	-12.05
▁urging	-12.0501
▁enraged	-12.0501
▁denial	-12.0502
▁Afterward	-12.0504
▁snarling	-12.0507
▁reasonably	-12.0507
▁alighted	-12.0507
▁mal	-12.0509
▁recovery	-12.0511
▁awaken	-12.0514
▁ci	-12.0514
sail	-12.0514
ique	-12.0517
▁Pat	-12.0517
▁scant	-12.052
▁tormented	-12.052
▁Helena	-12.052
▁Ball	-12.0521
▁Par	-12.0523
▁Maker	-12.0525
▁states	-12.0528
▁Ts	-12.0531
▁contrive	-12.0533
▁engines	-12.0533
▁burying	-12.0534
▁pots	-12.0539
rin	-12.0542
▁grasping	-12.0543
▁topic	-12.0544
half	-12.0544
court	-12.0549
▁purposed	-12.0551
▁nobler	-12.0553
▁novels	-12.0559
▁floods	-12.0561
▁sentimental	-12.0561
▁trusting	-12.0562
▁corridors	-12.0567
▁1:1	-12.0568
▁joys	-12.0569
ological	-12.0572
stained	-12.0574
ough	-12.0574
▁darker	-12.0576
away	-12.0576
▁designs	-12.0578
ech	-12.058
▁vices	-12.0581
▁twist	-12.0584
▁spoils	-12.0586
▁ST	-12.0586
▁welcomed	-12.0586
play	-12.0591
▁regulation	-12.0593
▁carcase	-12.0593
▁bored	-12.0593
▁Cal	-12.0594
▁detect	-12.0594
people	-12.0595
▁apprehend	-12.0596
▁shrieks	-12.0597
▁sakes	-12.0597
▁courteous	-12.06
▁Port	-12.06
▁fables	-12.0604
▁Kill	-12.0604
▁Sleep	-12.0604
▁Vicar	-12.0606
▁Gibeon	-12.0606
▁Hopkins	-12.0606
▁NORTHUMBERLAND	-12.0606
▁PROVOST	-12.0606
▁Petruchio	-12.0606
▁Ridley	-12.0606
▁TRANIO	-12.0606
▁Washington	-12.0606
▁cherry	-12.0606
▁clown	-12.0606
▁describing	-12.0606
▁felicity	-12.0606
▁hovel	-12.0606
▁imminent	-12.0606
▁impediment	-12.0606
▁melody	-12.0606
▁residue	-12.0606
▁shrubbery	-12.0606
▁tarried	-12.0606
▁humming	-12.0606
▁oblation	-12.0606
▁sitteth	-12.0606
▁tattered	-12.0606
▁excellence	-12.0606
▁noisy	-12.0606
▁grinned	-12.0606
▁digged	-12.0607
▁snug	-12.0607
▁uppermost	-12.0607
▁dependence	-12.0607
▁spoor	-12.0607
▁derive	-12.0607
▁candidate	-12.0608
▁chieftain	-12.0608
▁treaties	-12.0608
▁huddled	-12.0608
▁Wales	-12.0609
▁58	-12.0609
▁devote	-12.061
▁handling	-12.061
▁CON	-12.061
▁Ahaz	-12.061
▁undo	-12.0611
▁encamped	-12.0612
▁correction	-12.0612
▁oppressor	-12.0614
▁morals	-12.0615
▁cushions	-12.0616
▁Randalls	-12.0619
▁boiled	-12.0619
▁Subject	-12.0621
▁historical	-12.0621
▁associated	-12.0623
▁Isle	-12.0623
▁deceitful	-12.0623
▁screams	-12.0623
▁Toward	-12.0623
▁worketh	-12.0624
▁shaded	-12.0625
▁perils	-12.0627
▁extending	-12.063
▁ja	-12.0631
▁blameless	-12.0631
▁Theseus	-12.0631
▁Toto	-12.0632
▁departments	-12.0634
▁Turning	-12.0637
▁procured	-12.0637
▁rained	-12.064
▁defects	-12.0644
▁hag	-12.0653
ville	-12.0655
face	-12.0657
using	-12.0657
▁regal	-12.0657
▁headed	-12.0659
▁publication	-12.066
▁85	-12.0661
Po	-12.0666
▁grind	-12.0668
▁silvery	-12.0677
▁orator	-12.0677
▁94	-12.0678
▁coloured	-12.0682
▁YOU	-12.0682
stead	-12.0686
▁pant	-12.0686
▁rendering	-12.0687
dan	-12.0688
rag	-12.0688
▁cottages	-12.0691
▁inflict	-12.0694
▁sprinkle	-12.0696
▁Home	-12.0698
▁paced	-12.0699
▁villains	-12.0701
▁deposit	-12.0703
▁menace	-12.0705
John	-12.0705
Nobody	-12.0705
Mother	-12.0707
Every	-12.0707
▁shroud	-12.0707
▁stab	-12.0712
▁Hugh	-12.0713
▁Vale	-12.0714
▁largely	-12.0714
▁bribe	-12.0715
▁WITH	-12.0716
▁Creator	-12.0716
▁Ephesus	-12.0716
▁THERSITES	-12.0716
▁affront	-12.0716
▁asylum	-12.0716
▁cemetery	-12.0716
▁conspiracy	-12.0716
▁freight	-12.0716
▁horrified	-12.0716
▁irritation	-12.0716
▁judiciary	-12.0716
▁magnitude	-12.0716
▁merciless	-12.0716
▁nimble	-12.0716
▁peradventure	-12.0716
▁1:9	-12.0716
▁1:8	-12.0716
▁perforce	-12.0716
▁hark	-12.0717
▁doctors	-12.0717
▁Campbell	-12.0717
▁requite	-12.0717
▁newcomer	-12.0717
▁Barton	-12.0717
▁Tellson	-12.0718
▁Newson	-12.0719
▁charging	-12.0719
▁Van	-12.072
▁BY	-12.072
▁Tra	-12.0722
▁dung	-12.0722
▁dar	-12.0723
▁accidentally	-12.0723
▁toilet	-12.0724
▁67	-12.0724
▁[1]	-12.0724
▁cultivated	-12.0726
▁sooth	-12.0726
▁besieged	-12.0727
mast	-12.0729
▁professed	-12.0729
▁Judea	-12.0736
▁rick	-12.0737
▁flattered	-12.0738
▁representing	-12.0738
▁corrupted	-12.074
▁unusually	-12.074
▁healing	-12.0742
▁handy	-12.0742
▁shines	-12.0742
▁Cole	-12.075
▁glared	-12.0751
!)	-12.0752
every	-12.0757
▁bass	-12.0757
▁titles	-12.0758
▁sim	-12.076
▁sweeter	-12.0767
crib	-12.0773
ANT	-12.0775
urn	-12.0779
▁Heise	-12.0781
▁tumble	-12.0782
▁DO	-12.0782
▁whoredoms	-12.0783
twill	-12.0783
▁bared	-12.0793
▁ste	-12.0794
▁Rest	-12.0794
▁isle	-12.0794
▁paddle	-12.0796
open	-12.0797
ended	-12.0799
▁exhibit	-12.0803
▁chart	-12.0805
▁hurl	-12.0808
▁pictured	-12.081
▁Vas	-12.0814
▁clatter	-12.0815
▁tow	-12.0815
▁illusion	-12.0816
▁monk	-12.0816
▁despatch	-12.0817
▁legend	-12.0817
▁indication	-12.0817
▁widely	-12.0817
▁Pass	-12.0818
▁Pur	-12.0818
Such	-12.0818
▁clo	-12.0819
▁cushion	-12.082
▁decisive	-12.082
▁exclusive	-12.082
▁comparative	-12.082
▁Tree	-12.0821
ATION	-12.0821
rah	-12.0822
▁examples	-12.0823
▁pits	-12.0824
▁prior	-12.0827
▁Midian	-12.0827
▁Bedford	-12.0827
▁FRIAR	-12.0827
▁Frizinghall	-12.0827
▁Pontmercy	-12.0827
▁Zerkow	-12.0827
▁climate	-12.0827
▁crucified	-12.0827
▁elegance	-12.0827
▁inevitably	-12.0827
▁presumption	-12.0827
▁quarry	-12.0827
▁twinkling	-12.0827
▁Ladies	-12.0827
▁fornication	-12.0827
▁competent	-12.0827
▁morbid	-12.0827
▁Flatland	-12.0827
▁discomfort	-12.0827
▁Irving	-12.0827
▁fortitude	-12.0827
▁Meantime	-12.0827
▁livid	-12.0828
▁Round	-12.0828
▁Aleck	-12.0828
▁duration	-12.0828
▁Person	-12.0828
▁Said	-12.0828
▁sixpence	-12.0829
▁squares	-12.0829
▁quitting	-12.0829
ox	-12.0829
▁lioness	-12.083
▁detached	-12.083
▁greedy	-12.083
▁bias	-12.0831
▁shekel	-12.0831
▁embroidered	-12.0831
▁1:10	-12.0832
▁gilded	-12.0833
▁heroes	-12.0834
▁bravery	-12.0834
▁tucked	-12.0837
▁brooding	-12.0838
▁leafy	-12.084
▁awakening	-12.0842
▁launched	-12.0842
▁passionately	-12.0842
Lo	-12.0843
▁hopelessly	-12.0844
▁charges	-12.0846
▁collecting	-12.0847
▁serves	-12.0852
▁hog	-12.0855
▁receiveth	-12.0858
▁devilish	-12.0861
▁cheat	-12.0868
▁dusty	-12.0872
▁team	-12.0876
▁pu	-12.0878
▁daytime	-12.088
▁resemble	-12.0882
▁gavest	-12.0885
▁oftener	-12.0885
▁baron	-12.0887
▁tu	-12.0888
eur	-12.0889
▁incur	-12.0889
▁conclusions	-12.0891
une	-12.0896
▁Nantucket	-12.0896
▁soap	-12.0899
mut	-12.09
stairs	-12.09
▁Ham	-12.0902
▁diet	-12.0904
▁isles	-12.0908
▁enlarge	-12.0917
▁anoint	-12.0917
▁possesses	-12.0924
▁imperfect	-12.0927
▁wring	-12.0928
Alas	-12.0928
▁tastes	-12.093
▁effectual	-12.0932
▁earl	-12.0935
▁jar	-12.0936
▁Friend	-12.0936
▁04:007:0	-12.094
▁cannibal	-12.094
▁Bellingham	-12.094
▁Duchess	-12.094
▁ESCALUS	-12.094
▁Gillis	-12.094
▁MARIA	-12.094
▁Mexico	-12.094
▁Northumberland	-12.094
▁Parliament	-12.094
▁Salisbury	-12.094
▁baggage	-12.094
▁bristling	-12.094
▁client	-12.094
▁gliding	-12.094
▁hysterical	-12.094
▁infamy	-12.094
▁reconciliation	-12.094
▁tribunal	-12.094
▁HOSTESS	-12.094
▁BOYET	-12.094
▁gaiety	-12.094
▁rural	-12.094
▁7:6	-12.094
▁stony	-12.094
▁Divine	-12.094
▁butterflies	-12.094
Nonsense	-12.094
▁seer	-12.094
▁settling	-12.094
▁Thistle	-12.094
▁gripped	-12.094
▁Hotel	-12.094
▁Patty	-12.094
▁warfare	-12.094
▁miseries	-12.094
▁tropical	-12.094
▁Francisco	-12.094
▁Kung	-12.0941
▁Straight	-12.0941
▁daresay	-12.0941
▁rifles	-12.0942
▁potter	-12.0943
▁circumcised	-12.0943
▁civility	-12.0943
▁planning	-12.0943
▁beads	-12.0944
▁graveyard	-12.0944
▁nightfall	-12.0947
▁assailed	-12.0947
▁equality	-12.095
▁scrambled	-12.0953
▁web	-12.0954
▁backwards	-12.0955
▁Quite	-12.0956
▁Rather	-12.0957
▁governed	-12.0958
▁dismayed	-12.0959
▁china	-12.0962
▁Asher	-12.0964
▁dump	-12.0966
▁starved	-12.0967
footed	-12.0967
tide	-12.0969
▁manifested	-12.0975
hard	-12.0976
hot	-12.0977
▁outcome	-12.098
▁Add	-12.0986
non	-12.0986
▁Ce	-12.0987
▁charmed	-12.0989
▁watches	-12.0991
▁wisest	-12.0994
▁Sa	-12.0999
unch	-12.1006
▁farr	-12.1014
▁quicker	-12.1017
▁caring	-12.102
▁stagger	-12.1031
▁caves	-12.1031
▁compromise	-12.1033
▁injure	-12.1033
▁Cry	-12.1036
▁contradict	-12.1037
▁resulted	-12.1041
Surely	-12.1047
iled	-12.1047
▁lied	-12.1051
▁vigor	-12.1053
▁Honour	-12.1053
hic	-12.1053
▁ANDREW	-12.1053
▁Combeferre	-12.1053
▁Issachar	-12.1053
▁MALVOLIO	-12.1053
▁Mabeuf	-12.1053
▁Montparnasse	-12.1053
▁brilliancy	-12.1053
▁companies	-12.1053
▁economy	-12.1053
▁implied	-12.1053
▁mischievous	-12.1053
▁ointment	-12.1053
▁perspiration	-12.1053
▁remonstrance	-12.1053
▁smack	-12.1053
▁swollen	-12.1053
▁tribulation	-12.1053
▁unspeakable	-12.1053
▁prahu	-12.1053
▁heaviness	-12.1053
▁miserably	-12.1053
▁Evidently	-12.1054
▁Sy	-12.1054
▁musket	-12.1054
▁tank	-12.1054
▁arranging	-12.1054
▁whiskers	-12.1055
▁clutches	-12.1055
▁27:3	-12.1055
▁declaring	-12.1056
▁Joan	-12.1056
▁overhanging	-12.1056
▁1:11	-12.1057
▁entangled	-12.1058
▁adapted	-12.1059
▁overcame	-12.1059
▁straightened	-12.106
▁varying	-12.106
▁FOR	-12.1062
▁overlaid	-12.1064
▁puffed	-12.1065
▁mole	-12.1065
▁overcoat	-12.107
▁recollected	-12.1072
▁dame	-12.1074
ace	-12.1077
▁indifferently	-12.1078
▁budge	-12.108
▁seeks	-12.108
▁dashing	-12.108
▁toucheth	-12.1082
▁remaineth	-12.1083
▁governors	-12.1084
▁chink	-12.1089
IST	-12.109
▁evenings	-12.1093
▁dwellings	-12.1094
▁Pau	-12.1098
▁dares	-12.1099
▁binding	-12.1099
60	-12.11
▁lawyers	-12.1109
▁recess	-12.1113
▁Ai	-12.1113
▁exertions	-12.1127
▁precepts	-12.1134
▁4.	-12.1134
▁Cho	-12.1136
▁diminish	-12.1146
▁whirl	-12.1146
▁clasp	-12.1147
folk	-12.1156
▁physic	-12.1165
▁SENATOR	-12.1166
▁chant	-12.1168
▁rap	-12.1168
▁architect	-12.1168
▁Capitol	-12.1168
▁POLONIUS	-12.1168
▁Representatives	-12.1168
▁benevolent	-12.1168
▁dizzy	-12.1168
▁essence	-12.1168
▁identical	-12.1168
▁imperious	-12.1168
▁inexplicable	-12.1168
▁schooner	-12.1168
▁Astok	-12.1168
▁Gilgal	-12.1168
▁glistening	-12.1168
▁Judaea	-12.1168
▁oven	-12.1168
▁crisp	-12.1168
▁continuance	-12.1168
▁Coude	-12.1168
▁squatted	-12.1168
▁shady	-12.1168
▁Ariel	-12.1168
▁ponderous	-12.1168
string	-12.1169
▁furze	-12.1169
▁dotted	-12.1169
▁17:3	-12.1169
▁passeth	-12.1169
▁Sabor	-12.1169
▁lark	-12.117
▁Reverend	-12.117
▁Thine	-12.117
▁relentless	-12.1171
▁penance	-12.1171
▁measuring	-12.1172
▁tutor	-12.1172
ire	-12.1172
▁Honor	-12.1172
▁factory	-12.1173
▁peculiarity	-12.1175
▁torches	-12.1175
▁Early	-12.1177
▁invested	-12.1177
▁infer	-12.1177
▁thereupon	-12.1179
▁wand	-12.1179
▁fluttering	-12.1179
rink	-12.1182
gni	-12.1182
▁rushes	-12.1182
▁knob	-12.1182
▁Mel	-12.1184
▁subjection	-12.1187
▁z	-12.1187
▁shrinking	-12.1187
▁crushing	-12.1188
▁enlarged	-12.1189
▁villainy	-12.1192
▁Cla	-12.1194
▁Star	-12.1195
▁shuddering	-12.1195
▁cars	-12.1196
▁gleamed	-12.1198
▁walled	-12.1198
pat	-12.1198
▁virgins	-12.1199
Con	-12.1205
▁Knowing	-12.1206
▁executioner	-12.121
▁curb	-12.121
▁poisoned	-12.1213
▁cork	-12.1218
▁writers	-12.1218
▁walketh	-12.1222
▁clearness	-12.1222
▁ole	-12.1227
▁gu	-12.1228
foot	-12.1229
▁disliked	-12.123
▁shorter	-12.1231
af	-12.1236
▁distressing	-12.1237
ought	-12.1241
▁hap	-12.1241
▁hedges	-12.1247
▁unawares	-12.1248
▁spices	-12.1252
▁5:2	-12.1253
Am	-12.1254
▁develop	-12.1259
▁falsely	-12.1259
▁labors	-12.126
▁scales	-12.1261
▁players	-12.1262
▁tangle	-12.1265
taking	-12.127
▁Force	-12.127
▁qu	-12.1271
give	-12.1271
▁glimmer	-12.1272
▁persist	-12.1273
window	-12.1273
▁horizontal	-12.1278
▁excursion	-12.1278
▁phantom	-12.1278
▁Work	-12.1281
▁Rock	-12.1281
▁eccentric	-12.1283
▁shipwreck	-12.1284
▁wizard	-12.1284
▁Eagle	-12.1284
▁Jemima	-12.1284
▁Malvolio	-12.1284
▁Noureddin	-12.1284
▁Roxy	-12.1284
▁Valentine	-12.1284
▁compartment	-12.1284
▁crevice	-12.1284
▁significance	-12.1284
▁superficial	-12.1284
▁loaves	-12.1284
▁Ocean	-12.1284
▁stress	-12.1284
▁Shimei	-12.1284
▁3:6	-12.1284
▁agency	-12.1284
▁stunned	-12.1284
▁target	-12.1284
▁click	-12.1285
▁opium	-12.1285
▁Peleg	-12.1285
▁Balak	-12.1285
▁infirmity	-12.1285
corn	-12.1285
▁Gentleman	-12.1285
▁starving	-12.1285
▁equipped	-12.1286
▁potatoes	-12.1286
▁realization	-12.1286
▁speck	-12.1286
▁hewn	-12.1286
▁Emilia	-12.1286
▁poisonous	-12.1287
▁nineteenth	-12.1287
▁heroine	-12.1287
▁Tith	-12.1288
▁ultimately	-12.1291
▁contentment	-12.1293
▁mortals	-12.1294
▁fluttered	-12.1294
▁corresponding	-12.1295
▁flashes	-12.1296
▁bla	-12.1296
▁wan	-12.1298
▁Bur	-12.1298
▁Sheep	-12.1299
▁darting	-12.1299
▁XXIII	-12.1302
▁fairies	-12.1302
▁matches	-12.1303
▁rim	-12.1307
▁comprehended	-12.131
▁nearby	-12.1311
▁feller	-12.1313
LL	-12.1315
▁tackle	-12.1322
▁heaved	-12.1326
▁excitedly	-12.1328
▁comely	-12.1328
▁rooted	-12.1329
▁coolly	-12.1329
rance	-12.1332
▁defended	-12.1334
▁dint	-12.1335
▁prone	-12.1336
▁charter	-12.1338
▁acres	-12.1345
wl	-12.1347
rom	-12.135
▁farms	-12.1351
▁standeth	-12.1356
▁Hur	-12.1357
▁influenced	-12.1362
▁divert	-12.1365
▁noses	-12.1371
▁trench	-12.1374
▁Anti	-12.1376
▁Bay	-12.1378
▁commence	-12.1381
awn	-12.1381
▁fringe	-12.1382
▁assemble	-12.1382
▁peer	-12.1383
▁unfold	-12.1385
▁calculations	-12.1387
▁cluster	-12.1388
▁buzz	-12.139
▁taunt	-12.139
wheel	-12.1391
struck	-12.1391
About	-12.1393
▁perpendicular	-12.1395
▁cope	-12.1396
▁orphan	-12.1397
▁spine	-12.1397
▁nap	-12.1398
▁fathom	-12.1398
▁scripture	-12.1398
burn	-12.1398
▁hack	-12.1399
▁tuck	-12.1399
▁adult	-12.1402
▁guile	-12.1402
▁Bildad	-12.1402
▁COMINIUS	-12.1402
▁TOUCHSTONE	-12.1402
▁antiquity	-12.1402
▁bounty	-12.1402
▁caravan	-12.1402
▁chaff	-12.1402
▁consumption	-12.1402
▁contemplating	-12.1402
▁dispense	-12.1402
▁jovial	-12.1402
▁qualified	-12.1402
▁refusing	-12.1402
▁satellite	-12.1402
▁Wellington	-12.1402
▁agility	-12.1402
▁undertook	-12.1402
▁indebted	-12.1402
▁reddish	-12.1402
▁muzzle	-12.1402
▁Field	-12.1402
▁tiptoe	-12.1402
▁deference	-12.1402
▁15:4	-12.1402
▁signature	-12.1403
▁Bowers	-12.1404
▁damnation	-12.1404
tive	-12.1405
▁36:2	-12.1405
▁silks	-12.1405
▁1:12	-12.1406
▁37:2	-12.1406
▁patches	-12.1408
▁Eu	-12.1408
▁Alack	-12.1408
▁Arabian	-12.1409
▁1:13	-12.1409
▁dazzled	-12.1409
▁sleeps	-12.1413
▁soften	-12.1416
ré	-12.1417
▁discussing	-12.1419
onic	-12.142
▁quoted	-12.1421
late	-12.1421
▁shifted	-12.1423
▁occasioned	-12.1424
▁pur	-12.1428
itation	-12.1431
▁curl	-12.1433
▁Pip	-12.1435
▁sandy	-12.1437
▁wot	-12.1439
▁instincts	-12.1443
▁Thing	-12.145
▁hop	-12.1453
▁sheltered	-12.1455
▁passers	-12.1464
▁ut	-12.1466
cle	-12.1466
▁females	-12.1468
▁vis	-12.1471
▁machines	-12.1478
lid	-12.148
zo	-12.1481
▁doubting	-12.1484
▁tack	-12.1484
▁heirs	-12.1486
▁authors	-12.149
▁uphold	-12.1491
▁Gen	-12.1491
▁supporting	-12.1492
▁differences	-12.1493
▁scholars	-12.15
▁hip	-12.1503
▁achieve	-12.1508
▁camel	-12.1509
▁claw	-12.1509
▁Ap	-12.151
could	-12.151
▁ev	-12.1511
▁construct	-12.1511
▁sighted	-12.1512
▁overlook	-12.1514
▁Talk	-12.1517
▁Pl	-12.1517
▁spider	-12.1518
poor	-12.1518
▁violet	-12.1519
▁Dusar	-12.1521
▁Benaiah	-12.1521
▁CYMBELINE	-12.1521
▁Comtesse	-12.1521
▁Dalloway	-12.1521
▁Exeter	-12.1521
▁HOPE	-12.1521
▁MARCUS	-12.1521
▁Momaya	-12.1521
▁Packingtown	-12.1521
▁QUICKLY	-12.1521
▁drowsy	-12.1521
▁emerald	-12.1521
▁industrious	-12.1521
▁leopard	-12.1521
▁merriment	-12.1521
▁prettiest	-12.1521
▁testimonies	-12.1521
▁chaos	-12.1521
▁Stephen	-12.1521
▁Camp	-12.1521
▁creek	-12.1521
▁Lottie	-12.1521
▁precedent	-12.1521
▁organization	-12.1521
▁muslin	-12.1521
▁peck	-12.1522
▁hive	-12.1522
▁acid	-12.1522
▁resignation	-12.1522
▁banishment	-12.1523
▁39:1	-12.1524
▁Henrietta	-12.1524
▁fathoms	-12.1525
▁scriptures	-12.1525
▁1:14	-12.1526
▁flickering	-12.1526
▁quay	-12.1527
▁Myself	-12.1527
▁Montague	-12.1528
▁selfishness	-12.1528
▁abhorred	-12.1528
▁envied	-12.1529
▁agents	-12.153
▁Gray	-12.153
▁clothe	-12.153
▁arches	-12.1531
▁respectfully	-12.1531
wo	-12.1532
▁girded	-12.1533
▁excused	-12.1536
▁lustre	-12.1537
▁loan	-12.1538
▁fugitives	-12.1539
▁tenant	-12.1539
▁giants	-12.154
▁guiltless	-12.1542
▁persecuted	-12.1543
▁receiv	-12.1546
fit	-12.1548
than	-12.1556
▁termed	-12.1558
▁colt	-12.1561
▁schemes	-12.1561
▁designed	-12.1561
mother	-12.1562
▁based	-12.1564
▁Er	-12.1565
Co	-12.1566
hall	-12.157
▁Pain	-12.1572
▁artistic	-12.1578
▁tenor	-12.1587
twixt	-12.1588
▁cartridges	-12.1589
▁shocking	-12.1593
bre	-12.1594
▁pilgrims	-12.1596
▁mystic	-12.1598
▁denying	-12.1599
▁DE	-12.1601
▁scruples	-12.1601
▁faire	-12.1602
▁Mat	-12.1612
▁glade	-12.1613
▁advances	-12.1618
▁include	-12.1622
▁tick	-12.1626
▁streak	-12.1629
worm	-12.163
Think	-12.163
▁uncover	-12.1633
▁judicious	-12.1634
▁ankle	-12.164
▁EDMUND	-12.1642
▁Gorringe	-12.1642
▁Hortensio	-12.1642
▁KATHERINA	-12.1642
▁Leviathan	-12.1642
▁Puritan	-12.1642
▁Shih	-12.1642
▁Sydney	-12.1642
▁Zechariah	-12.1642
▁balcony	-12.1642
▁benevolence	-12.1642
▁biggest	-12.1642
▁fascinating	-12.1642
▁hammock	-12.1642
▁magazine	-12.1642
▁masculine	-12.1642
▁suicide	-12.1642
▁Albert	-12.1642
▁capricious	-12.1642
▁comprehension	-12.1642
▁2:7	-12.1642
▁cloister	-12.1642
▁Palamon	-12.1642
▁choir	-12.1642
▁Croft	-12.1642
▁canyon	-12.1642
▁consort	-12.1642
▁transferred	-12.1642
▁tiresome	-12.1642
▁wiping	-12.1642
▁Therns	-12.1643
▁confinement	-12.1643
▁Jewess	-12.1643
▁slippery	-12.1643
▁Country	-12.1643
▁battery	-12.1643
▁repast	-12.1644
▁OLD	-12.1645
▁robbery	-12.1647
▁bathe	-12.1647
▁silken	-12.1648
▁refreshed	-12.1649
▁Reform	-12.165
▁lime	-12.165
▁undergone	-12.165
▁concentrated	-12.165
▁Chang	-12.1651
▁overtaken	-12.1654
▁whirling	-12.1654
▁discontented	-12.1655
much	-12.1655
nut	-12.1655
▁consecrated	-12.1655
▁shoved	-12.1655
▁Lords	-12.1656
▁Teach	-12.1657
▁doest	-12.1659
▁coolness	-12.1659
▁Dodo	-12.166
OUR	-12.166
▁quivered	-12.166
▁bolted	-12.1661
▁edges	-12.1667
▁tended	-12.167
coll	-12.1671
▁watchman	-12.1673
▁constitutions	-12.1674
▁thoughtless	-12.1676
▁draws	-12.168
▁wrinkles	-12.1683
▁freshness	-12.1684
▁concealing	-12.1686
▁Greeks	-12.1687
▁Kar	-12.1696
may	-12.1698
▁elephants	-12.1702
▁cleanse	-12.171
▁Command	-12.1716
▁Sound	-12.1716
▁wouldest	-12.1717
▁formula	-12.1719
57	-12.1729
iment	-12.1732
▁sparks	-12.1739
▁mov	-12.1744
▁customers	-12.1745
▁leant	-12.1746
▁richer	-12.1747
▁foresee	-12.1749
▁ranged	-12.1751
uci	-12.1752
▁gratify	-12.1752
Really	-12.1752
before	-12.1753
▁discreet	-12.1756
▁indefinite	-12.1756
▁incessant	-12.1756
▁confidential	-12.1757
ours	-12.1759
ates	-12.176
▁pigs	-12.176
▁Guard	-12.1763
▁stair	-12.1763
▁billiard	-12.1763
▁Cordelia	-12.1764
▁Lorenzo	-12.1764
▁Marcius	-12.1764
▁NORFOLK	-12.1764
▁Olivia	-12.1764
▁Shemaiah	-12.1764
▁circus	-12.1764
▁gratification	-12.1764
▁insignificant	-12.1764
▁oyster	-12.1764
▁relating	-12.1764
▁respite	-12.1764
▁vigour	-12.1764
▁woollen	-12.1764
▁talons	-12.1764
▁inasmuch	-12.1764
▁Kulan	-12.1764
▁Henery	-12.1764
▁Merari	-12.1764
▁clearer	-12.1764
▁emphatically	-12.1764
▁necessities	-12.1764
▁Charley	-12.1764
▁13:5	-12.1764
▁reaction	-12.1764
▁Barsoomian	-12.1766
▁stealthy	-12.1766
▁Hsi	-12.1767
▁loomed	-12.1767
▁terrifying	-12.1768
▁battered	-12.1768
▁stupidity	-12.1768
▁degraded	-12.1768
▁consultation	-12.1769
▁recommendation	-12.1769
▁Twenty	-12.1769
▁fourteenth	-12.1769
▁encircled	-12.1769
▁woeful	-12.1769
▁bedside	-12.177
▁77	-12.1771
▁chi	-12.1772
▁apprehended	-12.1775
band	-12.1776
▁definitely	-12.1779
▁dearer	-12.1779
rge	-12.178
▁dissolved	-12.1781
▁Third	-12.1783
▁lamented	-12.1784
▁fu	-12.1789
▁visitation	-12.1789
▁knots	-12.1796
▁grimly	-12.1798
hen	-12.1798
▁prose	-12.1801
ograph	-12.1801
▁Virgin	-12.1801
pipe	-12.1802
▁devouring	-12.1803
▁Oll	-12.1806
▁LE	-12.1809
▁smoothly	-12.1813
Str	-12.1813
▁planks	-12.1817
▁clerks	-12.1817
▁deserts	-12.1824
▁goin	-12.1826
once	-12.1828
▁chained	-12.1829
flowers	-12.183
▁senators	-12.1834
▁toad	-12.1844
▁accepting	-12.1845
▁sports	-12.1849
bow	-12.185
▁2:2	-12.1851
oid	-12.1851
round	-12.1856
▁brood	-12.1864
▁announce	-12.1865
▁Soldiers	-12.1867
▁glide	-12.1868
▁bandage	-12.187
gown	-12.1872
▁babes	-12.1873
clothes	-12.1874
knife	-12.1875
Z	-12.1876
▁NO	-12.1877
▁jokes	-12.1878
▁tremulous	-12.188
Eh	-12.1883
▁flirt	-12.1885
▁13:006:0	-12.1887
▁BAPTISTA	-12.1887
▁Grecian	-12.1887
▁Jellyband	-12.1887
▁Tranio	-12.1887
▁ULYSSES	-12.1887
▁alphabet	-12.1887
▁blouse	-12.1887
▁freak	-12.1887
▁guidance	-12.1887
▁haze	-12.1887
▁intervening	-12.1887
▁stupefied	-12.1887
▁tawny	-12.1887
▁university	-12.1887
▁vocation	-12.1887
▁LXX	-12.1887
▁paragraph	-12.1887
▁Southern	-12.1887
▁exposure	-12.1887
▁sanction	-12.1887
▁interchange	-12.1887
▁Methodist	-12.1888
ponine	-12.1888
▁revolutionary	-12.1888
▁commencement	-12.1888
▁25:3	-12.1888
▁pew	-12.1889
▁unfair	-12.1889
▁dramatic	-12.1889
▁Philistine	-12.1889
▁disciple	-12.1889
▁package	-12.189
▁solve	-12.1891
▁1:15	-12.1891
▁preservation	-12.1891
▁eleventh	-12.1899
▁mono	-12.1901
▁mournfully	-12.1904
▁57	-12.1904
▁poets	-12.1906
▁meditated	-12.1906
▁Whoso	-12.1907
▁bower	-12.1912
▁fearless	-12.1912
▁intensely	-12.1915
ulous	-12.1917
▁pained	-12.1918
▁blocked	-12.1919
formed	-12.1919
▁tempting	-12.1921
▁nuts	-12.1922
▁disturbing	-12.1925
▁penitent	-12.1926
▁barking	-12.1934
new	-12.1934
▁sufficed	-12.1935
▁barber	-12.1937
ril	-12.1939
▁legislatures	-12.1941
lf	-12.1942
▁plagues	-12.1943
▁brag	-12.195
▁reproached	-12.1951
ula	-12.1951
▁fleeing	-12.1952
▁coz	-12.1956
▁sham	-12.196
▁ob	-12.1963
▁spurs	-12.1964
▁singer	-12.1968
▁directing	-12.1969
fel	-12.1972
▁complaints	-12.1973
▁area	-12.1975
▁2:1	-12.1976
▁thrusting	-12.1986
▁20:2	-12.1989
blood	-12.199
▁favoured	-12.199
ature	-12.199
▁surmise	-12.1992
▁reprove	-12.1992
▁overflow	-12.1993
▁coil	-12.1996
acc	-12.1998
▁hooks	-12.2
brown	-12.2001
▁disregard	-12.2001
▁ordain	-12.2002
▁placid	-12.2004
▁scare	-12.2005
▁soundly	-12.2006
▁transfer	-12.2012
▁42:001:0	-12.2012
▁Amaziah	-12.2012
▁Burgundy	-12.2012
▁Edgar	-12.2012
▁MACDUFF	-12.2012
▁Roderigo	-12.2012
▁SALISBURY	-12.2012
▁SHYLOCK	-12.2012
▁Salensus	-12.2012
▁THAT	-12.2012
▁accommodate	-12.2012
▁altitude	-12.2012
▁colleague	-12.2012
▁deuce	-12.2012
▁impossibility	-12.2012
▁impudent	-12.2012
▁inconvenient	-12.2012
▁luncheon	-12.2012
▁militia	-12.2012
▁oxygen	-12.2012
▁twelfth	-12.2012
▁vantage	-12.2012
▁wrung	-12.2012
▁Budmouth	-12.2012
▁Injun	-12.2012
▁disinterested	-12.2012
▁2:8	-12.2012
▁inviting	-12.2012
▁Dream	-12.2012
▁contrivance	-12.2012
▁Clark	-12.2012
▁galleries	-12.2012
▁prowess	-12.2012
▁appalling	-12.2012
▁unfamiliar	-12.2012
▁vertical	-12.2012
▁ADRIANA	-12.2012
▁beetle	-12.2012
▁laboratory	-12.2013
closed	-12.2013
▁ejaculated	-12.2013
▁Forbes	-12.2014
▁Seir	-12.2014
▁timidity	-12.2014
escence	-12.2015
▁scarf	-12.2015
▁selection	-12.2015
▁inspector	-12.2015
▁fragment	-12.2015
▁Baptista	-12.2015
▁witty	-12.2016
▁2:10	-12.2016
▁gull	-12.2017
root	-12.2018
▁elm	-12.202
▁administered	-12.202
▁Gate	-12.202
their	-12.2023
▁lurking	-12.2023
▁sill	-12.2023
▁storms	-12.2023
▁distributed	-12.2023
▁undergo	-12.2026
▁alluded	-12.2026
▁dough	-12.2028
▁faintest	-12.2029
ffe	-12.2029
Li	-12.203
rite	-12.203
▁cherished	-12.203
uri	-12.2031
dig	-12.2031
▁ordinances	-12.2032
▁clang	-12.2034
▁shameful	-12.2034
▁MA	-12.2035
▁gracefully	-12.2038
▁abstain	-12.2039
▁blooming	-12.2045
▁rustle	-12.2056
▁mocked	-12.2058
▁Tha	-12.2059
▁richest	-12.206
▁Bi	-12.2061
▁presumed	-12.2064
▁bygone	-12.2069
▁cooked	-12.2069
uel	-12.2071
▁alight	-12.2076
▁Crown	-12.2077
▁sawest	-12.2079
▁extremes	-12.2085
▁dreamy	-12.2086
▁Sidon	-12.2089
▁narrowly	-12.2091
▁sufferer	-12.2093
▁departing	-12.2094
eus	-12.2095
▁heated	-12.2098
▁bearer	-12.2098
▁watered	-12.2101
▁3:1	-12.2103
▁owes	-12.2106
worth	-12.2107
ther	-12.2109
▁beset	-12.211
▁compose	-12.2114
▁flutter	-12.2116
▁ensue	-12.2119
▁choke	-12.2122
▁posted	-12.2122
spring	-12.2122
▁correspond	-12.2126
street	-12.2128
▁actors	-12.213
▁serv	-12.213
▁ominous	-12.2131
▁apiece	-12.2132
▁shrug	-12.2138
▁ACHILLES	-12.2139
▁Alfred	-12.2139
▁BOLINGBROKE	-12.2139
▁Horatio	-12.2139
▁POSTHUMUS	-12.2139
▁Sabbath	-12.2139
▁abbey	-12.2139
▁benefactor	-12.2139
▁delirium	-12.2139
▁emerging	-12.2139
▁mechanism	-12.2139
▁pyramid	-12.2139
▁verdict	-12.2139
▁zenith	-12.2139
▁infancy	-12.2139
▁intrigue	-12.2139
▁provocation	-12.2139
▁drill	-12.2139
▁2:9	-12.2139
▁domain	-12.2139
▁cheque	-12.2139
▁superintendent	-12.2139
▁conferred	-12.2139
▁breeches	-12.2139
▁carnal	-12.2139
▁Esmeralda	-12.2139
▁plaintive	-12.214
▁refinement	-12.214
▁scuttle	-12.214
▁deception	-12.2141
▁ether	-12.2141
▁tut	-12.2141
▁Hunter	-12.2142
▁Elias	-12.2142
▁Mock	-12.2142
▁insect	-12.2144
▁Antoine	-12.2144
▁Clay	-12.2145
▁germ	-12.2145
icate	-12.2147
▁deceased	-12.2148
▁candid	-12.2148
▁vigorously	-12.2151
▁overflowing	-12.2151
▁exclaiming	-12.2153
quarters	-12.2159
lop	-12.216
▁councils	-12.2161
▁superb	-12.2163
▁grade	-12.2169
▁stiffly	-12.217
▁frowned	-12.2171
▁sentry	-12.2171
Had	-12.2172
▁theater	-12.2172
▁jot	-12.2174
▁institutions	-12.2181
▁boasting	-12.2181
▁lighten	-12.2184
▁dates	-12.2188
▁godly	-12.2188
ink	-12.2198
Med	-12.2199
▁conjure	-12.2205
▁shots	-12.2206
rain	-12.2206
icle	-12.2207
▁Ali	-12.221
books	-12.2212
Ma	-12.2212
▁laboured	-12.2217
▁conform	-12.2218
▁withhold	-12.2221
▁ME	-12.2229
▁tra	-12.223
▁whoop	-12.223
▁sharks	-12.2231
▁aright	-12.2234
office	-12.2237
▁foil	-12.224
▁Forest	-12.2246
▁renounce	-12.2247
▁meditate	-12.2247
▁replace	-12.2252
▁villa	-12.2253
▁abstract	-12.2253
zy	-12.2254
▁thundering	-12.2254
Keep	-12.2255
▁lavish	-12.2256
▁smash	-12.2256
women	-12.2256
▁extinguish	-12.2256
▁pervert	-12.2256
▁strangest	-12.2257
rated	-12.2258
▁numb	-12.2258
rai	-12.2259
▁accurate	-12.2259
▁crowding	-12.226
count	-12.2261
▁acquit	-12.2266
▁raid	-12.2266
▁CAIUS	-12.2267
▁CLOTEN	-12.2267
▁Charmian	-12.2267
▁IACHIMO	-12.2267
▁LAUNCE	-12.2267
▁Naples	-12.2267
▁National	-12.2267
▁Stanley	-12.2267
▁Wicked	-12.2267
▁cravat	-12.2267
▁definition	-12.2267
▁insolence	-12.2267
▁moustache	-12.2267
▁oblivion	-12.2267
▁peevish	-12.2267
▁practicable	-12.2267
▁prophecies	-12.2267
▁reluctance	-12.2267
▁shrunk	-12.2267
▁uneasily	-12.2267
▁verdure	-12.2267
▁bawd	-12.2267
▁untimely	-12.2267
▁3:7	-12.2267
▁5:7	-12.2267
▁supernatural	-12.2267
▁seclusion	-12.2267
▁rugged	-12.2267
▁Hearken	-12.2267
▁scamp	-12.2267
▁primeval	-12.2267
▁chestnut	-12.2267
▁pallid	-12.2267
▁XXIV	-12.2267
▁spinning	-12.2267
▁fortified	-12.2267
▁masonry	-12.2267
▁grinning	-12.2267
▁arising	-12.2267
▁rainbow	-12.2268
zzle	-12.2268
▁Devil	-12.2268
▁brightened	-12.2269
▁signified	-12.2269
▁Sirrah	-12.2269
▁Break	-12.227
▁42:1	-12.227
▁2:11	-12.227
▁2:12	-12.227
▁44:1	-12.227
▁murderous	-12.2271
▁royalty	-12.2271
▁wickedly	-12.2272
▁digest	-12.2272
▁pudding	-12.2273
▁considerate	-12.2273
▁Word	-12.2273
▁vegetable	-12.2273
▁harpooneer	-12.2273
▁wavering	-12.2273
▁accomplishment	-12.2275
mad	-12.2275
▁exaggerated	-12.2276
▁lurked	-12.2277
▁strolled	-12.2277
▁fifteenth	-12.2282
▁ONE	-12.2282
▁Roy	-12.2282
▁nourished	-12.2282
roll	-12.2283
▁imparted	-12.2283
▁entreaty	-12.2283
▁musicians	-12.2284
▁starts	-12.2284
mel	-12.2285
Puk	-12.2286
eries	-12.229
▁Fit	-12.2292
▁enforced	-12.2294
▁blasted	-12.2296
ines	-12.2304
▁aft	-12.2304
▁marking	-12.2308
char	-12.2314
▁grassy	-12.2316
▁whoever	-12.2316
▁Za	-12.232
tops	-12.2324
▁hateth	-12.2325
▁meetings	-12.234
thy	-12.2341
▁snakes	-12.2342
▁sup	-12.2342
▁mentioning	-12.2354
▁turneth	-12.2358
▁Thisbe	-12.236
▁pal	-12.2366
▁sca	-12.2367
tory	-12.2368
▁clouded	-12.237
▁bun	-12.2371
▁wage	-12.2372
▁oar	-12.2372
▁positions	-12.2376
▁traverse	-12.2377
Saint	-12.238
▁sneak	-12.2385
▁Petit	-12.2385
▁feign	-12.2386
▁respond	-12.2386
tire	-12.239
▁advent	-12.2397
▁19:119:1	-12.2397
▁populace	-12.2397
▁Chillingworth	-12.2397
▁Felix	-12.2397
▁Magloire	-12.2397
▁bicycle	-12.2397
▁emergency	-12.2397
▁groping	-12.2397
▁infidel	-12.2397
▁maternal	-12.2397
▁penetrating	-12.2397
[...]
