<pad>	0
<s>	0
</s>	0
<unk>	0
<0x00>	0
<0x01>	0
<0x02>	0
<0x03>	0
<0x04>	0
<0x05>	0
<0x06>	0
<0x07>	0
<0x08>	0
<0x09>	0
<0x0A>	0
<0x0B>	0
<0x0C>	0
<0x0D>	0
<0x0E>	0
<0x0F>	0
<0x10>	0
<0x11>	0
<0x12>	0
<0x13>	0
<0x14>	0
<0x15>	0
<0x16>	0
<0x17>	0
<0x18>	0
<0x19>	0
<0x1A>	0
<0x1B>	0
<0x1C>	0
<0x1D>	0
<0x1E>	0
<0x1F>	0
<0x20>	0
<0x21>	0
<0x22>	0
<0x23>	0
<0x24>	0
<0x25>	0
<0x26>	0
<0x27>	0
<0x28>	0
<0x29>	0
<0x2A>	0
<0x2B>	0
<0x2C>	0
<0x2D>	0
<0x2E>	0
<0x2F>	0
<0x30>	0
<0x31>	0
<0x32>	0
<0x33>	0
<0x34>	0
<0x35>	0
<0x36>	0
<0x37>	0
<0x38>	0
<0x39>	0
<0x3A>	0
<0x3B>	0
<0x3C>	0
<0x3D>	0
<0x3E>	0
<0x3F>	0
<0x40>	0
<0x41>	0
<0x42>	0
<0x43>	0
<0x44>	0
<0x45>	0
<0x46>	0
<0x47>	0
<0x48>	0
<0x49>	0
<0x4A>	0
<0x4B>	0
<0x4C>	0
<0x4D>	0
<0x4E>	0
<0x4F>	0
<0x50>	0
<0x51>	0
<0x52>	0
<0x53>	0
<0x54>	0
<0x55>	0
<0x56>	0
<0x57>	0
<0x58>	0
<0x59>	0
<0x5A>	0
<0x5B>	0
<0x5C>	0
<0x5D>	0
<0x5E>	0
<0x5F>	0
<0x60>	0
<0x61>	0
<0x62>	0
<0x63>	0
<0x64>	0
<0x65>	0
<0x66>	0
<0x67>	0
<0x68>	0
<0x69>	0
<0x6A>	0
<0x6B>	0
<0x6C>	0
<0x6D>	0
<0x6E>	0
<0x6F>	0
<0x70>	0
<0x71>	0
<0x72>	0
<0x73>	0
<0x74>	0
<0x75>	0
<0x76>	0
<0x77>	0
<0x78>	0
<0x79>	0
<0x7A>	0
<0x7B>	0
<0x7C>	0
<0x7D>	0
<0x7E>	0
<0x7F>	0
<0x80>	0
<0x81>	0
<0x82>	0
<0x83>	0
<0x84>	0
<0x85>	0
<0x86>	0
<0x87>	0
<0x88>	0
<0x89>	0
<0x8A>	0
<0x8B>	0
<0x8C>	0
<0x8D>	0
<0x8E>	0
<0x8F>	0
<0x90>	0
<0x91>	0
<0x92>	0
<0x93>	0
<0x94>	0
<0x95>	0
<0x96>	0
<0x97>	0
<0x98>	0
<0x99>	0
<0x9A>	0
<0x9B>	0
<0x9C>	0
<0x9D>	0
<0x9E>	0
<0x9F>	0
<0xA0>	0
<0xA1>	0
<0xA2>	0
<0xA3>	0
<0xA4>	0
<0xA5>	0
<0xA6>	0
<0xA7>	0
<0xA8>	0
<0xA9>	0
<0xAA>	0
<0xAB>	0
<0xAC>	0
<0xAD>	0
<0xAE>	0
<0xAF>	0
<0xB0>	0
<0xB1>	0
<0xB2>	0
<0xB3>	0
<0xB4>	0
<0xB5>	0
<0xB6>	0
<0xB7>	0
<0xB8>	0
<0xB9>	0
<0xBA>	0
<0xBB>	0
<0xBC>	0
<0xBD>	0
<0xBE>	0
<0xBF>	0
<0xC0>	0
<0xC1>	0
<0xC2>	0
<0xC3>	0
<0xC4>	0
<0xC5>	0
<0xC6>	0
<0xC7>	0
<0xC8>	0
<0xC9>	0
<0xCA>	0
<0xCB>	0
<0xCC>	0
<0xCD>	0
<0xCE>	0
<0xCF>	0
<0xD0>	0
<0xD1>	0
<0xD2>	0
<0xD3>	0
<0xD4>	0
<0xD5>	0
<0xD6>	0
<0xD7>	0
<0xD8>	0
<0xD9>	0
<0xDA>	0
<0xDB>	0
<0xDC>	0
<0xDD>	0
<0xDE>	0
<0xDF>	0
<0xE0>	0
<0xE1>	0
<0xE2>	0
<0xE3>	0
<0xE4>	0
<0xE5>	0
<0xE6>	0
<0xE7>	0
<0xE8>	0
<0xE9>	0
<0xEA>	0
<0xEB>	0
<0xEC>	0
<0xED>	0
<0xEE>	0
<0xEF>	0
<0xF0>	0
<0xF1>	0
<0xF2>	0
<0xF3>	0
<0xF4>	0
<0xF5>	0
<0xF6>	0
<0xF7>	0
<0xF8>	0
<0xF9>	0
<0xFA>	0
<0xFB>	0
<0xFC>	0
<0xFD>	0
<0xFE>	0
<0xFF>	0
,	-3.00065
s	-3.51363
▁the	-3.53145
.	-3.90374
▁of	-4.16258
▁and	-4.18868
▁in	-4.20362
▁to	-4.44609
▁et	-4.54664
e	-4.63743
▁a	-4.67035
m	-5.00518
ed	-5.17029
i	-5.21573
▁that	-5.23237
t	-5.26185
:	-5.28542
a	-5.31168
▁he	-5.31635
▁his	-5.33316
;	-5.39013
o	-5.48277
▁with	-5.52804
que	-5.57898
▁for	-5.63704
ing	-5.6385
▁I	-5.64193
is	-5.64629
d	-5.66843
us	-5.6945
▁was	-5.70105
▁is	-5.70697
▁ad	-5.73082
re	-5.76752
p	-5.77928
um	-5.78591
▁by	-5.79164
▁be	-5.79277
▁de	-5.87891
▁not	-5.88698
▁it	-5.90372
es	-5.90799
▁as	-5.94637
▁they	-5.97126
g	-5.99723
▁their	-6.04009
▁you	-6.04933
c	-6.05759
▁from	-6.05846
▁non	-6.0668
▁had	-6.07325
▁est	-6.08998
▁	-6.09258
▁And	-6.13177
ly	-6.14856
n	-6.15421
er	-6.15693
▁me	-6.19229
▁ut	-6.20759
u	-6.2169
▁all	-6.22893
▁him	-6.23346
▁on	-6.25062
▁per	-6.26083
y	-6.26162
ri	-6.26673
it	-6.26919
ta	-6.28637
▁which	-6.29301
?	-6.3014
▁qui	-6.31742
▁ex	-6.31932
▁cum	-6.32133
r	-6.33495
b	-6.34542
▁at	-6.35492
▁have	-6.38751
▁were	-6.40382
ti	-6.4224
▁them	-6.43942
▁are	-6.48499
▁or	-6.50331
▁shall	-6.50746
▁this	-6.55763
em	-6.58702
▁my	-6.59012
▁so	-6.59149
▁who	-6.59706
rum	-6.61562
▁when	-6.62394
am	-6.63242
▁but	-6.63512
▁se	-6.64078
te	-6.65231
▁quod	-6.66628
tus	-6.67274
▁no	-6.68505
▁quae	-6.68818
▁pro	-6.70849
-	-6.71727
at	-6.73172
▁an	-6.73338
as	-6.73416
▁si	-6.74658
▁The	-6.77149
ur	-6.77261
▁will	-6.7737
▁your	-6.784
▁her	-6.7876
os	-6.81384
▁man	-6.8238
or	-6.82511
▁con	-6.83065
▁sed	-6.8316
f	-6.83929
to	-6.83932
le	-6.84061
ci	-6.84805
ae	-6.86019
▁e	-6.88555
▁one	-6.88879
tum	-6.89093
ra	-6.8933
nt	-6.92161
▁re	-6.96067
'	-6.96268
ibus	-6.97057
▁ab	-6.97188
tur	-6.98291
l	-6.98329
in	-6.98707
li	-6.99007
ens	-6.99303
▁eius	-6.99707
▁out	-7.01059
ve	-7.01151
tis	-7.01435
ce	-7.02113
▁ac	-7.02116
▁quam	-7.03198
▁nec	-7.03603
▁Lord	-7.04414
▁if	-7.04766
▁do	-7.05233
al	-7.06358
▁But	-7.07363
th	-7.07766
▁te	-7.08606
et	-7.08651
na	-7.08693
▁autem	-7.08796
ro	-7.08818
ia	-7.09481
▁up	-7.09629
▁men	-7.09863
ni	-7.10095
▁we	-7.10365
ns	-7.12056
▁ne	-7.12074
an	-7.12453
ere	-7.13114
▁more	-7.14774
▁into	-7.14907
▁there	-7.15296
w	-7.1536
▁A	-7.1537
ne	-7.15942
ter	-7.16135
vit	-7.17458
unt	-7.17506
la	-7.18059
vi	-7.18533
on	-7.19325
▁been	-7.19685
▁super	-7.20223
▁sunt	-7.20229
ul	-7.20328
▁our	-7.20757
▁For	-7.22001
▁upon	-7.2369
▁said	-7.25021
▁thy	-7.26306
ar	-7.26438
x	-7.26534
st	-7.28388
▁God	-7.29014
▁time	-7.29036
▁thou	-7.29083
ius	-7.29249
▁enim	-7.31663
▁C	-7.32881
en	-7.33245
▁what	-7.33675
ant	-7.35183
▁now	-7.36293
tu	-7.36598
▁He	-7.36835
lo	-7.37553
▁should	-7.37579
▁would	-7.37801
▁aut	-7.38641
▁these	-7.39141
▁she	-7.39815
!	-7.39857
▁inter	-7.40537
▁sub	-7.40606
▁ob	-7.40643
▁quo	-7.41555
▁made	-7.42252
▁over	-7.42385
▁also	-7.42412
▁than	-7.4258
▁atque	-7.42774
bat	-7.43265
▁king	-7.43382
▁s	-7.44297
▁vi	-7.44376
▁great	-7.45737
v	-7.46592
▁own	-7.47068
▁before	-7.47263
ris	-7.47677
▁has	-7.49921
io	-7.5052
▁people	-7.51101
▁un	-7.51644
▁even	-7.51733
▁after	-7.5282
▁come	-7.52853
orum	-7.53868
▁us	-7.53975
▁prae	-7.54633
no	-7.5533
▁esse	-7.56514
▁day	-7.56918
▁son	-7.57462
▁those	-7.58157
▁can	-7.5849
▁In	-7.60584
▁(	-7.60633
▁eum	-7.60869
di	-7.61006
bus	-7.62305
▁g	-7.6283
▁other	-7.62849
▁di	-7.63452
▁tu	-7.63534
va	-7.63942
▁haec	-7.63981
▁co	-7.64195
erunt	-7.64202
ret	-7.64311
▁himself	-7.64321
▁its	-7.64358
▁may	-7.64663
▁long	-7.64734
▁O	-7.64847
▁same	-7.64911
▁qua	-7.65254
▁things	-7.65656
vo	-7.66083
▁did	-7.67722
▁against	-7.68242
▁iam	-7.68282
▁many	-7.68357
ium	-7.684
▁P	-7.68659
h	-7.68695
▁because	-7.6878
ll	-7.68817
▁etiam	-7.68894
▁hand	-7.68947
ty	-7.69455
▁quia	-7.701
▁any	-7.70151
▁first	-7.70218
ge	-7.70914
▁p	-7.71315
▁M	-7.71362
▁Ma	-7.72208
▁nor	-7.73966
▁Caesar	-7.74274
▁through	-7.74575
ent	-7.74812
ru	-7.76058
▁put	-7.76192
▁am	-7.76233
ca	-7.76374
▁came	-7.76403
tion	-7.76439
ver	-7.76542
▁hoc	-7.76595
▁being	-7.77837
▁war	-7.78
ph	-7.78061
▁o	-7.78237
co	-7.78703
▁down	-7.79145
eth	-7.79176
ted	-7.79719
▁la	-7.79811
▁dis	-7.79919
▁place	-7.79938
▁vel	-7.80017
cta	-7.80541
po	-7.80562
▁eo	-7.80711
▁such	-7.8085
ness	-7.8102
ry	-7.8109
im	-7.81222
ion	-7.81767
▁tibi	-7.81849
▁E	-7.82195
▁then	-7.82751
▁ca	-7.82774
▁whom	-7.83097
▁neque	-7.83436
▁mihi	-7.83593
gi	-7.84567
▁could	-7.84578
▁let	-7.84684
nis	-7.8525
▁erat	-7.85776
▁go	-7.86019
▁post	-7.87015
▁some	-7.87781
si	-7.88552
▁c	-7.8952
▁Dominus	-7.89693
▁life	-7.89708
ch	-7.89784
▁consul	-7.89875
k	-7.9005
sa	-7.90144
▁house	-7.90898
▁imp	-7.91027
tra	-7.92215
▁ipse	-7.92439
ac	-7.92612
de	-7.92863
erat	-7.93399
mus	-7.93568
▁name	-7.93572
▁quid	-7.9385
▁ante	-7.93906
uit	-7.9391
▁land	-7.93913
qui	-7.93937
est	-7.93955
▁quoque	-7.94055
▁So	-7.94482
▁hath	-7.95
▁good	-7.95085
▁make	-7.95188
▁way	-7.95362
ma	-7.95578
per	-7.95693
el	-7.95842
▁death	-7.95864
▁two	-7.96125
▁quem	-7.96126
▁only	-7.96152
)	-7.96946
▁audi	-7.97158
nus	-7.97215
▁without	-7.97325
ful	-7.97633
▁city	-7.97736
ut	-7.9774
▁part	-7.98556
ers	-7.99812
▁nunc	-7.99841
▁while	-7.99952
▁ego	-8.00174
▁die	-8.00251
be	-8.00306
▁At	-8.00833
▁sit	-8.00866
▁ma	-8.00974
tor	-8.00992
pe	-8.01043
▁par	-8.01107
▁po	-8.01585
▁eos	-8.01704
▁Roman	-8.01841
▁away	-8.01892
▁eorum	-8.01902
▁sic	-8.02062
do	-8.02593
▁ei	-8.03354
▁ea	-8.0338
▁sent	-8.0349
▁Then	-8.03563
▁omnes	-8.03632
▁like	-8.03945
▁every	-8.04476
▁tamen	-8.04488
num	-8.04648
▁Ar	-8.04707
lu	-8.0473
▁say	-8.04943
id	-8.05002
▁might	-8.05315
▁give	-8.05328
▁under	-8.05428
▁st	-8.06022
▁about	-8.06423
▁car	-8.06503
▁very	-8.06657
sque	-8.07041
▁brought	-8.07307
are	-8.07379
men	-8.07479
▁sua	-8.07629
▁camp	-8.07831
▁take	-8.08397
▁set	-8.085
▁see	-8.08727
▁fa	-8.08852
▁fear	-8.08921
rent	-8.09008
ng	-8.0924
▁know	-8.09301
▁yet	-8.09635
bo	-8.097
▁where	-8.09906
bant	-8.10043
▁back	-8.10216
▁ille	-8.10658
ian	-8.109
▁ubi	-8.10967
▁id	-8.11618
ting	-8.1162
able	-8.11718
gu	-8.121
▁mo	-8.12393
sti	-8.1249
ation	-8.12939
bit	-8.13206
▁father	-8.13605
les	-8.13959
▁Israel	-8.14159
cus	-8.146
▁rest	-8.14719
▁li	-8.14893
ntes	-8.14895
▁earth	-8.15039
▁most	-8.1507
▁sea	-8.15096
il	-8.1523
ans	-8.15661
▁L	-8.15674
▁quibus	-8.15688
▁Israhel	-8.15948
▁res	-8.15962
tri	-8.16101
▁contra	-8.16679
bi	-8.1691
ud	-8.17319
▁fer	-8.17361
▁omnia	-8.17367
▁As	-8.17459
▁ita	-8.17919
ebat	-8.18068
nce	-8.1811
▁among	-8.1822
▁since	-8.18398
und	-8.18413
▁children	-8.1867
dit	-8.18725
tas	-8.19793
atur	-8.19986
▁tum	-8.20022
▁fe	-8.20027
▁sibi	-8.2037
tes	-8.21081
▁both	-8.21372
ct	-8.21644
ous	-8.22261
▁enemy	-8.22262
less	-8.22567
▁Se	-8.23197
▁vide	-8.23232
▁vos	-8.23454
lic	-8.23571
▁Si	-8.23942
▁da	-8.24079
▁Sa	-8.24533
▁quidem	-8.24684
▁power	-8.25034
▁t	-8.25189
▁va	-8.25993
ment	-8.26187
▁terra	-8.27203
ir	-8.27233
▁age	-8.27324
ici	-8.27536
ha	-8.2757
erit	-8.27992
▁how	-8.28341
▁fire	-8.2836
▁off	-8.28509
ari	-8.28526
▁far	-8.28547
▁forth	-8.28745
▁called	-8.28927
▁ha	-8.29039
▁When	-8.29057
▁left	-8.29204
▁ven	-8.29704
▁battle	-8.30214
▁b	-8.30434
▁T	-8.31739
sse	-8.31973
▁though	-8.32018
tio	-8.32322
▁must	-8.32353
▁went	-8.32386
▁Domini	-8.32694
ic	-8.32858
▁fi	-8.3286
▁high	-8.32899
▁magis	-8.32918
▁blood	-8.3315
▁La	-8.33167
▁mind	-8.33193
▁gods	-8.33225
▁days	-8.33592
▁too	-8.33603
▁face	-8.34029
ity	-8.34119
▁whose	-8.34259
▁side	-8.34297
▁dic	-8.34669
▁en	-8.35019
mini	-8.35353
▁well	-8.35701
▁army	-8.3617
▁vero	-8.3621
▁Deus	-8.36295
▁quos	-8.36485
entes	-8.36522
▁F	-8.36539
▁words	-8.36638
ate	-8.38021
▁mi	-8.38468
▁much	-8.38539
▁iu	-8.38574
▁fu	-8.38617
▁cui	-8.38655
▁end	-8.38831
▁Now	-8.38913
tae	-8.39073
▁old	-8.3909
▁body	-8.39244
tia	-8.39381
▁Ca	-8.39408
▁given	-8.39703
▁themselves	-8.40022
▁illa	-8.40588
ba	-8.40653
▁heart	-8.40751
▁dum	-8.4085
▁David	-8.40866
▁usque	-8.40877
▁ergo	-8.41036
atus	-8.4105
tate	-8.41066
untur	-8.41153
▁cur	-8.41314
sum	-8.41316
ff	-8.41427
da	-8.41446
▁eyes	-8.41638
▁heaven	-8.4173
▁suis	-8.41969
eris	-8.42056
▁together	-8.42059
▁another	-8.42059
▁found	-8.4245
tos	-8.4266
so	-8.42745
▁al	-8.42896
▁sine	-8.42968
▁shalt	-8.43556
ling	-8.43578
▁head	-8.43861
▁pass	-8.43863
iam	-8.43866
▁ra	-8.43878
rus	-8.44043
▁tua	-8.44144
ble	-8.44604
▁arma	-8.44637
▁gave	-8.449
go	-8.4492
▁sum	-8.45061
▁trans	-8.45118
▁having	-8.45149
▁whole	-8.45432
▁erit	-8.45638
▁vobis	-8.45647
lus	-8.46028
▁eis	-8.46254
ten	-8.46296
▁light	-8.46312
▁ch	-8.46368
▁filii	-8.46525
▁hic	-8.46649
▁rex	-8.4672
▁omnibus	-8.46774
mine	-8.46815
ces	-8.46934
▁night	-8.47259
itur	-8.47385
▁sicut	-8.47472
▁bring	-8.47479
▁arms	-8.47689
▁vol	-8.47773
▁illi	-8.48212
rs	-8.48249
▁Dei	-8.48455
▁If	-8.48669
▁again	-8.48835
mp	-8.49038
▁water	-8.4904
lis	-8.49067
▁esset	-8.49081
▁nos	-8.49164
▁Et	-8.49264
ndi	-8.4939
▁cons	-8.49489
z	-8.49499
▁right	-8.49595
▁simul	-8.49602
arum	-8.49603
▁rep	-8.49675
eret	-8.49725
▁fuit	-8.49745
▁tam	-8.49931
▁circum	-8.5007
▁im	-8.50138
▁soldiers	-8.50256
▁suo	-8.5028
▁sta	-8.50299
▁years	-8.50397
▁rem	-8.50589
▁comp	-8.50695
▁nihil	-8.50712
▁modo	-8.50728
▁peace	-8.50961
▁still	-8.51034
▁This	-8.51332
avit	-8.51336
▁magna	-8.51464
tam	-8.51639
vis	-8.52042
▁pre	-8.52137
dem	-8.52241
nd	-8.52288
▁manu	-8.52323
retur	-8.52329
▁To	-8.52631
▁mea	-8.5273
▁therefore	-8.52853
▁love	-8.52914
▁number	-8.53044
the	-8.53137
▁rec	-8.53161
▁apud	-8.53175
▁took	-8.53298
▁du	-8.53334
▁It	-8.53614
▁cuius	-8.53665
▁hands	-8.53802
▁omnis	-8.54177
tim	-8.5478
ati	-8.54947
▁pa	-8.55252
▁Ha	-8.5528
▁art	-8.55286
▁once	-8.553
▁nobis	-8.55429
ad	-8.55619
cto	-8.55647
ntur	-8.55715
▁ten	-8.55728
▁work	-8.55765
▁order	-8.55786
▁quoniam	-8.55826
▁lo	-8.55976
erant	-8.55997
▁taken	-8.56097
cum	-8.56102
▁cal	-8.56274
▁country	-8.5633
iae	-8.56444
▁fall	-8.5646
▁ter	-8.56503
▁saw	-8.56761
lle	-8.56836
▁De	-8.57066
▁cor	-8.57113
▁fr	-8.57238
dere	-8.57317
▁quis	-8.57343
cti	-8.57489
▁ever	-8.57611
fe	-8.57671
▁eam	-8.57826
rim	-8.57828
ite	-8.57839
▁quasi	-8.57974
ndum	-8.58088
▁sin	-8.58167
cula	-8.58256
▁brother	-8.58686
imus	-8.58806
▁They	-8.58982
▁na	-8.59009
▁just	-8.59078
▁cast	-8.59261
▁dixit	-8.59353
ine	-8.59358
rat	-8.59426
ck	-8.59567
▁done	-8.59595
ebant	-8.5977
▁nothing	-8.59845
▁pe	-8.60013
▁Al	-8.60142
ive	-8.60284
▁unto	-8.60304
▁lu	-8.60577
▁nam	-8.60868
▁spirit	-8.60971
ata	-8.61018
age	-8.61132
ign	-8.6115
red	-8.61182
▁sa	-8.61429
▁ipsa	-8.61772
bis	-8.61879
▁public	-8.61981
▁three	-8.61982
▁tempore	-8.62329
ol	-8.62353
▁ground	-8.62539
ram	-8.62801
ita	-8.62813
endi	-8.62817
▁sons	-8.62854
sset	-8.6321
▁em	-8.63218
▁Sed	-8.63259
ntem	-8.63381
▁duc	-8.63649
▁What	-8.63668
▁sui	-8.63727
▁gra	-8.63869
nte	-8.64234
antur	-8.64259
▁thought	-8.64453
▁others	-8.64478
▁multa	-8.64635
for	-8.64645
▁Re	-8.64803
▁ait	-8.64814
me	-8.64846
▁mother	-8.65026
▁ni	-8.65313
▁last	-8.65408
▁tri	-8.65463
▁glory	-8.65697
▁viri	-8.65751
▁Ne	-8.65779
▁erant	-8.65812
▁saying	-8.6604
▁sc	-8.66095
▁world	-8.66328
▁each	-8.66397
▁sword	-8.66766
▁gen	-8.66767
cis	-8.66784
▁little	-8.6728
nes	-8.6739
▁present	-8.67577
▁uti	-8.67674
ntibus	-8.67874
▁No	-8.67944
▁Christ	-8.68016
▁w	-8.68439
▁rather	-8.68464
▁cre	-8.68548
▁nisi	-8.68607
ula	-8.68897
ance	-8.69106
▁Rome	-8.69293
tro	-8.69552
▁habe	-8.6962
▁ru	-8.69729
▁veni	-8.69874
▁op	-8.69969
▁You	-8.70106
▁His	-8.70154
quam	-8.70186
▁sol	-8.70353
ath	-8.70431
and	-8.70948
▁year	-8.71015
tione	-8.71155
▁cl	-8.71163
▁thus	-8.7131
fu	-8.71398
▁sci	-8.71435
▁leg	-8.71464
▁hast	-8.71531
▁hope	-8.71568
▁fo	-8.71657
entem	-8.71991
led	-8.72008
▁labor	-8.72063
▁tra	-8.72079
▁suum	-8.7209
mina	-8.72098
iis	-8.72172
▁less	-8.72328
▁heard	-8.72375
tionem	-8.72476
▁tunc	-8.72658
▁ibi	-8.73033
▁keep	-8.73222
▁never	-8.7343
▁according	-8.73636
▁An	-8.7366
▁Ph	-8.73803
▁cer	-8.7399
▁i	-8.74102
▁word	-8.74322
▁nomen	-8.74376
▁Be	-8.74449
▁S	-8.74551
▁terram	-8.74554
▁ver	-8.74593
man	-8.74688
▁new	-8.74921
▁return	-8.75029
mque	-8.75072
▁desert	-8.75377
▁state	-8.75392
enti	-8.75397
ii	-8.75493
▁nu	-8.75543
▁There	-8.75621
▁dies	-8.75639
ies	-8.75775
▁kind	-8.75778
▁propter	-8.7578
▁neither	-8.75798
▁ira	-8.75799
cen	-8.75929
nti	-8.76202
fa	-8.76778
▁call	-8.77063
tibus	-8.77462
▁servi	-8.77697
ndo	-8.78093
▁cura	-8.78174
▁Su	-8.78199
▁conc	-8.78226
nam	-8.7823
ica	-8.78889
▁vis	-8.79174
▁sun	-8.79378
qua	-8.79489
▁suam	-8.79501
▁Ad	-8.79738
eque	-8.79775
▁Di	-8.79867
▁alia	-8.80111
▁speak	-8.80113
▁pugna	-8.80136
▁maior	-8.80254
▁manus	-8.80451
▁liber	-8.8049
▁igitur	-8.80639
▁Na	-8.80817
one	-8.81022
etur	-8.8106
▁think	-8.8122
▁causa	-8.81262
▁law	-8.81563
nda	-8.81621
▁human	-8.81649
▁honour	-8.81707
▁strength	-8.82156
ria	-8.82361
▁above	-8.82509
▁tribu	-8.82631
▁between	-8.82677
▁saith	-8.82769
atis	-8.82862
▁omni	-8.82928
lia	-8.83448
▁young	-8.83546
▁B	-8.8362
▁ye	-8.83695
▁inde	-8.83757
▁pater	-8.83904
▁either	-8.84321
▁ecce	-8.84584
▁home	-8.84612
▁river	-8.84738
rem	-8.84761
▁general	-8.84842
ea	-8.84927
lium	-8.85178
isse	-8.85264
cre	-8.85375
lli	-8.85543
xi	-8.8556
▁late	-8.85614
▁regis	-8.85652
▁Domino	-8.85726
▁tantum	-8.85727
▁filius	-8.85818
ice	-8.85971
res	-8.86032
▁find	-8.86318
xit	-8.86449
▁reason	-8.86615
▁senate	-8.86705
lig	-8.86852
▁hundred	-8.86972
▁bi	-8.87005
uri	-8.87071
▁On	-8.87189
verunt	-8.8727
▁close	-8.87289
▁illum	-8.87369
▁para	-8.87391
▁su	-8.87463
▁line	-8.8751
▁illis	-8.87533
▁does	-8.87689
▁sh	-8.87758
▁dicit	-8.87837
▁Mo	-8.87869
ias	-8.88037
▁leave	-8.88234
▁ci	-8.88324
ward	-8.88353
▁facie	-8.88437
▁quas	-8.88616
▁lay	-8.88708
▁offer	-8.8883
ui	-8.89025
▁thing	-8.89153
▁evil	-8.89159
hel	-8.89393
▁already	-8.89603
▁full	-8.89626
▁semper	-8.89791
▁una	-8.89817
tatem	-8.89915
▁Le	-8.90035
▁Ga	-8.90191
erent	-8.90197
▁Am	-8.90276
▁cause	-8.90676
▁began	-8.90718
▁walls	-8.90746
▁fac	-8.90803
▁thousand	-8.90809
▁Do	-8.90877
▁hi	-8.91017
ina	-8.91067
▁ora	-8.91572
nae	-8.91589
rentur	-8.91687
he	-8.91742
▁stand	-8.91924
▁seen	-8.92041
▁ve	-8.92122
atum	-8.92181
▁miser	-8.92276
▁tene	-8.92298
▁voice	-8.92306
▁wife	-8.92307
cent	-8.92547
▁emperor	-8.9259
▁sight	-8.92792
▁Da	-8.92875
▁often	-8.92898
▁statu	-8.92962
▁near	-8.92995
enda	-8.9313
chi	-8.93197
▁Therefore	-8.93351
▁secret	-8.93366
▁populi	-8.9365
cy	-8.93818
batur	-8.94037
▁turn	-8.94074
▁plan	-8.94074
▁cuncta	-8.94118
ida	-8.94731
nia	-8.94746
▁loco	-8.94759
▁rerum	-8.95116
ab	-8.95175
▁fact	-8.95292
▁vir	-8.95412
ntia	-8.95426
ps	-8.95753
mon	-8.95794
▁parent	-8.96007
▁Iuda	-8.96055
▁Me	-8.96138
▁sign	-8.96251
rium	-8.96383
▁domum	-8.9647
▁omnium	-8.96872
▁inquit	-8.96877
tatis	-8.96901
▁Ti	-8.96943
▁hold	-8.96994
▁venit	-8.97181
▁few	-8.97315
ger	-8.97337
ras	-8.97679
▁porta	-8.97709
▁fortuna	-8.97756
▁dedit	-8.97758
▁certain	-8.97824
▁round	-8.97942
▁soul	-8.9805
▁victor	-8.98229
pa	-8.98237
umque	-8.98379
bantur	-8.98422
bitur	-8.98427
cut	-8.98474
▁gold	-8.98498
isset	-8.98652
▁disp	-8.9876
▁Let	-8.98805
ior	-8.98878
▁hear	-8.98911
▁bear	-8.98918
▁nostra	-8.99037
▁ho	-8.99039
tic	-8.99067
▁carried	-8.99354
dam	-8.99354
▁move	-8.99357
▁regem	-8.99476
▁kings	-8.99642
▁hard	-8.99843
▁dead	-8.99937
▁greater	-8.99938
▁fathers	-8.99948
hi	-9.00014
▁illius	-9.00284
▁spe	-9.00331
▁open	-9.00372
▁act	-9.00446
▁care	-9.00457
▁held	-9.00461
),	-9.00713
▁legion	-9.00752
▁rebus	-9.00757
scit	-9.00823
▁unum	-9.00858
▁natura	-9.00908
▁fecit	-9.0095
▁point	-9.00992
dum	-9.01091
endum	-9.01148
un	-9.0142
nos	-9.01438
I	-9.01581
▁medio	-9.01613
▁metu	-9.01787
▁free	-9.01806
▁defend	-9.02131
▁belli	-9.02143
▁castra	-9.02354
▁Fa	-9.02414
sit	-9.0243
▁le	-9.02435
▁strong	-9.02439
▁course	-9.0244
▁nation	-9.02626
▁turba	-9.02682
con	-9.02688
▁Pa	-9.02749
ire	-9.02846
▁troops	-9.02857
▁dep	-9.02893
ence	-9.02947
ili	-9.03005
bunt	-9.03155
▁Ac	-9.0319
▁primum	-9.03279
▁confi	-9.03369
▁Qui	-9.03395
des	-9.0343
▁fell	-9.03476
▁nature	-9.03493
▁Moses	-9.03502
▁col	-9.03695
▁Cy	-9.03699
▁look	-9.03727
▁lib	-9.03753
▁itself	-9.03808
▁cut	-9.03941
torum	-9.0399
ric	-9.04138
▁Ta	-9.04195
▁Jesus	-9.04351
▁opera	-9.04496
▁form	-9.04518
ntis	-9.04563
▁nulla	-9.04673
▁habita	-9.04684
▁Thus	-9.04767
▁mon	-9.04833
▁until	-9.04984
▁domus	-9.05156
ving	-9.05171
nem	-9.05176
▁Po	-9.05268
▁triumph	-9.05303
▁minus	-9.05523
▁populo	-9.0553
▁comm	-9.05685
▁plain	-9.05807
ach	-9.05946
▁cr	-9.05957
ente	-9.06034
▁vita	-9.06052
▁posse	-9.06251
▁Juda	-9.06275
▁whether	-9.06275
▁received	-9.06321
isti	-9.06408
▁voca	-9.0647
▁use	-9.06472
▁cannot	-9.06494
▁nomine	-9.06501
▁tell	-9.06596
▁turned	-9.06705
▁That	-9.06818
▁duo	-9.06831
▁deep	-9.06899
▁force	-9.06997
▁prima	-9.07043
▁vestra	-9.0726
▁regi	-9.07265
▁potest	-9.07382
▁W	-9.07486
rae	-9.07542
▁Or	-9.0758
▁rei	-9.0774
▁indeed	-9.07904
▁temple	-9.07937
▁anima	-9.08171
oth	-9.08171
sus	-9.08493
▁sal	-9.08494
▁command	-9.08559
▁case	-9.08594
▁mora	-9.08626
▁These	-9.08785
▁cities	-9.08834
▁town	-9.09099
▁matter	-9.09142
ke	-9.09157
▁Pro	-9.09257
llo	-9.09295
▁kept	-9.09365
▁terrae	-9.09385
▁fortune	-9.09482
▁tui	-9.09575
▁iuxta	-9.09701
▁live	-9.09788
▁praeter	-9.10094
▁Egypt	-9.10265
ned	-9.10457
▁here	-9.10556
if	-9.10604
▁certa	-9.1073
▁animi	-9.10749
▁Ba	-9.10788
▁summa	-9.10873
▁unde	-9.1095
▁later	-9.1097
rd	-9.1106
▁ipso	-9.11135
culo	-9.1117
▁primo	-9.11292
▁flu	-9.11334
pta	-9.1134
▁ipsi	-9.11497
▁V	-9.11604
▁feet	-9.11625
▁tuum	-9.11708
▁ipsum	-9.11746
gere	-9.11779
▁Go	-9.11829
▁armis	-9.11868
ex	-9.11937
▁gravi	-9.11996
ctis	-9.12574
▁altar	-9.12693
oni	-9.12722
up	-9.12733
▁help	-9.1284
ries	-9.1292
▁We	-9.12927
▁cogno	-9.12967
▁Who	-9.13028
▁spoke	-9.13044
▁D	-9.13137
▁alone	-9.13171
▁facere	-9.13179
entibus	-9.13336
ho	-9.13521
▁G	-9.13988
▁charge	-9.14076
▁parte	-9.14077
▁honor	-9.14231
ore	-9.14244
▁via	-9.14368
▁holy	-9.14553
avi	-9.14559
ito	-9.1457
▁es	-9.14805
▁pet	-9.14962
▁saepe	-9.15012
▁illo	-9.15108
▁mighty	-9.15109
▁cap	-9.15121
▁hinc	-9.1513
▁manner	-9.15138
▁follow	-9.15158
▁bello	-9.15175
za	-9.15209
▁nostri	-9.15451
▁Jerusalem	-9.15487
▁tempus	-9.15487
om	-9.15503
lem	-9.15518
▁soon	-9.15539
▁imperator	-9.15674
ight	-9.15684
▁crime	-9.15767
pro	-9.15913
▁ordered	-9.15931
▁ancient	-9.16084
▁accept	-9.16086
▁mu	-9.16191
▁quorum	-9.16201
nas	-9.16222
▁haud	-9.16273
▁d	-9.16293
ler	-9.16296
▁laid	-9.16336
ix	-9.16346
▁locum	-9.16409
▁common	-9.16448
cere	-9.16509
▁send	-9.16594
▁milia	-9.16599
▁suae	-9.16961
itus	-9.17135
bili	-9.17146
▁adhuc	-9.17169
▁meum	-9.17206
▁pen	-9.17218
▁intra	-9.17248
inus	-9.17323
▁proper	-9.17344
ship	-9.17462
▁St	-9.17473
▁woman	-9.17532
▁quin	-9.17556
▁stra	-9.1756
▁satis	-9.17695
ani	-9.17714
▁kingdom	-9.17809
▁mouth	-9.17898
ring	-9.17911
ties	-9.18051
ding	-9.18067
▁second	-9.18265
der	-9.18327
▁Nam	-9.18371
▁seek	-9.18396
▁Bo	-9.1868
▁god	-9.18705
antes	-9.18758
▁waters	-9.18884
dis	-9.18994
▁better	-9.19138
▁caput	-9.19177
▁alter	-9.19231
▁eat	-9.19318
▁pot	-9.19499
▁bo	-9.19552
▁prophet	-9.19716
▁Eu	-9.19742
▁hunc	-9.1987
▁thereof	-9.19873
▁always	-9.20119
dux	-9.20159
j	-9.20267
▁sex	-9.20386
▁spar	-9.2042
▁midst	-9.20521
▁pray	-9.20605
▁need	-9.20608
▁Alexander	-9.20619
▁rap	-9.2073
▁stood	-9.20996
▁fla	-9.2112
▁Saul	-9.2136
▁diebus	-9.21417
ue	-9.21447
▁mortal	-9.21501
cha	-9.2153
▁praise	-9.21572
▁why	-9.21627
▁remain	-9.21691
▁mis	-9.21799
▁vitae	-9.21855
▁nations	-9.22181
▁idem	-9.2236
▁hominum	-9.2239
▁cavalry	-9.22518
▁show	-9.22558
▁four	-9.22624
▁coming	-9.22737
▁test	-9.23069
▁bellum	-9.23107
▁joy	-9.23125
▁fuerit	-9.23348
▁hanc	-9.23418
▁habet	-9.23687
▁filia	-9.23687
▁within	-9.23732
▁youth	-9.23783
▁faith	-9.23786
ero	-9.23906
▁forte	-9.23935
▁opus	-9.2414
▁th	-9.2416
▁sat	-9.24318
▁known	-9.24356
▁fama	-9.24562
]	-9.24845
▁foot	-9.24897
▁memor	-9.25051
▁Scipio	-9.25107
▁although	-9.2511
menta	-9.25127
▁mari	-9.25131
▁facta	-9.25243
▁sint	-9.25262
endo	-9.25487
tionibus	-9.25691
▁specta	-9.25692
▁fur	-9.25875
▁mori	-9.25944
▁After	-9.2603
▁illud	-9.26058
▁Con	-9.26067
▁verba	-9.26109
▁omnem	-9.26111
bile	-9.26146
hen	-9.26241
▁danger	-9.26266
>	-9.26294
▁air	-9.26394
▁com	-9.2644
▁solum	-9.26488
▁Deo	-9.26488
▁tuo	-9.26528
▁dicens	-9.26531
▁glo	-9.26689
▁true	-9.26701
▁omne	-9.26708
▁rise	-9.26723
▁occid	-9.26738
▁sanguine	-9.26747
▁ill	-9.26796
▁deinde	-9.26962
▁sound	-9.26966
abat	-9.26989
pes	-9.27064
dici	-9.27091
▁Ge	-9.27169
ary	-9.27221
▁except	-9.27233
▁gratia	-9.27313
▁animo	-9.27322
▁favour	-9.27332
▁bella	-9.27349
▁possession	-9.27369
▁able	-9.27379
▁tanta	-9.27381
tionis	-9.27514
▁urbem	-9.27561
▁passed	-9.27607
anus	-9.27659
▁pu	-9.27688
▁Co	-9.27688
▁coram	-9.27731
▁desire	-9.27843
▁suos	-9.27863
▁fame	-9.2787
▁Pe	-9.27971
▁fine	-9.28034
▁chief	-9.28035
▁seque	-9.28163
▁eadem	-9.28243
▁read	-9.28278
▁Ra	-9.28471
▁Jo	-9.28483
▁[	-9.28586
itis	-9.28598
▁sacrifice	-9.28648
▁meo	-9.28696
▁populus	-9.28715
▁mira	-9.29008
entur	-9.29029
▁Hierusalem	-9.29121
ious	-9.29193
▁want	-9.29247
▁Gaul	-9.29368
▁caelo	-9.29403
▁soli	-9.29497
▁Father	-9.29532
▁cup	-9.29613
▁Nero	-9.29622
ebatur	-9.29659
leg	-9.29778
▁along	-9.29809
ish	-9.29854
▁rule	-9.29897
▁gloria	-9.29911
▁short	-9.2995
rius	-9.29953
mur	-9.30041
▁commanded	-9.30101
▁sive	-9.30142
lum	-9.30211
▁diem	-9.30324
▁Quo	-9.30439
▁pal	-9.30599
▁Non	-9.30611
▁levi	-9.30648
▁service	-9.3067
▁vesti	-9.30709
amus	-9.30725
▁ful	-9.30795
ino	-9.30805
▁friend	-9.30853
▁priest	-9.30859
lius	-9.30867
uerunt	-9.30893
cae	-9.30992
▁small	-9.31051
▁become	-9.31051
▁bishop	-9.3119
▁multo	-9.31302
▁wish	-9.31334
▁region	-9.31357
entia	-9.31391
rio	-9.31559
tem	-9.31566
▁Why	-9.31609
▁sky	-9.31749
▁terror	-9.31765
▁All	-9.31775
▁fight	-9.31955
eri	-9.31964
▁corn	-9.32009
▁master	-9.3204
▁angel	-9.32063
▁equi	-9.32089
▁silent	-9.32192
▁exercitus	-9.32283
▁truth	-9.3235
▁person	-9.3238
erint	-9.32408
▁however	-9.32453
▁returned	-9.32479
▁ratione	-9.32569
ribus	-9.32617
▁Thou	-9.32631
▁provincia	-9.32728
▁leader	-9.32792
tudine	-9.32832
▁Sc	-9.32912
▁equal	-9.32948
▁grow	-9.3295
▁receive	-9.32959
ros	-9.33008
▁Hannibal	-9.33018
▁brethren	-9.33018
itate	-9.33086
▁mens	-9.33213
ntium	-9.33227
▁j	-9.33269
▁forces	-9.33318
▁wine	-9.33336
▁Va	-9.33355
▁velut	-9.33377
missa	-9.33525
▁mox	-9.33534
▁Africa	-9.33588
▁magno	-9.3359
▁caeli	-9.336
isque	-9.33622
orem	-9.33779
▁Romani	-9.33925
▁inveni	-9.3408
▁horse	-9.3418
▁bound	-9.34193
▁places	-9.34277
▁Per	-9.34299
▁copia	-9.3432
▁port	-9.34388
▁believe	-9.34392
▁following	-9.34447
▁redi	-9.34479
▁puer	-9.34535
▁behold	-9.34592
▁stream	-9.34594
▁factum	-9.34651
▁mulier	-9.34741
cumque	-9.3485
quis	-9.34878
tulit	-9.34905
▁consider	-9.3494
▁fate	-9.35003
▁legions	-9.3516
▁judgment	-9.3517
▁clear	-9.35172
ze	-9.35174
▁comes	-9.35178
▁friends	-9.3522
▁exist	-9.35222
▁supra	-9.35316
▁ready	-9.35376
▁mei	-9.35493
che	-9.35583
verat	-9.35738
▁foe	-9.35787
▁daughter	-9.35854
▁march	-9.35902
cessit	-9.35937
▁Vi	-9.36041
▁Nec	-9.36152
▁Of	-9.36189
▁signa	-9.36242
ulum	-9.3631
▁Te	-9.36345
▁Quod	-9.36409
nde	-9.36409
▁Nor	-9.36456
▁dare	-9.36464
▁office	-9.36472
▁loca	-9.36489
entis	-9.36526
▁bu	-9.36529
▁bene	-9.36541
▁postquam	-9.36559
▁Babylon	-9.36631
▁os	-9.36656
▁How	-9.36679
▁enough	-9.36779
bas	-9.36779
▁corpore	-9.36779
▁former	-9.36843
▁muta	-9.36895
ssent	-9.36998
▁slain	-9.37075
culum	-9.37097
▁Cum	-9.37161
ulo	-9.37171
▁large	-9.37192
ini	-9.37256
ura	-9.37263
▁quiet	-9.37268
▁Asia	-9.37308
▁cruel	-9.37356
▁voce	-9.37407
▁nemo	-9.3766
▁numero	-9.37679
▁lest	-9.37795
▁wind	-9.37831
▁column	-9.37846
▁seem	-9.37878
▁serva	-9.37999
▁cu	-9.38194
lla	-9.38223
inum	-9.3825
▁race	-9.3831
▁mare	-9.38427
▁noble	-9.38899
▁populum	-9.39018
sima	-9.39098
▁ordin	-9.39149
▁attack	-9.39198
▁Par	-9.39208
▁rege	-9.39261
▁domo	-9.39285
▁shore	-9.3932
▁red	-9.39332
uere	-9.39388
▁Antonius	-9.39412
▁followed	-9.39439
▁aqua	-9.39668
▁pars	-9.39684
dunt	-9.39689
▁mali	-9.39721
▁suc	-9.3973
▁itaque	-9.39971
▁lege	-9.40012
▁fit	-9.40032
▁filled	-9.4019
verit	-9.40242
▁answered	-9.40273
▁procul	-9.40383
▁enemies	-9.40533
▁speech	-9.40534
▁modi	-9.40702
▁habere	-9.4078
▁wicked	-9.40798
▁husband	-9.40839
▁myself	-9.40839
▁universa	-9.40843
▁bodies	-9.41147
▁court	-9.41178
▁vix	-9.41293
▁built	-9.41301
▁divi	-9.41325
▁fru	-9.41342
▁content	-9.41347
▁pecca	-9.41386
▁dextra	-9.41456
▁potius	-9.4152
▁purpose	-9.4161
elli	-9.41696
▁breast	-9.4192
▁flight	-9.4193
▁six	-9.41932
ione	-9.41996
▁born	-9.42008
▁hos	-9.42074
▁nocte	-9.4209
▁donec	-9.42142
▁times	-9.42208
▁class	-9.42246
▁Ab	-9.42456
▁Dominum	-9.42542
▁vice	-9.42603
▁quantum	-9.4286
▁partem	-9.42911
▁going	-9.4301
▁third	-9.43012
▁height	-9.4303
▁ask	-9.43035
▁towards	-9.43063
▁misit	-9.43106
onia	-9.43128
▁watch	-9.43169
▁book	-9.43188
▁refer	-9.43197
▁huius	-9.43201
itum	-9.43311
▁fl	-9.43412
▁break	-9.43483
▁multitude	-9.43484
▁subject	-9.43641
▁pla	-9.43654
▁none	-9.43673
▁comit	-9.43733
▁memoria	-9.43766
▁filium	-9.43829
▁diu	-9.43893
▁fle	-9.43979
▁muni	-9.4402
▁measure	-9.4412
▁led	-9.44174
▁seven	-9.44189
▁beginning	-9.44256
▁perfect	-9.44285
▁flow	-9.44377
▁secundum	-9.44433
▁regard	-9.44434
▁next	-9.44437
issima	-9.44468
▁My	-9.44554
▁sleep	-9.44752
▁alii	-9.44764
▁anno	-9.44857
▁agit	-9.44869
▁sus	-9.44957
▁field	-9.45014
igi	-9.45019
▁flesh	-9.45076
▁nova	-9.45096
▁prius	-9.45113
▁spear	-9.45182
ated	-9.45292
ato	-9.45304
unc	-9.45324
▁Deum	-9.45366
▁fruit	-9.45434
▁firm	-9.45501
▁month	-9.45521
▁umbra	-9.45554
▁tuam	-9.45554
▁till	-9.4556
▁sola	-9.45568
ments	-9.45664
▁mur	-9.45708
▁quidam	-9.45827
▁multi	-9.45853
▁bona	-9.45856
lat	-9.45924
▁fast	-9.45968
▁rich	-9.46066
ator	-9.46178
▁spread	-9.46224
▁lost	-9.46247
▁bow	-9.46303
▁regna	-9.46612
▁With	-9.46695
▁meet	-9.46725
▁navi	-9.46769
▁celebra	-9.46849
▁cohort	-9.46973
▁action	-9.47274
▁dig	-9.47277
▁virum	-9.47288
▁making	-9.47372
side	-9.47376
▁Qua	-9.47407
▁press	-9.47426
den	-9.47459
▁servant	-9.47522
runt	-9.47544
▁tempt	-9.4755
tine	-9.47639
▁forma	-9.47641
▁account	-9.47832
▁Italy	-9.47879
▁eodem	-9.47943
▁enter	-9.48019
▁simili	-9.48123
▁drink	-9.48162
▁corpus	-9.48164
▁descend	-9.48201
ning	-9.48223
▁facit	-9.48233
▁Quid	-9.48236
▁merit	-9.48255
▁Ag	-9.4833
▁vale	-9.48332
▁primi	-9.48335
▁victory	-9.48477
▁guard	-9.48507
▁ought	-9.48538
▁Br	-9.48702
ebantur	-9.48722
cius	-9.48734
▁conci	-9.48747
▁hac	-9.48851
▁cumque	-9.48851
ella	-9.48941
ging	-9.49092
▁hair	-9.49094
urus	-9.49267
▁told	-9.49306
tores	-9.4937
▁boy	-9.49755
▁learned	-9.49897
▁money	-9.49999
▁sort	-9.50044
▁fun	-9.5005
▁province	-9.5006
▁horses	-9.50272
▁judge	-9.50275
dy	-9.50281
▁cru	-9.50345
▁fierce	-9.50502
▁pati	-9.50533
▁fieri	-9.5054
▁Ni	-9.50563
▁ships	-9.50599
king	-9.50686
▁pan	-9.50767
▁victim	-9.50842
▁septem	-9.5101
horr	-9.51151
▁breath	-9.5118
▁Hi	-9.51186
uisse	-9.51398
ulus	-9.51446
▁dwell	-9.51506
▁locutus	-9.51521
▁tears	-9.51684
▁Aaron	-9.51692
▁fail	-9.51694
mentum	-9.5174
col	-9.51749
▁eager	-9.51752
▁Itaque	-9.51758
▁genus	-9.51803
▁draw	-9.51824
tium	-9.51861
▁multis	-9.51935
▁placed	-9.51987
▁vast	-9.52004
▁ore	-9.5214
shed	-9.52253
▁chance	-9.52255
▁mark	-9.52382
▁dicere	-9.52426
▁grave	-9.52479
▁shield	-9.52551
▁asked	-9.52586
▁answer	-9.52844
▁sole	-9.5285
▁iudica	-9.52897
▁authority	-9.52908
▁indu	-9.52948
▁unus	-9.53038
▁wild	-9.5307
▁walk	-9.53071
▁fide	-9.53073
▁letter	-9.5312
▁eas	-9.53132
▁iura	-9.5351
▁patri	-9.5355
▁spring	-9.53592
▁oculos	-9.53594
▁transi	-9.53699
▁tuae	-9.53737
port	-9.53778
▁numquam	-9.5378
▁works	-9.538
▁living	-9.53814
▁quando	-9.53871
▁used	-9.53874
▁fini	-9.53876
▁imple	-9.53944
rit	-9.53985
▁five	-9.54071
▁adversa	-9.54184
▁ascend	-9.54205
▁run	-9.54254
▁chariot	-9.54291
▁hour	-9.54317
eat	-9.54365
▁homo	-9.54387
dens	-9.54422
▁sententia	-9.54518
▁fidem	-9.54599
▁habent	-9.54687
▁offered	-9.54697
▁parts	-9.54777
▁herself	-9.54819
▁licet	-9.54823
▁front	-9.54859
▁praetor	-9.54865
▁lauda	-9.54865
▁prior	-9.54868
▁German	-9.54986
▁conspectu	-9.55028
▁accipi	-9.55029
▁uxor	-9.55206
▁revert	-9.55212
▁Tu	-9.55285
▁nomina	-9.55462
▁uno	-9.55478
▁effect	-9.55528
▁success	-9.55548
▁homines	-9.55569
▁means	-9.55711
mento	-9.55718
▁prodi	-9.55724
▁dona	-9.55778
▁stone	-9.55828
▁past	-9.55842
▁sweet	-9.55884
▁longe	-9.55929
▁<	-9.5596
▁Quae	-9.55981
▁sought	-9.56077
▁wide	-9.56091
▁tuus	-9.56105
▁hostium	-9.56115
▁worthy	-9.56174
▁length	-9.56242
▁oculis	-9.56347
▁broken	-9.56355
▁different	-9.56392
▁dux	-9.56429
▁Yet	-9.56474
▁native	-9.56476
▁infer	-9.56486
▁knew	-9.566
▁weapons	-9.56612
▁aure	-9.56673
▁fields	-9.56696
▁wood	-9.56728
▁courage	-9.5678
▁servants	-9.56804
▁disce	-9.56828
ld	-9.56891
▁birth	-9.56961
▁Haec	-9.56967
▁Behold	-9.57141
▁respect	-9.57141
ora	-9.57164
▁pav	-9.57249
▁wise	-9.57283
▁poena	-9.5738
▁sese	-9.57479
▁gem	-9.57534
▁ire	-9.5764
▁poor	-9.57671
▁beyond	-9.57684
▁corpora	-9.57685
▁tuis	-9.57759
icum	-9.57803
▁alien	-9.57899
▁fratres	-9.5792
▁senatus	-9.58032
▁suddenly	-9.58051
▁Syria	-9.58078
▁Ex	-9.58097
▁appar	-9.582
▁castris	-9.58219
▁knowledge	-9.58231
▁ius	-9.58272
▁Ch	-9.5834
▁nostris	-9.58395
▁pay	-9.58408
lata	-9.5843
▁filios	-9.58464
▁neck	-9.58489
eretur	-9.5855
bar	-9.58599
▁pariter	-9.58653
▁beasts	-9.58657
▁anger	-9.587
▁rank	-9.58824
▁patris	-9.58903
▁natural	-9.58938
▁custom	-9.58964
dus	-9.58973
▁By	-9.59006
▁novi	-9.59017
▁capi	-9.59049
▁forward	-9.59135
atione	-9.59183
▁ferre	-9.59235
▁vall	-9.59242
▁poet	-9.59259
▁mater	-9.59324
▁constant	-9.59398
issimo	-9.59433
▁maxime	-9.59518
▁unda	-9.59558
▁seed	-9.5956
▁aid	-9.59567
▁resist	-9.59625
▁lead	-9.59683
▁raised	-9.59739
▁amid	-9.59763
▁killed	-9.59868
▁Ita	-9.59873
▁behind	-9.59888
▁caelum	-9.5989
▁male	-9.59981
▁weight	-9.60058
▁example	-9.60074
vere	-9.60079
▁suas	-9.60175
ions	-9.60184
▁frequent	-9.60262
▁illos	-9.60284
▁vain	-9.60377
▁meus	-9.60388
▁iter	-9.60504
cas	-9.60561
▁dem	-9.60588
▁driven	-9.606
cli	-9.60604
▁cunctis	-9.60608
▁pleasure	-9.60634
▁delay	-9.60641
aque	-9.60721
ruit	-9.6073
inis	-9.60895
▁divers	-9.6091
ique	-9.60953
▁met	-9.60955
▁Je	-9.60985
▁virtute	-9.60995
▁publica	-9.61089
▁sacra	-9.61145
ulis	-9.61184
▁path	-9.61234
▁luc	-9.61289
▁approach	-9.61385
▁ultra	-9.61386
▁relic	-9.61526
▁stars	-9.61535
▁adversus	-9.61574
ened	-9.61606
ched	-9.61615
▁acer	-9.61647
▁plant	-9.61714
▁filiis	-9.61741
▁suffer	-9.61761
▁written	-9.61763
▁pedes	-9.61834
▁destroy	-9.61949
▁annos	-9.61959
▁prosper	-9.61976
▁single	-9.62063
▁half	-9.62142
▁reward	-9.62152
here	-9.62229
▁tongue	-9.62333
▁respondit	-9.62397
▁fuga	-9.62466
▁fuisse	-9.62488
▁best	-9.62551
▁moment	-9.6257
▁meam	-9.62703
▁radi	-9.62762
▁women	-9.62905
▁change	-9.62944
▁Not	-9.62956
▁winter	-9.62964
▁delivered	-9.62975
▁doubt	-9.63062
▁gone	-9.63116
▁pain	-9.63211
▁morte	-9.63217
▁cover	-9.63228
▁wrath	-9.63288
▁storm	-9.63294
▁institu	-9.63297
wn	-9.63299
▁acci	-9.63423
▁flee	-9.6363
abant	-9.63644
▁visit	-9.63646
▁quippe	-9.63676
▁media	-9.63695
▁bar	-9.63704
▁carry	-9.63706
▁wall	-9.63803
▁superior	-9.63812
▁custodi	-9.64107
▁quadr	-9.64174
▁vitam	-9.64246
▁verbum	-9.64255
▁credi	-9.64285
▁sancti	-9.64294
▁miles	-9.64371
▁prompt	-9.64423
▁posset	-9.64542
▁idol	-9.64673
▁quinque	-9.64687
▁capit	-9.64823
▁tali	-9.64893
▁sister	-9.64906
▁ignis	-9.6494
▁seu	-9.65081
▁ev	-9.65095
▁trust	-9.65194
▁Ut	-9.65228
▁Post	-9.65239
ping	-9.65404
▁taking	-9.65425
▁ista	-9.65437
▁Augustus	-9.65463
ked	-9.65533
▁namque	-9.65578
▁further	-9.65621
▁view	-9.65627
▁tamquam	-9.65674
▁familia	-9.65768
▁mountains	-9.65823
▁mane	-9.65872
▁villa	-9.65931
▁character	-9.66015
▁prope	-9.66019
ores	-9.66028
uli	-9.66096
▁arce	-9.6615
issent	-9.66186
▁remember	-9.66212
▁kill	-9.66235
▁principes	-9.66346
llum	-9.66347
▁cetera	-9.66411
▁lab	-9.66435
▁ordine	-9.66546
▁ears	-9.6658
▁silver	-9.6661
▁erunt	-9.66655
ped	-9.66687
▁Tha	-9.66727
▁Gallia	-9.66741
▁child	-9.66807
▁savage	-9.67007
▁nullo	-9.67036
fied	-9.67143
▁ecclesia	-9.67204
▁sermone	-9.67298
▁generation	-9.6741
▁quamquam	-9.67441
▁justice	-9.67452
▁priests	-9.67475
▁tale	-9.67544
ones	-9.67548
▁patres	-9.67557
▁abi	-9.67591
▁From	-9.67609
▁victoria	-9.67676
▁Tyr	-9.67719
▁plus	-9.67766
▁lingua	-9.6781
quo	-9.67878
▁Can	-9.67983
▁ser	-9.68175
▁darkness	-9.6825
▁confer	-9.68269
▁praeda	-9.6827
▁praef	-9.68296
▁offering	-9.68397
▁regnum	-9.68414
▁treat	-9.68423
▁divine	-9.68434
ook	-9.68449
▁hominis	-9.68449
▁manibus	-9.68465
▁animal	-9.68468
▁bal	-9.68541
ios	-9.68587
▁wisdom	-9.68615
▁Cor	-9.6881
▁bank	-9.68818
▁adiu	-9.68895
▁Aegypti	-9.69021
libus	-9.69056
▁occur	-9.69064
▁reliqui	-9.69115
▁Christian	-9.69117
▁swift	-9.69225
▁support	-9.69229
▁Here	-9.69265
▁Latin	-9.69276
cos	-9.69308
ionem	-9.69383
▁host	-9.69399
▁false	-9.69453
▁join	-9.69471
▁prince	-9.69476
▁mountain	-9.69628
▁Ru	-9.69657
▁serve	-9.69701
▁faciem	-9.69714
▁entered	-9.69731
▁speed	-9.6976
▁lit	-9.69891
▁mix	-9.69896
▁sail	-9.69946
ax	-9.69966
▁commander	-9.70009
▁counsel	-9.70043
▁pin	-9.70175
▁destroyed	-9.70252
▁ulla	-9.70253
▁punishment	-9.70264
▁almost	-9.7027
▁lord	-9.70287
itas	-9.7045
▁verum	-9.70453
▁holocaust	-9.70455
▁Paul	-9.70725
▁amore	-9.70783
▁pate	-9.70795
▁minor	-9.70799
▁exci	-9.70862
▁proba	-9.7087
▁fleet	-9.71011
▁manum	-9.71064
▁family	-9.71076
tati	-9.71206
bam	-9.71208
▁dark	-9.71245
▁diligent	-9.71259
▁quattuor	-9.71284
▁labour	-9.71285
nibus	-9.71297
lita	-9.7134
scere	-9.7134
▁extra	-9.71343
▁consum	-9.71385
▁X	-9.71459
▁due	-9.71496
tha	-9.71588
▁lack	-9.71622
antem	-9.71716
▁huic	-9.71717
▁Sal	-9.71724
▁scrip	-9.71818
▁cogita	-9.71856
bor	-9.71877
▁limbs	-9.71911
▁origin	-9.71919
▁invent	-9.71988
▁perish	-9.72072
▁ram	-9.72073
▁twenty	-9.7212
▁viros	-9.72126
rumque	-9.72195
▁iussit	-9.72204
▁Caesaris	-9.72218
▁error	-9.72254
▁orders	-9.72376
▁deos	-9.72394
▁Antoni	-9.72411
▁exercitu	-9.72453
fice	-9.72506
▁sudden	-9.72538
▁congrega	-9.72541
▁flamma	-9.72542
▁sorrow	-9.72752
▁fellow	-9.72753
▁k	-9.72754
▁witness	-9.72772
▁safe	-9.72813
▁extend	-9.72828
▁bid	-9.72908
get	-9.72921
▁report	-9.72935
▁imperium	-9.72959
▁beneath	-9.72988
▁mala	-9.73007
▁princes	-9.73103
▁publicae	-9.73116
▁impetu	-9.73174
▁locis	-9.73186
▁Eli	-9.73212
▁annis	-9.73236
▁volunt	-9.7341
▁get	-9.7351
bula	-9.7354
▁Her	-9.73562
▁damna	-9.73568
▁convert	-9.7357
dat	-9.73679
▁laeta	-9.73695
▁communi	-9.73712
vimus	-9.73723
▁cursu	-9.73742
▁supp	-9.73742
▁tempora	-9.73814
▁food	-9.73818
▁died	-9.73839
▁band	-9.73908
▁Hy	-9.73969
▁tandem	-9.74027
▁Apollo	-9.74028
▁building	-9.74071
▁added	-9.74144
ndam	-9.74147
▁mole	-9.74177
▁wealth	-9.74242
rii	-9.7432
▁iubet	-9.74321
script	-9.74337
▁glad	-9.74338
▁ruin	-9.74343
▁doce	-9.74419
▁deside	-9.7445
▁Vitellius	-9.74456
▁attend	-9.74465
▁adeo	-9.74501
aret	-9.74662
▁occasion	-9.74671
▁chosen	-9.74765
▁She	-9.74769
▁lac	-9.74883
▁arm	-9.74909
▁Romans	-9.74924
▁familiar	-9.74941
▁suorum	-9.74944
▁dat	-9.74996
▁fill	-9.75068
▁libera	-9.75103
oribus	-9.7511
▁longer	-9.75121
▁ideo	-9.75124
ide	-9.75205
land	-9.75253
▁virgin	-9.7538
▁aliis	-9.75401
▁frater	-9.75538
▁record	-9.7554
let	-9.75575
▁credit	-9.75617
▁dim	-9.75702
▁else	-9.75754
▁whatever	-9.75758
▁gather	-9.75836
▁tree	-9.75851
▁Fl	-9.75875
simi	-9.75921
▁covered	-9.75969
▁minister	-9.75974
▁magni	-9.76081
non	-9.76084
▁private	-9.76102
▁seemed	-9.76195
▁sure	-9.76239
▁Q	-9.76332
▁urbe	-9.7634
▁heat	-9.76393
▁Ve	-9.76425
▁position	-9.76429
via	-9.76462
▁appointed	-9.76549
▁gentes	-9.76557
gis	-9.76563
onem	-9.76564
▁viam	-9.76734
▁trees	-9.76767
▁num	-9.76805
▁flock	-9.76847
▁consilio	-9.7685
▁Pan	-9.76876
itatis	-9.76931
▁destruction	-9.77068
▁centurion	-9.77068
▁Sy	-9.77106
▁vigil	-9.77115
▁drawn	-9.77118
▁Ap	-9.77129
▁igne	-9.77153
▁touch	-9.77158
▁sides	-9.772
▁decree	-9.77223
▁grace	-9.7728
▁Jupiter	-9.77288
▁militum	-9.77289
▁shew	-9.77353
▁religion	-9.77447
▁famous	-9.77511
▁caede	-9.77558
▁hort	-9.77587
▁occup	-9.77606
▁aedifica	-9.77721
▁barbari	-9.77734
▁misera	-9.77827
▁Venus	-9.77854
▁fled	-9.77919
▁aliud	-9.77958
▁pra	-9.78008
▁possess	-9.78073
▁lie	-9.78105
▁Otho	-9.78131
▁plu	-9.78143
▁shame	-9.78156
▁possit	-9.78181
▁essent	-9.7825
▁Fi	-9.78336
▁quisque	-9.78364
▁blow	-9.784
etis	-9.78555
▁excel	-9.78575
▁endure	-9.78605
▁church	-9.78623
▁begin	-9.78648
▁space	-9.78848
▁propheta	-9.78902
▁Iesus	-9.78944
tori	-9.78997
▁lofty	-9.79072
▁habit	-9.79115
▁Lu	-9.79116
most	-9.79153
▁soror	-9.79282
▁sacred	-9.79298
▁opinion	-9.79299
▁wait	-9.79301
▁rising	-9.79306
▁parti	-9.79427
▁mercy	-9.7945
onis	-9.79468
▁plac	-9.79486
▁brave	-9.79546
issimum	-9.7956
▁multum	-9.79659
▁spo	-9.7967
decim	-9.79671
▁hum	-9.79691
▁fro	-9.79704
▁blessed	-9.79705
pis	-9.79721
▁Iesu	-9.79731
cam	-9.79744
▁Men	-9.79746
▁milites	-9.79777
lled	-9.79843
▁agro	-9.79853
▁domi	-9.79879
▁lin	-9.79923
▁Ser	-9.79943
▁Tiberius	-9.79965
▁corporis	-9.79976
▁stones	-9.79998
▁Aeneas	-9.80011
▁tower	-9.80112
some	-9.80134
▁spoken	-9.80163
▁pauper	-9.80204
▁roga	-9.8021
▁clari	-9.80285
ico	-9.80298
▁bed	-9.80309
ites	-9.80417
atio	-9.80505
ubi	-9.80534
▁tela	-9.80538
▁nega	-9.80574
▁videre	-9.80598
▁innocent	-9.80663
▁crede	-9.80674
▁Rh	-9.80676
ola	-9.80735
▁vocem	-9.80841
▁rain	-9.80842
▁prece	-9.80871
▁aliquid	-9.80888
▁black	-9.80888
hood	-9.80912
▁fructu	-9.80923
mission	-9.80933
▁Domine	-9.8094
▁sense	-9.80959
▁modum	-9.8096
▁sapientia	-9.81017
▁versa	-9.81023
antibus	-9.81069
▁decor	-9.81098
▁oper	-9.81101
▁pul	-9.81191
▁temper	-9.81226
▁postea	-9.81253
▁illam	-9.81332
▁yield	-9.81348
dom	-9.81478
▁cultu	-9.81478
▁mine	-9.8153
▁insula	-9.81543
ua	-9.81643
▁har	-9.81699
▁anything	-9.81811
▁delight	-9.81817
▁regni	-9.81822
her	-9.81848
▁dear	-9.81971
lent	-9.82028
▁comple	-9.8203
ally	-9.82034
▁ways	-9.82039
▁gifts	-9.82083
tant	-9.82209
▁Luc	-9.82265
▁seeing	-9.82294
▁ratio	-9.823
▁tres	-9.82304
▁tristi	-9.82339
▁vidit	-9.82352
▁pig	-9.82367
culis	-9.82393
▁pone	-9.82434
▁malum	-9.82565
▁Sic	-9.82622
▁animam	-9.82661
▁honore	-9.8267
▁dixerunt	-9.82738
▁manifest	-9.82738
▁everything	-9.8274
▁valid	-9.82758
▁white	-9.82776
▁cloth	-9.82778
▁deeds	-9.82917
▁heavy	-9.82972
▁gate	-9.83035
▁moved	-9.83069
▁commend	-9.83084
▁corrupt	-9.83112
▁Gr	-9.83152
▁interfec	-9.83154
▁Moreover	-9.83206
▁consilium	-9.83207
▁believed	-9.83297
▁gaude	-9.83441
▁primus	-9.83442
▁Cal	-9.83488
▁quondam	-9.83509
▁civitatem	-9.83538
hor	-9.83552
▁count	-9.83592
▁imita	-9.83595
▁molli	-9.8367
▁1	-9.83716
▁Cer	-9.83733
▁compos	-9.83772
▁Even	-9.83781
gressu	-9.83785
▁promise	-9.83797
▁mini	-9.83814
▁vultu	-9.83852
0	-9.83903
▁shout	-9.83912
but	-9.83972
▁citizens	-9.84131
▁sermo	-9.84141
▁virtue	-9.84156
turus	-9.84161
▁learn	-9.8417
▁asper	-9.84229
▁ship	-9.84231
▁fuerat	-9.84302
▁armed	-9.84428
▁soil	-9.84443
▁statim	-9.8447
rant	-9.84521
▁rid	-9.84607
▁mortem	-9.84712
icus	-9.84732
▁throne	-9.84861
▁least	-9.84863
▁Sulla	-9.84892
aria	-9.84932
▁brevi	-9.84975
▁gathered	-9.8501
▁err	-9.85011
▁fal	-9.85077
▁membra	-9.85099
▁profit	-9.85107
▁domina	-9.85128
▁ipsis	-9.85142
▁Ho	-9.85153
▁dedi	-9.85165
▁loss	-9.85174
▁trem	-9.85194
fo	-9.85195
▁fera	-9.85252
met	-9.85282
▁mount	-9.85289
day	-9.85317
gredi	-9.85361
▁nuntia	-9.85387
cui	-9.8543
▁hate	-9.85458
▁corde	-9.85483
▁filiorum	-9.85489
▁fat	-9.85489
▁aequa	-9.85504
▁animum	-9.85585
▁laws	-9.85586
▁Lib	-9.85589
▁difficult	-9.85627
▁bonum	-9.85644
▁auro	-9.85734
▁gates	-9.85752
▁provide	-9.8578
cem	-9.85801
▁struck	-9.85819
▁shade	-9.85829
stis	-9.85859
▁distance	-9.86061
▁proelia	-9.86065
▁oppress	-9.8607
▁exercitum	-9.86071
▁senator	-9.86075
time	-9.86075
▁deliver	-9.86216
▁hearts	-9.86291
▁immortal	-9.86301
▁enjoy	-9.86301
▁iustitia	-9.8633
▁alio	-9.86339
▁contend	-9.86373
urum	-9.86451
▁fixed	-9.86453
▁eight	-9.86514
▁worship	-9.86535
▁easily	-9.86546
▁cross	-9.8671
▁spiritus	-9.86757
▁tanto	-9.86801
▁ran	-9.86828
▁design	-9.86839
head	-9.8687
lae	-9.86872
▁waves	-9.86886
▁gift	-9.86986
▁equo	-9.87103
▁island	-9.87165
▁provinces	-9.8718
▁cave	-9.87241
▁cry	-9.87272
▁infirm	-9.87274
▁iron	-9.87276
▁arbor	-9.87281
▁centum	-9.87375
icit	-9.87385
▁remained	-9.87398
▁mass	-9.87492
▁por	-9.87523
▁hidden	-9.87525
▁Hoc	-9.87534
▁laude	-9.87572
scunt	-9.8764
▁Germani	-9.87713
▁anyone	-9.87722
▁uni	-9.87796
▁sing	-9.87841
▁rejoice	-9.88009
▁yourself	-9.88009
▁proceed	-9.88021
▁huc	-9.88026
▁low	-9.88029
▁nulli	-9.88067
▁cubit	-9.8807
▁One	-9.88081
▁nobili	-9.88161
▁Gaius	-9.88195
▁min	-9.88227
▁semi	-9.88248
▁Christi	-9.88252
▁skill	-9.88255
▁iterum	-9.88266
▁result	-9.88284
▁Pharao	-9.88285
▁indica	-9.88302
issime	-9.88394
▁varie	-9.88485
▁remo	-9.88553
▁stranger	-9.88591
▁quickly	-9.88612
ulta	-9.88619
▁humili	-9.88628
tare	-9.88634
▁cir	-9.88718
▁prove	-9.88755
▁safety	-9.88803
▁decem	-9.88849
▁vulg	-9.88873
▁silence	-9.88999
▁weak	-9.89022
▁nostro	-9.89146
▁priva	-9.89205
▁thick	-9.89247
rios	-9.89319
▁agree	-9.89337
▁ipsius	-9.89495
arch	-9.89499
▁iis	-9.89557
▁locus	-9.89609
▁regione	-9.8963
▁coepit	-9.89689
▁standing	-9.89693
▁iace	-9.89733
▁unless	-9.89796
▁spera	-9.89845
▁various	-9.89883
▁colli	-9.89973
▁company	-9.89997
▁pace	-9.90094
▁complete	-9.90098
▁hostem	-9.90194
▁Ver	-9.90198
▁dura	-9.90328
▁aliqua	-9.90358
▁peti	-9.90419
▁insigni	-9.90421
▁moenia	-9.905
issimi	-9.9051
▁friendship	-9.90518
▁sheep	-9.90537
▁Marti	-9.90541
▁ambula	-9.90559
▁makes	-9.90606
flu	-9.90621
▁rose	-9.90679
▁ferro	-9.90705
▁winds	-9.9074
▁torment	-9.90863
▁Palla	-9.90871
itatem	-9.90918
▁amor	-9.90934
▁viro	-9.90967
ectum	-9.91016
▁pride	-9.9102
bal	-9.91057
▁vidi	-9.91106
▁fighting	-9.91142
▁alios	-9.91178
versa	-9.91201
▁bra	-9.91252
▁misericordia	-9.91259
▁silva	-9.9126
▁honest	-9.91303
▁causam	-9.91497
▁supplici	-9.9152
▁reign	-9.91551
stern	-9.91588
▁Ven	-9.91603
ress	-9.91641
cina	-9.91664
▁haste	-9.91735
▁crowd	-9.91769
▁undique	-9.91772
▁facile	-9.9178
▁Piso	-9.91812
turum	-9.91838
▁item	-9.91857
▁Lo	-9.91953
▁eye	-9.9197
▁allow	-9.91979
▁viginti	-9.92024
▁surge	-9.92035
▁drive	-9.92079
▁subito	-9.92334
verant	-9.9235
▁mean	-9.92447
▁gain	-9.92485
▁win	-9.92534
▁clean	-9.92556
▁singula	-9.92562
▁limit	-9.92565
▁fallen	-9.92583
▁nil	-9.92609
▁Romano	-9.92651
▁lands	-9.92718
emus	-9.92719
▁operi	-9.92789
▁Abraham	-9.92796
▁slaughter	-9.92796
▁studio	-9.92796
▁became	-9.928
▁olim	-9.92802
▁solid	-9.92852
buntur	-9.92859
▁Pompeius	-9.9286
pone	-9.93006
▁rush	-9.93007
▁wonder	-9.93033
▁interroga	-9.93055
▁Jews	-9.93057
▁Acha	-9.93071
abo	-9.93206
onius	-9.93209
▁vine	-9.9321
▁fere	-9.93236
▁share	-9.93272
▁frustra	-9.93316
ante	-9.93332
▁rapid	-9.93346
▁cloud	-9.93464
▁reduc	-9.93501
▁maxima	-9.93573
▁vulnera	-9.93573
▁claim	-9.93574
▁violent	-9.93576
▁Man	-9.93581
▁scele	-9.93594
▁aude	-9.9367
▁table	-9.93743
tumque	-9.93754
▁urbis	-9.93805
▁possible	-9.93833
▁While	-9.93833
X	-9.93863
▁won	-9.93913
▁confess	-9.93974
▁civitatis	-9.93975
▁crown	-9.94094
ith	-9.94183
▁Phar	-9.9419
▁melior	-9.9419
▁dixitque	-9.94246
▁wont	-9.9427
▁Car	-9.9428
▁rursus	-9.94356
▁auri	-9.94394
▁Sp	-9.94492
▁fair	-9.94553
norum	-9.94602
▁igni	-9.94627
▁H	-9.94784
▁greatest	-9.94815
▁nata	-9.94862
▁military	-9.94882
▁around	-9.94886
▁forest	-9.94918
mentis	-9.94976
▁joined	-9.95092
▁demand	-9.95143
▁Marcus	-9.95146
▁save	-9.95153
▁immo	-9.95165
▁pecunia	-9.95186
▁bitter	-9.95189
▁secum	-9.95199
▁lot	-9.95212
▁porro	-9.95235
▁bad	-9.95303
▁deum	-9.95326
▁fratri	-9.95367
▁prayers	-9.95375
▁fashion	-9.9541
▁cried	-9.95426
▁conduct	-9.95523
▁mente	-9.95548
▁recent	-9.95611
▁depart	-9.95645
▁legati	-9.9565
▁slow	-9.95676
▁vestro	-9.95677
anda	-9.95693
▁princeps	-9.95705
▁memory	-9.95799
▁tulit	-9.9583
▁escape	-9.95863
▁Igitur	-9.95948
dae	-9.95955
▁quamvis	-9.96098
▁Mars	-9.96221
▁ambi	-9.96386
pped	-9.96546
▁Beth	-9.96681
▁varia	-9.96741
▁incend	-9.96807
bilis	-9.96852
▁direct	-9.96884
▁forced	-9.96906
▁deus	-9.97016
▁hominem	-9.97019
averunt	-9.97026
▁plaga	-9.97048
▁interval	-9.97068
▁door	-9.9709
▁clouds	-9.97125
▁imperio	-9.97141
▁Italia	-9.97163
▁grand	-9.97179
▁digna	-9.973
▁gradu	-9.97327
▁access	-9.97541
▁commandment	-9.97671
▁iamque	-9.97791
▁inhabitants	-9.97824
▁videtur	-9.97913
▁mundi	-9.9797
▁bread	-9.9801
▁highest	-9.98022
▁nox	-9.9809
▁numquid	-9.98095
▁hodie	-9.98115
antia	-9.98143
▁diff	-9.98156
▁cras	-9.98227
▁curru	-9.98328
▁corona	-9.98426
▁Levi	-9.98491
▁felici	-9.98502
▁hostes	-9.9856
▁fugit	-9.9856
▁trouble	-9.9857
▁squa	-9.98579
▁intro	-9.98684
▁civil	-9.98712
▁servo	-9.98722
▁pall	-9.98774
gon	-9.98787
▁solus	-9.98854
fold	-9.98866
▁lament	-9.98889
▁passion	-9.98903
▁empire	-9.98915
▁burden	-9.98915
▁umquam	-9.98917
▁nube	-9.98942
▁Sar	-9.98964
▁velle	-9.98969
▁play	-9.98972
▁image	-9.98997
▁sacrific	-9.99001
▁dixi	-9.99002
▁sumus	-9.99007
▁vision	-9.99023
▁golden	-9.991
▁Pompei	-9.99121
▁potuit	-9.99188
▁royal	-9.99189
▁iudicium	-9.99189
▁pectore	-9.99189
▁Philip	-9.9919
▁exalt	-9.99194
▁duce	-9.99196
venit	-9.99213
▁potu	-9.99214
cant	-9.99277
idus	-9.99298
▁entire	-9.99472
▁saluta	-9.99495
▁aside	-9.99524
▁meae	-9.99524
▁digni	-9.99617
▁Hel	-9.9964
q	-9.9969
▁slaves	-9.99704
▁stern	-9.99734
▁adversum	-9.99742
▁goddess	-9.99742
▁buried	-9.99743
▁granted	-9.99744
▁faithful	-9.99815
▁mutu	-9.99818
▁observa	-9.99835
▁distant	-9.99884
▁amici	-9.99895
ndis	-9.99915
like	-9.99918
▁patrem	-9.99954
▁appear	-9.99984
▁amicitia	-10.0007
▁wound	-10.0009
▁arca	-10.0019
▁responde	-10.002
▁factus	-10.0029
ides	-10.0035
▁teach	-10.004
▁salt	-10.0042
▁hora	-10.005
▁scattered	-10.0053
▁several	-10.0058
▁iube	-10.0059
▁visu	-10.006
culi	-10.0063
▁aff	-10.0064
▁capti	-10.0066
▁bore	-10.007
▁tend	-10.0071
▁decus	-10.0073
▁reges	-10.0074
▁praesenti	-10.0079
▁narra	-10.0086
▁Thr	-10.0089
tiones	-10.009
▁circa	-10.009
pens	-10.0094
▁lapide	-10.0098
andum	-10.0101
▁deter	-10.0104
▁hostis	-10.0107
bility	-10.0107
▁summo	-10.0109
ssimum	-10.0111
ulos	-10.0119
▁consist	-10.0127
▁talent	-10.0134
▁grief	-10.0141
▁something	-10.0142
▁interpret	-10.0142
▁prayer	-10.0145
▁allowed	-10.0148
illa	-10.0149
ndus	-10.0151
ensis	-10.0162
▁pac	-10.0164
▁adduc	-10.0165
▁pecu	-10.0168
▁fought	-10.017
▁horn	-10.0171
▁Saturn	-10.0173
▁principis	-10.0181
▁looked	-10.0181
▁habebat	-10.0186
▁vici	-10.0192
▁pari	-10.0193
▁happened	-10.0194
issimus	-10.0207
▁dicta	-10.0208
▁shut	-10.0209
▁invidia	-10.0209
▁vere	-10.0209
▁verse	-10.022
▁cent	-10.0225
▁indig	-10.0226
▁beauty	-10.0226
▁antiqui	-10.0227
▁require	-10.0228
▁auctor	-10.0232
▁senatu	-10.0233
▁merc	-10.0234
par	-10.0241
▁Greek	-10.0242
▁arte	-10.0249
▁Meanwhile	-10.0255
▁prevent	-10.0255
▁drew	-10.0255
ilia	-10.0256
▁Ea	-10.0258
▁sad	-10.0263
▁lies	-10.0273
▁orator	-10.0274
▁Cur	-10.0275
▁habitu	-10.0281
▁Tum	-10.0281
▁cattle	-10.0283
▁monstra	-10.0284
▁tribune	-10.0284
▁equites	-10.029
▁nondum	-10.0292
▁August	-10.0295
▁sensu	-10.0296
▁grant	-10.0302
▁Num	-10.0303
▁rapi	-10.031
▁Vespasian	-10.0312
▁vex	-10.0313
▁hid	-10.0314
▁verbis	-10.0319
▁song	-10.0327
▁soft	-10.033
▁partes	-10.0335
▁Petr	-10.0346
▁egredi	-10.0353
▁condition	-10.0357
▁beat	-10.0359
▁concerning	-10.036
▁legiones	-10.0368
das	-10.0368
▁hide	-10.0369
▁ripa	-10.0369
▁Where	-10.0371
▁question	-10.0373
▁cold	-10.0376
did	-10.0377
ndae	-10.0392
▁saevi	-10.0393
▁reached	-10.0397
▁Thy	-10.0398
▁puella	-10.04
▁pueri	-10.0418
▁covenant	-10.0427
▁Brutus	-10.0427
▁task	-10.0427
▁civitate	-10.043
▁pacem	-10.0437
▁alta	-10.0442
▁Dan	-10.0444
misit	-10.0446
▁nostrae	-10.0453
▁especially	-10.0456
▁middle	-10.0456
▁fraud	-10.0456
▁periculo	-10.0456
▁securi	-10.0457
▁agri	-10.0457
▁murmur	-10.0458
▁amplius	-10.0458
▁pit	-10.0461
▁consular	-10.0465
▁dry	-10.0467
▁dolor	-10.0482
▁attempt	-10.0485
▁glorious	-10.0485
▁lived	-10.0487
▁armies	-10.0487
▁burning	-10.0489
▁Ro	-10.0492
▁fund	-10.0498
▁Col	-10.0503
▁insidi	-10.0504
▁opened	-10.0505
▁rear	-10.0512
▁reach	-10.0512
▁Za	-10.0514
▁instruct	-10.0518
▁Son	-10.0522
▁agno	-10.0532
▁missi	-10.0541
▁Cha	-10.0543
▁avoid	-10.0544
▁ingenti	-10.0545
▁pour	-10.0546
▁murder	-10.0546
▁write	-10.0548
▁gained	-10.055
▁paucis	-10.0551
▁anni	-10.0564
▁luce	-10.0566
▁veste	-10.0568
▁auxilia	-10.0571
▁valour	-10.0573
▁wished	-10.0575
▁intent	-10.058
▁guilty	-10.0586
way	-10.0587
▁persons	-10.0592
▁dust	-10.0597
▁feared	-10.06
▁Bar	-10.0601
▁magnum	-10.0602
▁contempt	-10.0602
▁named	-10.0604
▁north	-10.0605
▁elect	-10.0605
▁subit	-10.0606
▁promised	-10.0617
▁build	-10.0625
▁station	-10.0629
▁Galba	-10.0632
▁appell	-10.0637
▁bond	-10.0638
▁deduc	-10.0643
▁gentis	-10.0645
▁Some	-10.0647
▁venire	-10.0654
▁try	-10.0658
▁urge	-10.0659
▁envoys	-10.0661
▁apart	-10.0662
▁civitates	-10.0675
▁promi	-10.0678
idum	-10.0679
▁imperii	-10.068
▁gloriam	-10.0685
▁effort	-10.0691
▁sand	-10.0694
▁raise	-10.0694
▁birds	-10.0696
▁altera	-10.0696
▁tru	-10.0697
▁conp	-10.0704
▁rub	-10.0704
▁iniqui	-10.0709
entium	-10.0719
▁proelio	-10.0721
▁utter	-10.0723
▁pene	-10.0724
▁lion	-10.0724
hib	-10.074
ando	-10.0745
▁divided	-10.0747
uch	-10.0749
▁terris	-10.075
abile	-10.0755
▁imagine	-10.0755
▁gesta	-10.0758
▁tempest	-10.0777
erentur	-10.0777
▁journey	-10.078
▁south	-10.0781
▁Lucius	-10.079
▁ruler	-10.0791
▁mille	-10.0793
▁certe	-10.0794
▁tertia	-10.0796
▁filio	-10.0801
▁vera	-10.0811
▁shape	-10.0811
▁viribus	-10.0812
▁ceteris	-10.0821
▁defu	-10.0825
▁barba	-10.0827
▁leva	-10.0828
▁pond	-10.0831
born	-10.0833
▁videri	-10.084
abit	-10.084
▁disciplina	-10.084
▁Cicero	-10.084
▁Capitol	-10.0841
▁terga	-10.0841
▁nostrum	-10.0841
▁sustine	-10.0842
▁obey	-10.0843
▁cy	-10.0846
▁meis	-10.0853
▁loud	-10.0854
▁Heli	-10.0859
▁nati	-10.0861
▁facies	-10.0861
▁rout	-10.0871
▁stay	-10.0872
▁feast	-10.0873
▁gratiam	-10.0879
▁oil	-10.088
▁Moab	-10.0881
▁scrib	-10.089
▁retine	-10.089
▁exile	-10.0893
▁protect	-10.0895
▁tried	-10.09
▁grove	-10.0901
▁presence	-10.0901
ities	-10.0906
▁quaedam	-10.0911
▁femina	-10.0912
▁train	-10.0912
▁ignorant	-10.0924
▁venerunt	-10.0929
▁tribus	-10.0931
▁oportet	-10.0931
▁pectora	-10.0931
▁border	-10.0931
▁giving	-10.0931
▁gentle	-10.0933
▁flame	-10.0934
▁happen	-10.0935
▁lips	-10.0947
▁hearing	-10.0951
▁cult	-10.0959
▁happy	-10.0962
▁girl	-10.0962
▁fresh	-10.0962
▁modest	-10.0968
V	-10.097
cidit	-10.098
▁doth	-10.099
andi	-10.0993
▁suspect	-10.0993
▁freedom	-10.0994
▁paulo	-10.0997
▁intend	-10.0999
gant	-10.1002
▁rage	-10.101
▁feed	-10.1013
▁pollu	-10.1024
tudinis	-10.1026
cidi	-10.1028
▁patriae	-10.1031
▁rock	-10.1034
▁crea	-10.1034
▁worth	-10.1035
▁animos	-10.1038
▁rocks	-10.1043
scens	-10.1049
▁Cn	-10.1052
▁trumpet	-10.1054
▁indulge	-10.1054
▁festina	-10.106
▁huge	-10.106
undi	-10.1063
▁doing	-10.1069
uerat	-10.107
▁facti	-10.1072
▁fides	-10.1073
▁postula	-10.1084
▁marriage	-10.1085
▁Fortune	-10.1085
▁fault	-10.1086
▁pisc	-10.109
▁fata	-10.1091
▁Simon	-10.1096
▁fig	-10.1099
▁deal	-10.1099
▁adopt	-10.11
▁condit	-10.1114
▁bright	-10.1116
▁angry	-10.1116
ification	-10.1121
▁ingredi	-10.1124
▁poterat	-10.1125
▁iure	-10.1125
▁gla	-10.1133
▁fugi	-10.1135
▁feel	-10.1136
▁hills	-10.1139
uerit	-10.1139
▁dread	-10.1143
▁tribe	-10.1144
▁Caesarem	-10.1147
▁Republic	-10.1147
▁future	-10.1147
▁bland	-10.1151
▁trade	-10.1157
uni	-10.1162
▁expedi	-10.1169
▁praedica	-10.1173
▁neighbour	-10.1173
▁loci	-10.1174
nctus	-10.1175
▁confidence	-10.1178
▁universi	-10.1178
▁strike	-10.1178
▁vox	-10.1178
ny	-10.1179
▁bold	-10.118
▁dwelling	-10.1181
▁quaeque	-10.1184
▁lust	-10.1187
▁mecum	-10.1189
▁Abi	-10.1195
▁towns	-10.12
▁rival	-10.1209
▁leaving	-10.1209
▁empty	-10.1209
▁afterwards	-10.121
▁vestris	-10.1211
▁cupidi	-10.1212
enus	-10.1216
▁lap	-10.1218
▁dolore	-10.1228
▁sacri	-10.1241
▁praecipit	-10.1244
▁distinction	-10.1244
▁flore	-10.1253
▁calami	-10.1264
▁longa	-10.1267
▁latter	-10.1272
▁recall	-10.1274
▁necesse	-10.1275
▁sake	-10.1277
▁Neque	-10.1279
▁rivers	-10.1279
▁issue	-10.1293
▁level	-10.1295
▁principi	-10.1296
▁changed	-10.1297
▁magnis	-10.1303
▁road	-10.1304
▁medium	-10.1306
▁mortis	-10.1308
▁collect	-10.1308
▁daughters	-10.1313
▁genere	-10.1314
▁burn	-10.1318
gar	-10.1321
▁hang	-10.1324
▁advance	-10.1333
▁Ja	-10.1335
▁surrender	-10.1335
▁violence	-10.1335
▁perhaps	-10.1335
▁Iacob	-10.1335
▁aliquo	-10.1335
▁suffered	-10.1336
▁thin	-10.1339
▁committed	-10.1339
▁virtus	-10.1346
▁finem	-10.1347
▁ductor	-10.1355
▁divini	-10.1365
▁ampli	-10.1368
▁appeared	-10.1369
▁affection	-10.1373
▁toil	-10.1373
▁lumina	-10.1374
▁quisquam	-10.1377
▁solis	-10.1387
▁similar	-10.1399
▁aufer	-10.1399
▁Ah	-10.14
▁aether	-10.14
hu	-10.14
▁serpent	-10.14
uisset	-10.1407
rida	-10.1408
▁showed	-10.1414
▁bull	-10.1416
▁matur	-10.1418
▁temples	-10.1425
▁impedi	-10.1427
▁advantage	-10.1431
▁morning	-10.1431
▁wrong	-10.1431
▁fecerunt	-10.1431
▁auspic	-10.1431
▁star	-10.1432
▁inform	-10.1433
ndere	-10.1437
▁Mel	-10.1439
▁En	-10.144
▁vetere	-10.1442
▁veri	-10.1443
▁Such	-10.1447
▁venti	-10.1474
▁van	-10.1481
▁wounds	-10.1485
▁Cato	-10.1494
▁Because	-10.1495
▁prefect	-10.1495
▁twelve	-10.1495
▁culpa	-10.1495
▁removed	-10.151
visse	-10.1517
▁gentibus	-10.152
▁del	-10.152
▁equitum	-10.1536
▁leni	-10.1538
▁gladio	-10.1542
▁tent	-10.1547
▁hiem	-10.1547
▁maris	-10.1554
▁divina	-10.1558
▁arrow	-10.1559
▁mere	-10.156
▁Armenia	-10.156
▁hostile	-10.156
positum	-10.157
▁Eo	-10.158
▁step	-10.158
▁Britain	-10.1592
▁veteran	-10.1592
▁sometimes	-10.1592
▁Bel	-10.1593
▁poli	-10.1594
▁please	-10.1595
▁tanti	-10.1599
▁aquae	-10.1602
▁lives	-10.1603
▁Their	-10.1605
▁spes	-10.1609
▁auctoritate	-10.1622
▁palace	-10.1625
III	-10.1626
▁clama	-10.1636
▁coloni	-10.164
▁tribes	-10.1643
▁farm	-10.1643
▁mors	-10.1645
▁accomplish	-10.1657
▁tabernacle	-10.1657
▁abroad	-10.1657
▁double	-10.1657
▁green	-10.1658
▁duodecim	-10.1659
▁denique	-10.166
▁sensi	-10.166
▁dubita	-10.166
▁tuos	-10.1661
▁direction	-10.1675
▁affairs	-10.1679
▁contr	-10.1689
▁Ephraim	-10.169
toribus	-10.1693
▁Cae	-10.1708
▁thirty	-10.1723
▁opportunity	-10.1723
▁renown	-10.1723
▁plebe	-10.1723
▁citizen	-10.173
▁governor	-10.1731
▁ear	-10.175
▁ultro	-10.1756
▁conceal	-10.1757
▁gentium	-10.1758
▁transfer	-10.1758
▁element	-10.1758
▁fish	-10.1762
▁color	-10.1762
wa	-10.1771
law	-10.178
▁proud	-10.1783
▁defer	-10.1784
▁pudor	-10.1787
▁dico	-10.1797
▁suppose	-10.1798
▁occul	-10.1802
▁colle	-10.1809
▁tenui	-10.1811
▁singuli	-10.1812
▁flames	-10.1815
▁colla	-10.1817
▁narrow	-10.1822
▁blind	-10.1822
▁season	-10.1825
▁higher	-10.1825
▁favor	-10.1826
▁adora	-10.1827
▁flower	-10.1834
▁broke	-10.1835
▁adventu	-10.1835
▁repente	-10.1835
▁motion	-10.1836
▁ros	-10.1841
▁viris	-10.1848
▁Persians	-10.185
▁seized	-10.1851
▁R	-10.1855
▁Julian	-10.1856
▁snow	-10.1856
00	-10.1856
▁quite	-10.1859
▁eiusdem	-10.1872
▁benedic	-10.1875
▁moon	-10.1882
▁Tra	-10.1886
▁mad	-10.1887
▁spiritu	-10.1887
▁cease	-10.1888
▁sacerdoti	-10.1889
▁quicquam	-10.1889
▁Darius	-10.1893
▁aequi	-10.1911
▁summi	-10.1913
▁educ	-10.1914
▁nequi	-10.1918
▁sidera	-10.1921
▁follows	-10.1921
▁caught	-10.1923
▁embrace	-10.1923
▁wilt	-10.1923
▁disaster	-10.1923
▁Senate	-10.1923
▁quanta	-10.1932
▁gall	-10.1936
▁furor	-10.1937
▁heap	-10.1944
▁aperi	-10.1946
escere	-10.1947
▁earum	-10.1949
misso	-10.1953
▁interest	-10.1955
▁Hic	-10.1955
▁belong	-10.1956
▁simile	-10.1957
▁foreign	-10.1958
▁Macedonia	-10.1968
▁lati	-10.1975
▁erect	-10.1982
ifica	-10.199
▁possunt	-10.199
▁warrior	-10.199
stitit	-10.1992
▁render	-10.1994
ionis	-10.1998
▁dicentes	-10.2005
▁admit	-10.2012
▁petit	-10.2014
▁parum	-10.2018
corum	-10.2019
▁videt	-10.2019
▁deorum	-10.2024
▁yoke	-10.2024
▁caelesti	-10.2024
▁abundant	-10.2027
▁barbarians	-10.2029
▁patria	-10.2044
▁philosoph	-10.2047
▁vires	-10.2048
▁victu	-10.2052
▁acies	-10.2055
▁afraid	-10.2058
▁dwelt	-10.2058
▁flood	-10.2058
▁immediately	-10.2062
▁soldier	-10.2068
▁Anti	-10.2071
▁tumultu	-10.2071
▁rig	-10.2081
bilem	-10.2083
fecit	-10.2084
▁duces	-10.2085
▁quare	-10.209
▁pastor	-10.209
torem	-10.2091
▁object	-10.2092
▁pitch	-10.2092
▁colour	-10.2092
▁secure	-10.2093
▁appearance	-10.2094
▁hu	-10.2097
▁spot	-10.2102
▁saved	-10.2103
▁loqui	-10.2111
▁alterum	-10.2115
▁aestu	-10.2124
▁patrum	-10.2125
zi	-10.2125
▁sap	-10.2125
▁lacrima	-10.2127
▁fluctu	-10.2129
uros	-10.2147
▁declared	-10.2154
▁Vir	-10.2155
▁sl	-10.2157
▁aeternum	-10.2161
▁roll	-10.2162
anim	-10.2164
▁letters	-10.2167
▁occ	-10.2168
▁requie	-10.2171
▁miseri	-10.2172
▁vertice	-10.2179
▁altars	-10.2184
▁prisoner	-10.2187
▁purple	-10.2195
▁saxa	-10.2195
▁protinus	-10.2196
▁paene	-10.2196
▁resolv	-10.2196
▁vim	-10.22
▁signum	-10.2202
▁during	-10.2203
vidi	-10.2203
▁omen	-10.2205
▁besides	-10.2207
▁tecum	-10.2208
▁egress	-10.2209
▁Fabius	-10.2211
▁exact	-10.2222
▁amen	-10.2226
▁monastery	-10.223
▁egressus	-10.223
▁experience	-10.2231
▁magnitudine	-10.2231
▁lying	-10.2234
▁torrent	-10.2242
▁praeterea	-10.2247
▁prepared	-10.2248
▁exercituum	-10.225
▁edi	-10.2251
▁diri	-10.2251
▁thrown	-10.2251
▁illic	-10.2251
▁olive	-10.2265
▁vow	-10.2265
▁revoca	-10.2265
▁reliqua	-10.2265
▁iniuria	-10.2265
▁hominibus	-10.2267
▁harm	-10.227
▁qu	-10.2281
▁domos	-10.2283
▁inquir	-10.2285
▁Carthage	-10.2299
▁testimony	-10.2299
▁monument	-10.2301
▁incipi	-10.2301
put	-10.2304
▁prohibe	-10.2304
▁potent	-10.2313
▁throw	-10.2313
▁aetate	-10.2313
▁odor	-10.2314
▁desired	-10.2319
▁caused	-10.2326
ably	-10.2328
▁base	-10.2333
▁alius	-10.2338
▁hot	-10.234
▁multos	-10.2341
▁ictu	-10.2347
▁property	-10.2348
▁sick	-10.2361
▁riches	-10.2364
▁recover	-10.237
▁replied	-10.237
▁vessels	-10.237
▁Fortuna	-10.237
▁infantry	-10.2372
▁preach	-10.2377
▁statue	-10.2382
▁unius	-10.2384
▁cries	-10.2387
▁usu	-10.239
▁strange	-10.2393
▁publicam	-10.2399
illi	-10.2401
▁ponti	-10.2402
▁throng	-10.2405
▁slew	-10.2405
▁agmina	-10.2406
▁steps	-10.2412
▁generis	-10.2416
▁veh	-10.2422
▁bonis	-10.2434
▁fix	-10.2438
▁reproach	-10.244
▁address	-10.244
▁talk	-10.244
▁obtain	-10.244
▁shoulders	-10.2441
▁Marius	-10.2441
▁excellent	-10.2441
▁flagit	-10.2442
▁Accordingly	-10.2444
▁possent	-10.2446
▁aedific	-10.2447
▁settle	-10.2453
▁indignation	-10.2456
▁dicitur	-10.2464
▁loose	-10.247
▁necessary	-10.2475
▁display	-10.2475
▁opere	-10.2475
▁throughout	-10.2476
▁quomodo	-10.248
▁Chal	-10.2481
▁ago	-10.2482
▁induc	-10.2488
ano	-10.2496
▁powerful	-10.2501
▁surrounded	-10.2503
▁ignem	-10.2504
secutus	-10.2507
▁sag	-10.2509
▁everlasting	-10.2511
▁ostende	-10.2511
▁begot	-10.2512
▁summoned	-10.2512
▁wounded	-10.2513
▁censu	-10.2523
▁ingens	-10.2525
▁woods	-10.2528
▁defence	-10.2547
▁recipi	-10.2547
▁felt	-10.2547
▁proelium	-10.2547
▁mourn	-10.2548
▁litora	-10.2548
▁Him	-10.2557
▁alike	-10.2561
▁paid	-10.2566
▁hostibus	-10.2567
4	-10.2583
▁oppidum	-10.2583
▁scarce	-10.2583
▁burst	-10.2583
▁popular	-10.2583
▁augur	-10.2583
▁quanto	-10.2584
▁incur	-10.2584
▁scientia	-10.2584
▁pedibus	-10.2587
▁warm	-10.2588
▁departed	-10.2588
▁verte	-10.2591
▁indigna	-10.2592
▁deser	-10.2602
▁offend	-10.2612
▁wear	-10.2615
▁templum	-10.2619
▁hither	-10.2619
▁casu	-10.2619
▁cruci	-10.2627
abatur	-10.2631
▁usus	-10.2635
▁hosts	-10.2642
▁quarters	-10.2647
▁El	-10.2652
entum	-10.2653
▁companion	-10.2655
▁audaci	-10.2655
▁effici	-10.2655
▁plures	-10.2659
▁cohorts	-10.2664
▁quaere	-10.2666
▁misce	-10.2675
▁aquam	-10.268
▁armour	-10.2691
▁Libya	-10.2695
▁spem	-10.2697
▁Hor	-10.2703
▁senior	-10.2705
▁Macedon	-10.2705
scribe	-10.2722
▁influence	-10.2727
▁root	-10.2727
▁sagitta	-10.2727
▁thanks	-10.2729
▁cessa	-10.273
▁foret	-10.2731
▁partibus	-10.2734
▁fronte	-10.2736
▁iacta	-10.2739
ssimus	-10.2742
▁restored	-10.2748
liter	-10.2751
▁suspicion	-10.2752
▁data	-10.276
▁taught	-10.2764
▁copiis	-10.2764
▁vestigia	-10.2764
▁dormi	-10.2764
▁posside	-10.2764
▁apt	-10.2765
▁principem	-10.2765
▁matri	-10.2766
▁nostros	-10.2769
▁alarm	-10.2776
▁palm	-10.2781
▁potentia	-10.2785
▁mitte	-10.2787
▁urbes	-10.2794
▁materia	-10.2799
▁Claudius	-10.28
▁sacerdotes	-10.28
▁eloquence	-10.2801
▁Du	-10.2806
▁saluti	-10.281
▁distinguished	-10.2814
▁stir	-10.282
▁Cap	-10.2822
▁animus	-10.2831
▁fideli	-10.2831
▁fuerunt	-10.2832
▁vestri	-10.2835
▁vestrum	-10.2837
▁bestow	-10.2837
▁fati	-10.284
▁ranks	-10.2843
▁iniquity	-10.2843
▁virorum	-10.2843
▁faciam	-10.2847
▁praecepit	-10.2849
▁grass	-10.2858
▁pull	-10.2861
▁consecra	-10.287
▁sufficient	-10.287
▁mul	-10.287
▁auge	-10.2871
▁genera	-10.2872
▁extrema	-10.2874
▁wives	-10.2874
▁Consul	-10.2875
▁expect	-10.2877
▁versu	-10.288
▁fury	-10.2881
▁vocat	-10.2886
C	-10.2889
▁loved	-10.2889
▁Iulia	-10.2889
ario	-10.2895
atae	-10.2901
▁uxorem	-10.2904
▁Phoebus	-10.2911
▁confusion	-10.2911
▁retreat	-10.2911
▁inclina	-10.2911
▁consilii	-10.2912
▁experi	-10.2912
▁orbem	-10.2913
▁reddi	-10.2915
▁horsemen	-10.2919
▁facto	-10.2919
▁salva	-10.2924
▁viola	-10.2929
▁capital	-10.2933
▁tecta	-10.294
culus	-10.294
▁nonne	-10.2942
▁severi	-10.2947
▁fiducia	-10.2948
▁munera	-10.2948
▁iudice	-10.2949
▁perform	-10.2949
▁regum	-10.2952
▁equitatu	-10.2952
▁author	-10.2956
▁rod	-10.2958
▁animae	-10.2959
▁aciem	-10.2965
▁toward	-10.2972
▁Solomon	-10.2986
▁civitas	-10.2986
▁iudicio	-10.2986
▁vesper	-10.2986
▁weary	-10.2991
▁whereas	-10.2994
▁tradi	-10.2997
▁turpi	-10.2998
▁dulci	-10.3001
▁Greeks	-10.3002
▁realm	-10.3009
latus	-10.3013
▁vultus	-10.3018
▁agger	-10.3018
▁arbitra	-10.3023
▁exceeding	-10.3023
▁drove	-10.3023
▁minu	-10.3028
▁terms	-10.3034
▁usual	-10.3049
▁iniquitate	-10.305
▁clamore	-10.3059
▁Jacob	-10.3061
▁business	-10.3061
xerit	-10.3061
▁praesta	-10.3068
▁habuit	-10.3075
▁noster	-10.3081
▁ardent	-10.3081
▁salutem	-10.3084
▁regia	-10.3087
▁Prae	-10.3093
▁ancestors	-10.3098
▁Ammon	-10.3104
▁dignity	-10.3105
currere	-10.3105
▁luna	-10.311
▁bones	-10.311
▁alive	-10.3114
▁proved	-10.3115
▁bibe	-10.3116
▁attacked	-10.3128
▁matris	-10.313
▁accustomed	-10.3136
▁member	-10.3136
▁Manasse	-10.3136
▁dream	-10.3136
▁crudeli	-10.3136
▁fratrem	-10.3137
▁placid	-10.3145
▁ritu	-10.3148
▁honorem	-10.3149
▁comede	-10.3155
▁pity	-10.3157
▁early	-10.3162
▁addit	-10.317
▁amne	-10.3174
▁rampart	-10.3174
▁grege	-10.3175
▁timore	-10.3182
▁hasta	-10.3199
ssimis	-10.3203
▁rites	-10.3205
▁contine	-10.3206
▁prefer	-10.3211
▁withdraw	-10.3212
▁hatred	-10.3212
▁comfort	-10.3213
▁accepit	-10.3213
▁Ocean	-10.3214
▁Sion	-10.3215
▁capta	-10.3216
▁maiden	-10.3221
▁opes	-10.323
▁Quibus	-10.323
▁splendid	-10.3232
▁Jove	-10.3238
▁duty	-10.3239
▁heavenly	-10.3241
▁boni	-10.3243
▁vento	-10.3248
▁rough	-10.3251
▁wheel	-10.3251
▁self	-10.3251
▁aera	-10.3251
▁tin	-10.3255
▁voluntate	-10.3258
▁peril	-10.327
▁ense	-10.3274
▁fourth	-10.3276
▁carne	-10.3278
▁triginta	-10.3289
▁Ceterum	-10.3289
▁posuit	-10.329
▁slight	-10.329
▁impera	-10.3291
▁sinu	-10.3294
▁Take	-10.3295
▁Quam	-10.3296
▁heredi	-10.3297
▁speaking	-10.3299
▁looking	-10.3303
▁pariet	-10.3306
▁bare	-10.3309
▁Carthaginian	-10.3312
▁inferior	-10.3314
▁funda	-10.3318
▁Ur	-10.3328
▁sanctifica	-10.3328
▁commit	-10.3331
▁expert	-10.3335
▁imperial	-10.3336
ized	-10.3347
▁somni	-10.3351
▁consent	-10.3354
▁verbo	-10.336
▁fonte	-10.3362
▁tender	-10.3363
▁scilicet	-10.3367
▁Next	-10.3367
▁vota	-10.3367
▁greed	-10.3369
▁understand	-10.337
▁torture	-10.337
▁express	-10.3374
▁compara	-10.338
▁divide	-10.3395
▁divis	-10.34
▁genuit	-10.3402
▁sancta	-10.3406
▁destina	-10.3406
▁pernici	-10.3406
▁unclean	-10.3411
▁feeling	-10.3411
▁tellus	-10.3412
▁multitudine	-10.3412
▁captain	-10.3416
▁duobus	-10.3423
▁pop	-10.3431
▁separate	-10.3437
▁milite	-10.344
▁hill	-10.3441
▁roof	-10.3444
▁interfici	-10.3445
▁torn	-10.3445
▁betray	-10.3445
▁scorn	-10.3445
▁pacis	-10.3445
▁arose	-10.3448
▁ornament	-10.3448
iores	-10.3452
▁odi	-10.3471
▁moli	-10.3474
▁fidei	-10.3483
▁continuo	-10.3484
▁disgrace	-10.3484
▁Salomon	-10.3484
▁vehement	-10.3484
▁summer	-10.3485
▁unknown	-10.3485
▁regno	-10.3486
▁east	-10.349
▁fuerint	-10.349
▁ingressus	-10.3492
▁trahe	-10.3496
▁insult	-10.3516
▁lower	-10.3521
▁monte	-10.3522
▁brief	-10.3523
▁messenger	-10.3523
▁separa	-10.3536
▁Tiberi	-10.3542
▁agere	-10.3542
▁Pal	-10.3543
▁avert	-10.3543
▁Iovis	-10.3543
▁germ	-10.3558
▁instant	-10.3559
▁pieces	-10.3563
▁possint	-10.3563
▁virtutis	-10.3563
▁Samaria	-10.3563
▁across	-10.3564
▁figure	-10.3566
▁harena	-10.3567
▁species	-10.3568
▁immola	-10.3571
▁thinking	-10.3572
▁consu	-10.3573
▁vasta	-10.3574
ken	-10.358
▁iusti	-10.3582
▁learning	-10.3583
▁firma	-10.3585
▁fili	-10.3587
▁increased	-10.3594
abilis	-10.3596
▁Un	-10.3598
▁temporis	-10.3602
▁uncertain	-10.3602
▁sacerdos	-10.3602
▁price	-10.3603
▁arrived	-10.3611
▁doors	-10.3613
▁consulship	-10.3614
▁cruelty	-10.3615
▁Vol	-10.3619
▁rob	-10.3619
▁wings	-10.3625
▁spoils	-10.3628
▁Ye	-10.3631
▁Romae	-10.3633
press	-10.3636
▁trepida	-10.3642
▁Again	-10.3642
▁check	-10.3642
▁aeterna	-10.3642
▁aliena	-10.3643
▁advanced	-10.3646
▁humble	-10.3646
▁borne	-10.365
▁circuitu	-10.365
▁dedicat	-10.365
▁debere	-10.3652
▁store	-10.3654
▁venerat	-10.3665
▁arcu	-10.3668
▁wave	-10.3673
▁diversa	-10.3674
▁vena	-10.3674
▁absent	-10.3678
bitis	-10.3678
▁got	-10.3681
▁plough	-10.3682
▁domestic	-10.3682
▁King	-10.3682
▁threw	-10.3682
▁perpetua	-10.3682
▁poison	-10.3682
▁chain	-10.3683
▁lux	-10.3683
▁Did	-10.3683
▁nullum	-10.3685
▁spolia	-10.3686
▁semina	-10.3689
▁vive	-10.369
▁Nu	-10.3692
▁wing	-10.3695
▁mid	-10.3695
▁alto	-10.3699
bere	-10.37
▁portion	-10.3718
▁ring	-10.3722
▁Which	-10.3722
▁Cassius	-10.3722
▁furnish	-10.3722
▁creature	-10.3724
▁subsid	-10.3739
▁illorum	-10.3744
▁keeping	-10.3745
▁casus	-10.3753
▁merito	-10.3755
▁Sidon	-10.3761
▁easy	-10.3774
▁lamb	-10.3774
▁aurum	-10.3782
▁burnt	-10.3789
▁pauci	-10.3794
▁start	-10.3797
▁totius	-10.3797
▁chamber	-10.3803
▁recognize	-10.3803
▁argument	-10.3803
▁thirst	-10.3803
▁begun	-10.3804
▁match	-10.3805
▁request	-10.3805
▁forget	-10.3807
▁pretio	-10.3821
▁acie	-10.3823
▁cordi	-10.3829
▁lift	-10.383
▁dost	-10.3837
▁auras	-10.3838
▁shadow	-10.3844
▁Heaven	-10.3844
▁Numidia	-10.3844
▁cetero	-10.3844
▁dulce	-10.3844
▁coast	-10.3846
▁Unde	-10.3848
▁maledic	-10.3853
▁queen	-10.3853
▁propterea	-10.3854
▁interim	-10.3873
▁domini	-10.3881
▁lose	-10.3881
▁contrary	-10.3883
▁beast	-10.3883
▁Ubi	-10.3885
▁beloved	-10.3885
▁choose	-10.3885
▁maintain	-10.3885
▁saeva	-10.3885
▁plena	-10.3885
▁addition	-10.3891
▁arise	-10.3898
▁Ponti	-10.3901
▁Hence	-10.3903
itudo	-10.3911
▁deserved	-10.3914
▁imperi	-10.3924
▁sanguinem	-10.393
▁dabo	-10.3932
▁admira	-10.3936
▁pic	-10.3938
▁explora	-10.3967
▁sovereign	-10.3967
▁broad	-10.3967
▁fifty	-10.3967
▁exhaust	-10.3967
▁siege	-10.3968
▁virtutem	-10.397
▁Atque	-10.3974
▁malo	-10.3977
▁troubled	-10.3977
▁Com	-10.3978
▁artus	-10.3985
▁frame	-10.3987
endam	-10.3989
▁oath	-10.399
▁ludi	-10.3995
▁oratione	-10.3995
▁cede	-10.3998
▁timor	-10.4001
▁carrying	-10.4002
▁bringing	-10.4004
▁redde	-10.4005
▁multitudo	-10.4008
▁groan	-10.4009
▁inimici	-10.401
▁despera	-10.401
▁abode	-10.401
▁affect	-10.4014
▁demanded	-10.4015
▁herba	-10.4016
▁reigned	-10.4019
▁outside	-10.4032
even	-10.4035
▁perveni	-10.4038
▁terrarum	-10.4041
▁Attic	-10.4045
▁dabit	-10.4046
▁poured	-10.4048
▁Agrippina	-10.405
▁disciples	-10.405
▁valiant	-10.405
▁uber	-10.405
▁produce	-10.4052
▁pure	-10.4055
▁montis	-10.4058
▁credere	-10.4063
▁patr	-10.4065
▁melius	-10.4071
▁iunc	-10.4076
▁condemn	-10.4077
▁arch	-10.4082
▁scripta	-10.4082
▁templi	-10.4091
▁numerum	-10.4092
▁dress	-10.4093
▁ashes	-10.4096
▁tomb	-10.41
▁condemned	-10.4107
▁guilt	-10.4114
▁nutri	-10.413
5	-10.4133
▁Dardan	-10.4133
▁Galli	-10.4136
▁ignora	-10.414
▁protection	-10.4147
▁aetas	-10.4147
▁bono	-10.415
▁lent	-10.4153
▁robe	-10.4153
secuti	-10.4157
▁moribus	-10.4158
▁libro	-10.4159
▁transgress	-10.4159
▁legem	-10.4163
▁potestatem	-10.4166
▁talia	-10.4169
▁poti	-10.4175
▁thyself	-10.4175
▁extreme	-10.4175
▁eternal	-10.4175
▁necessity	-10.4175
▁secunda	-10.4175
▁Troia	-10.4176
▁quarta	-10.4178
▁hasten	-10.418
▁comrades	-10.4182
▁pud	-10.4184
▁orbis	-10.419
▁potestate	-10.4194
▁capite	-10.4205
▁montes	-10.4205
▁Paulus	-10.4206
▁qualis	-10.4213
▁socii	-10.4214
▁vessel	-10.4216
▁constituit	-10.4216
▁banquet	-10.4217
▁valley	-10.4218
▁possum	-10.4218
▁health	-10.4218
▁discuss	-10.4219
▁sponte	-10.4221
▁madness	-10.4223
▁standards	-10.4227
▁decided	-10.4235
▁established	-10.4241
▁clamor	-10.4242
▁auctore	-10.4254
▁vidisse	-10.4258
▁helmet	-10.426
▁nullus	-10.426
▁plurima	-10.426
▁nolite	-10.426
▁candida	-10.426
▁motus	-10.4262
▁seat	-10.4264
▁militibus	-10.4264
▁flumen	-10.4271
▁retro	-10.4274
▁lifted	-10.4277
▁obside	-10.428
▁holding	-10.4285
▁operibus	-10.4285
▁undis	-10.4285
▁hostili	-10.4286
▁Tar	-10.4288
armed	-10.4291
ariis	-10.4292
▁countenance	-10.4302
▁shepherd	-10.4302
▁Galaad	-10.4302
▁angusti	-10.4302
▁title	-10.4303
▁plot	-10.4303
▁liquid	-10.4303
▁leap	-10.4304
▁coniugi	-10.4304
▁penitus	-10.4306
▁passing	-10.4308
▁declare	-10.431
▁Inter	-10.4312
▁captured	-10.4314
▁Epi	-10.4315
▁nuper	-10.4321
▁Gallic	-10.4322
▁real	-10.4324
▁facili	-10.4328
▁longius	-10.4329
▁infl	-10.4333
▁mensis	-10.4337
▁Arc	-10.4342
▁Metellus	-10.4345
▁preserve	-10.4345
▁spatio	-10.4345
!)	-10.4345
▁steel	-10.4346
▁Caecina	-10.4346
▁nimis	-10.4346
▁loyalty	-10.4349
▁threaten	-10.4352
▁luctu	-10.4353
▁solo	-10.4355
▁2	-10.4359
▁adorn	-10.4366
▁gloriae	-10.4372
▁reported	-10.4375
▁considered	-10.4386
▁differ	-10.4387
▁twice	-10.4388
▁paenite	-10.4388
▁degree	-10.4388
▁guide	-10.4388
▁ocean	-10.4388
▁Thessal	-10.439
▁afar	-10.4391
▁contest	-10.4393
▁increase	-10.4396
▁finally	-10.4398
▁praesidi	-10.4408
▁Hercules	-10.4413
▁Peter	-10.4415
▁describ	-10.4419
▁exerce	-10.4419
▁fatal	-10.442
cun	-10.4424
▁assembly	-10.4431
▁mortuus	-10.4431
▁opposite	-10.4431
▁proxima	-10.4431
▁faciunt	-10.4431
▁devour	-10.4431
▁slave	-10.4434
▁captive	-10.4445
▁personal	-10.4452
▁shown	-10.4459
▁hii	-10.4467
▁amico	-10.447
▁surely	-10.4474
▁individual	-10.4474
▁Chanaan	-10.4474
▁litteras	-10.4474
▁noctem	-10.4475
▁gemitu	-10.4476
▁ceu	-10.4478
▁wherein	-10.4485
▁passage	-10.4488
▁wit	-10.449
▁clam	-10.4495
lant	-10.4496
▁pervenit	-10.4512
▁lapid	-10.4514
▁deny	-10.4518
▁Juno	-10.4518
▁beseech	-10.4518
▁dextera	-10.4518
▁process	-10.452
▁ossa	-10.4537
▁oculi	-10.455
▁paulatim	-10.4561
▁writing	-10.4561
▁First	-10.4561
▁excita	-10.4562
▁disturb	-10.4563
▁adsum	-10.4567
▁repent	-10.4567
▁Ter	-10.4569
▁absque	-10.4571
▁vetus	-10.4574
▁grain	-10.4576
alia	-10.4579
▁speciem	-10.4583
currit	-10.4583
▁equally	-10.4584
▁Christo	-10.4588
▁observed	-10.4593
▁burned	-10.4597
▁latus	-10.4599
▁domino	-10.4602
▁Troy	-10.4605
▁assail	-10.4605
▁urbi	-10.4605
▁turma	-10.4606
▁duas	-10.4608
▁futura	-10.461
▁scribe	-10.4614
▁extent	-10.4618
▁branches	-10.4619
▁Persi	-10.4621
▁datur	-10.4624
▁block	-10.4649
▁ultima	-10.4649
▁Punic	-10.465
▁finger	-10.4651
▁Op	-10.4661
▁reple	-10.4663
▁permit	-10.4672
▁govern	-10.468
▁liberal	-10.468
arius	-10.4684
▁muros	-10.4686
▁Ida	-10.4688
▁ducem	-10.4691
▁noise	-10.4692
▁achieve	-10.4693
▁craft	-10.4694
▁refuge	-10.4694
▁largi	-10.4694
▁respici	-10.4695
▁litore	-10.4697
▁milibus	-10.4699
▁ferrum	-10.4701
▁Namque	-10.4707
▁genti	-10.4709
▁scire	-10.472
▁Iuno	-10.4726
▁nevertheless	-10.4738
▁intellege	-10.4738
▁quotiens	-10.4738
▁mention	-10.4739
▁laetitia	-10.4741
▁naked	-10.4742
▁gentem	-10.4743
▁ardor	-10.4744
▁control	-10.4746
▁accede	-10.475
▁voti	-10.4757
▁altare	-10.4759
▁aurea	-10.4764
▁garments	-10.4771
▁genu	-10.4772
▁discipline	-10.4783
▁everywhere	-10.4783
▁skin	-10.4783
▁Valens	-10.4783
▁brow	-10.4783
▁stock	-10.4783
▁circle	-10.4783
▁advice	-10.4783
▁serious	-10.4785
▁Rhine	-10.4786
▁victorious	-10.4787
▁somno	-10.4788
▁fratribus	-10.4791
▁rushed	-10.4797
▁leo	-10.4799
▁salute	-10.4805
▁adfer	-10.4807
▁cornu	-10.4814
▁teeth	-10.482
▁household	-10.4827
▁doctrina	-10.4827
▁situation	-10.4828
▁below	-10.4828
▁goes	-10.4829
▁strict	-10.4833
▁funeral	-10.4834
▁finibus	-10.4846
▁medita	-10.4846
abantur	-10.4847
▁severe	-10.4858
▁iuvenis	-10.4858
▁Quin	-10.4864
▁Come	-10.4867
▁gaze	-10.4873
place	-10.4874
▁likewise	-10.4875
▁mandat	-10.4881
▁matre	-10.4883
▁veritate	-10.4893
▁Ob	-10.4895
▁lacu	-10.4903
modo	-10.4915
▁families	-10.4918
▁relinque	-10.4918
▁practice	-10.4918
▁snatch	-10.4918
▁lacrimis	-10.4918
▁honey	-10.4918
▁propiti	-10.4918
▁Athens	-10.4918
▁didst	-10.4924
▁sanguinis	-10.4926
▁nuda	-10.4928
▁petere	-10.4931
▁infam	-10.4932
averat	-10.4941
▁events	-10.4948
▁militi	-10.4949
▁fove	-10.4951
▁merely	-10.4953
▁adult	-10.4957
▁spatium	-10.4963
▁temporibus	-10.4963
▁particular	-10.4963
▁ample	-10.4966
▁abiit	-10.4967
▁trial	-10.4972
▁Antioch	-10.4975
▁kiss	-10.4978
▁bath	-10.4982
▁maid	-10.4994
▁setting	-10.5
▁rav	-10.5002
▁ascendit	-10.5003
▁expi	-10.5005
▁supreme	-10.5009
▁Spain	-10.5009
▁succeed	-10.5009
▁obsequ	-10.5009
▁reputation	-10.5012
▁figura	-10.5013
▁urged	-10.5016
▁montibus	-10.5034
▁owe	-10.5041
▁vivere	-10.5051
▁mourning	-10.5055
▁Ze	-10.5055
▁surpass	-10.5055
▁Philistines	-10.5055
▁javelin	-10.5055
▁struggle	-10.5055
▁proportion	-10.5055
▁agmine	-10.5056
▁pulvere	-10.5057
▁straight	-10.5058
▁noctis	-10.5063
▁iussu	-10.5064
▁montem	-10.5076
that	-10.5085
▁tace	-10.5091
amini	-10.5091
▁bearing	-10.5093
▁laugh	-10.5101
▁quicquid	-10.5101
▁district	-10.5101
▁sorte	-10.5101
▁convict	-10.5102
▁provinciae	-10.5103
▁summum	-10.5103
▁music	-10.5109
▁Sun	-10.5114
▁dilige	-10.5119
▁produc	-10.5126
▁Constantius	-10.5132
▁crebri	-10.5149
▁haberet	-10.5151
▁torch	-10.5153
▁posteri	-10.5159
▁axe	-10.516
▁pulsa	-10.5166
▁habeat	-10.5167
▁sequi	-10.517
▁blessing	-10.517
▁bough	-10.5172
▁venisset	-10.5177
▁octo	-10.5178
▁quaecumque	-10.5188
▁complain	-10.5188
▁threshold	-10.5194
▁Britanni	-10.5194
▁Wherefore	-10.5194
▁plunder	-10.5194
▁militari	-10.5194
▁concord	-10.5195
▁genitor	-10.5196
▁tribute	-10.5202
▁virgo	-10.5205
▁rate	-10.5211
▁carmina	-10.5212
▁Turnus	-10.5215
▁patribus	-10.5217
▁vocavit	-10.5227
▁quaestor	-10.5228
▁division	-10.523
▁socia	-10.5232
▁iact	-10.5236
▁Marcellus	-10.524
▁testimonium	-10.524
▁thunder	-10.524
▁distress	-10.524
▁templo	-10.524
▁civium	-10.524
▁Isaac	-10.5241
▁magic	-10.5243
▁regina	-10.5245
clam	-10.5253
▁formed	-10.5262
▁arde	-10.5263
▁vade	-10.5273
▁Gentiles	-10.5287
▁blasphem	-10.5287
▁milk	-10.5287
▁litteris	-10.5287
▁thrust	-10.5287
▁legatos	-10.5288
▁harsh	-10.5289
▁umor	-10.5292
▁semen	-10.5293
▁provided	-10.5308
▁plura	-10.5309
▁foundation	-10.5312
▁occupat	-10.5315
▁fecisse	-10.5318
▁charm	-10.5328
▁pede	-10.5332
▁ostenta	-10.5335
▁zeal	-10.5335
▁singulos	-10.5335
▁tribunal	-10.5337
▁Aeg	-10.5337
▁travel	-10.5338
▁Spiritu	-10.5342
▁infant	-10.5342
▁prison	-10.5345
▁escaped	-10.5348
▁unam	-10.5357
▁conquer	-10.5361
▁beside	-10.5364
▁obvia	-10.537
▁senatum	-10.5377
▁dicunt	-10.5377
▁cometh	-10.5379
▁mandata	-10.5381
▁Jonathan	-10.5382
▁bridge	-10.5382
▁majesty	-10.5382
▁tranquil	-10.5382
▁determined	-10.5382
▁pledge	-10.5382
▁tabula	-10.5382
▁erudi	-10.5383
tulisse	-10.5383
▁confident	-10.5385
thon	-10.5387
▁unco	-10.5394
▁patriam	-10.5396
▁obtine	-10.5401
▁Well	-10.5401
▁omnino	-10.5411
▁afflict	-10.5421
▁prose	-10.5423
▁quaerit	-10.5424
▁praebe	-10.5424
▁exulta	-10.5427
▁auxilium	-10.5429
▁bronze	-10.5429
▁hollow	-10.5429
▁treasure	-10.5429
▁Cuius	-10.543
▁apostle	-10.543
▁boast	-10.5432
▁simplici	-10.5434
▁Levites	-10.5435
post	-10.5436
▁nine	-10.5436
▁flumina	-10.5436
▁verti	-10.5438
serving	-10.5438
▁crop	-10.5439
▁observe	-10.5443
▁pedi	-10.5448
▁appellat	-10.5455
▁prudent	-10.5457
▁refused	-10.5461
▁stretch	-10.5468
▁ornat	-10.547
▁progress	-10.547
▁separated	-10.5477
▁Pompey	-10.5477
▁exemplum	-10.5477
▁banish	-10.5477
▁pardon	-10.5478
▁praemia	-10.5479
▁conscripti	-10.5479
▁aemula	-10.5479
▁adversi	-10.5482
▁consilia	-10.5483
▁wickedness	-10.549
▁mentis	-10.5496
▁chose	-10.5506
▁epistula	-10.5525
▁reject	-10.5525
▁secundo	-10.5525
▁tenebris	-10.5525
▁wrote	-10.5525
▁mittit	-10.5526
▁spur	-10.5526
▁Plato	-10.5527
▁Hiber	-10.5527
missum	-10.553
▁kindred	-10.5538
▁dictis	-10.5538
▁room	-10.5542
▁debet	-10.5544
▁deserve	-10.5552
▁possessed	-10.5553
▁semet	-10.556
▁consumma	-10.5564
▁Trojan	-10.5574
▁elephant	-10.5574
▁oppido	-10.5574
▁ingenio	-10.5574
▁horror	-10.5574
▁special	-10.5574
▁grew	-10.5574
▁forbid	-10.5575
▁rustic	-10.5576
▁pile	-10.5577
▁assist	-10.5578
▁dignitate	-10.5579
▁Germanicus	-10.5581
▁community	-10.5584
▁rector	-10.5589
▁superbia	-10.5589
▁quiver	-10.5595
▁praesidio	-10.5597
▁ceteri	-10.5605
▁perdit	-10.5607
▁civili	-10.5611
▁welcome	-10.5622
▁oppida	-10.5622
▁administr	-10.5622
▁fugam	-10.5623
▁commune	-10.5623
▁semel	-10.5624
▁alas	-10.5632
▁Orient	-10.5636
▁Augusti	-10.564
▁fatiga	-10.5643
▁aura	-10.5659
▁imagin	-10.5663
▁clu	-10.5665
▁curse	-10.5667
▁venerab	-10.5668
▁English	-10.5671
▁sollemni	-10.5671
▁magistratu	-10.5673
▁decima	-10.5676
▁lustra	-10.5681
▁artis	-10.5683
▁quick	-10.5687
▁fuisset	-10.5688
▁returning	-10.5695
▁rota	-10.5697
▁legis	-10.5712
▁lamp	-10.5715
▁dimitte	-10.5716
▁weapon	-10.5717
▁swell	-10.572
▁choice	-10.572
▁campaign	-10.572
▁shining	-10.572
▁optima	-10.5721
▁contain	-10.5721
▁stead	-10.5721
▁contract	-10.5721
▁daemon	-10.5724
▁praetorian	-10.573
▁fool	-10.5732
▁fuerant	-10.5737
▁Grai	-10.574
▁corda	-10.574
▁liberty	-10.5747
▁sonitu	-10.5755
▁turning	-10.5755
▁garrison	-10.5769
▁council	-10.5769
▁quinquaginta	-10.5769
▁saecula	-10.5769
▁await	-10.577
▁itinere	-10.5771
▁idle	-10.5772
▁aliquando	-10.5772
▁iuga	-10.5773
▁solemn	-10.5774
▁dimica	-10.5774
▁accord	-10.5781
▁vani	-10.5785
▁specie	-10.5789
▁pressed	-10.5794
▁conspic	-10.5795
▁torque	-10.5802
▁doom	-10.5815
▁puni	-10.5817
▁Greece	-10.5819
▁effug	-10.5819
▁method	-10.5819
▁anxious	-10.5819
▁servus	-10.5819
▁oxen	-10.5819
▁spira	-10.5819
▁blame	-10.5819
▁street	-10.5819
▁propria	-10.5819
▁slay	-10.5819
▁sharp	-10.5819
▁constitue	-10.582
▁preferred	-10.5821
▁eminent	-10.5823
▁Your	-10.5824
▁coeperunt	-10.5825
▁annorum	-10.5838
▁formida	-10.5839
▁hung	-10.585
▁custodia	-10.5856
▁lucem	-10.5857
▁spent	-10.5868
▁Jugurtha	-10.5869
▁sanctuary	-10.5869
▁yourselves	-10.5869
▁vindica	-10.5869
▁conversation	-10.5869
▁daily	-10.587
▁size	-10.587
▁tradidit	-10.5872
▁poterit	-10.5879
▁parva	-10.5885
▁usually	-10.5898
▁scriptum	-10.5898
▁ambo	-10.5901
▁Thi	-10.591
▁interea	-10.5912
▁multitudinem	-10.5912
▁quadraginta	-10.5919
▁thither	-10.5919
▁neglect	-10.5919
▁overcome	-10.5919
▁magnus	-10.5919
▁illuc	-10.5919
▁shrine	-10.5919
▁period	-10.592
▁praepara	-10.592
▁annum	-10.5926
▁Having	-10.5928
▁tuorum	-10.5932
▁noctu	-10.5934
▁Constanti	-10.5934
▁quarum	-10.5939
star	-10.5942
▁tribuni	-10.5942
▁continued	-10.5951
trix	-10.5954
▁calling	-10.5956
ssime	-10.5961
phon	-10.5964
▁iussi	-10.5966
▁reversus	-10.5969
▁tabe	-10.5971
▁adore	-10.5975
pulit	-10.5975
▁forsake	-10.5975
▁cognosce	-10.5991
▁countrymen	-10.5994
▁volv	-10.5994
▁nostrorum	-10.6
▁discovered	-10.6006
▁beati	-10.6011
▁peccato	-10.6016
▁aequora	-10.6016
▁colleague	-10.6019
▁jealous	-10.6019
▁rursum	-10.6019
▁hurt	-10.602
▁restrain	-10.602
▁testament	-10.6023
▁compass	-10.6023
▁pube	-10.6023
▁drop	-10.6026
▁vasa	-10.6028
▁consp	-10.603
▁suff	-10.6035
▁corru	-10.6041
▁regnavit	-10.6044
▁search	-10.6047
▁ruina	-10.6061
▁dierum	-10.6063
▁Holy	-10.6065
▁turri	-10.6066
▁novo	-10.6069
▁treachery	-10.607
▁conscientia	-10.607
▁abundance	-10.607
▁renew	-10.607
▁ministra	-10.6071
▁venient	-10.6072
▁running	-10.6073
▁agmen	-10.6073
▁defect	-10.6073
▁persist	-10.6074
▁seeking	-10.6075
▁vaga	-10.6078
▁moderation	-10.6079
▁pondere	-10.6081
▁accusa	-10.6084
▁offence	-10.6084
▁videbatur	-10.6085
▁Ahi	-10.6089
▁brass	-10.609
▁kin	-10.6094
▁Romam	-10.6094
▁stet	-10.6094
▁flying	-10.6099
▁amnis	-10.6104
▁pecuniam	-10.6117
▁patrio	-10.6117
▁tear	-10.612
liness	-10.6121
▁Euphrate	-10.6121
▁explain	-10.6121
▁exaudi	-10.6121
▁explica	-10.6121
▁necessitate	-10.6121
▁ark	-10.6124
▁mense	-10.6133
▁suspic	-10.6139
▁estate	-10.6139
▁hunt	-10.614
▁tradit	-10.614
▁numera	-10.6146
▁cost	-10.6146
▁recens	-10.6149
▁bestia	-10.6149
▁coma	-10.6151
▁dictum	-10.6152
▁successor	-10.6159
▁dicam	-10.6163
▁centre	-10.6165
▁occulta	-10.6167
▁discipuli	-10.6172
▁circumstance	-10.6172
▁accepi	-10.6172
▁rouse	-10.6176
▁accipere	-10.6177
▁laeti	-10.618
▁humi	-10.6184
▁pax	-10.6189
▁refuse	-10.619
▁stetit	-10.6192
▁opening	-10.6197
▁potuisse	-10.6204
▁dared	-10.6213
▁Nabuchodonosor	-10.6224
▁percussit	-10.6224
▁Sparta	-10.6224
▁vulnere	-10.6224
▁conflict	-10.6224
▁eleva	-10.6224
▁impetra	-10.6225
▁captivi	-10.6227
▁mild	-10.6232
▁Baal	-10.6235
▁crossed	-10.6242
▁antequam	-10.6249
▁rot	-10.6251
▁reliquit	-10.6252
▁instruction	-10.6268
▁legionibus	-10.6271
▁brand	-10.6273
▁partim	-10.6274
▁Aegypto	-10.6276
▁construct	-10.6276
▁illustrious	-10.6276
▁overthrow	-10.6276
▁saepius	-10.6276
▁utrumque	-10.6278
▁produced	-10.6279
▁faciat	-10.6282
▁signal	-10.6282
▁exple	-10.6285
▁steed	-10.6285
▁conquered	-10.6287
▁load	-10.6293
▁Phil	-10.6295
▁triste	-10.6297
▁grasp	-10.6298
▁aliter	-10.6307
▁bit	-10.6311
▁matrem	-10.632
▁defeat	-10.6323
▁drunk	-10.6328
▁Dolabella	-10.6328
▁sanguis	-10.6328
▁attention	-10.6328
▁invicem	-10.6328
▁dying	-10.6328
▁moreover	-10.6328
▁vult	-10.633
▁defici	-10.633
▁defeated	-10.6333
▁confl	-10.6335
▁militiae	-10.6341
▁divo	-10.6345
▁pursue	-10.6346
▁Est	-10.6352
▁vinum	-10.6354
vertit	-10.6358
▁solet	-10.6358
▁spiritum	-10.6366
▁aspera	-10.637
▁continent	-10.6373
buli	-10.6375
▁loyal	-10.6376
▁leading	-10.6376
▁headlong	-10.638
▁dissolv	-10.638
▁booty	-10.638
▁However	-10.638
▁nimium	-10.638
▁Aedui	-10.6381
▁inhabit	-10.6381
▁disease	-10.6381
▁expecta	-10.6383
▁accuse	-10.6387
▁posce	-10.6389
▁quarter	-10.6399
▁horum	-10.6399
▁weeping	-10.6409
xere	-10.6413
▁touched	-10.6413
▁patre	-10.642
▁weigh	-10.6421
▁sitting	-10.6426
▁Lacedaemon	-10.6433
▁arbitri	-10.6433
▁flagra	-10.6434
▁grati	-10.6435
▁patron	-10.6435
▁abomination	-10.6437
positus	-10.6446
▁assembled	-10.6446
▁Macedonians	-10.6447
▁philosopher	-10.6449
▁recess	-10.645
▁concern	-10.6452
▁refert	-10.6454
▁mittere	-10.6464
▁summit	-10.6468
▁feroci	-10.6471
▁punished	-10.6472
▁caedi	-10.6472
▁consumed	-10.6475
▁facilius	-10.6475
▁permane	-10.6476
▁idcirco	-10.6486
▁oppugn	-10.6486
▁entrust	-10.6486
▁Besides	-10.6486
▁gladiator	-10.6486
▁roar	-10.6486
▁retain	-10.6487
▁aedi	-10.6488
▁potestas	-10.6497
▁incense	-10.6498
▁spoil	-10.6513
<	-10.6516
▁suffici	-10.6524
▁rumor	-10.6529
▁tracta	-10.6531
▁suffering	-10.6533
▁hurled	-10.6538
▁Anglorum	-10.6539
▁unjust	-10.6539
▁whatsoever	-10.6539
▁Gallus	-10.6539
▁sinistra	-10.6539
▁judged	-10.6541
▁shameful	-10.6547
▁depend	-10.6561
▁alterius	-10.6569
▁Iudaei	-10.6571
▁pia	-10.6583
▁Ana	-10.6584
▁protected	-10.6586
▁lance	-10.6589
▁Sol	-10.6589
▁Bala	-10.6591
▁continua	-10.6592
▁arrival	-10.6592
▁vineyard	-10.6592
▁coniunx	-10.6592
▁altitudine	-10.6592
▁warfare	-10.6593
▁quidquid	-10.6593
▁aequore	-10.6593
▁avail	-10.6593
▁delecta	-10.6593
▁knee	-10.6594
▁flash	-10.6595
▁innumera	-10.6595
▁Diana	-10.6599
▁habens	-10.6601
▁fecisti	-10.6604
▁meeting	-10.6608
▁navibus	-10.6609
▁rebel	-10.6629
▁Italiam	-10.6631
▁encourage	-10.6646
▁grievous	-10.6646
▁inheritance	-10.6646
▁language	-10.6646
vide	-10.6646
▁earlier	-10.6646
▁exercise	-10.6646
▁inopia	-10.6647
▁proof	-10.6648
▁style	-10.6649
▁plead	-10.6651
▁stirpe	-10.6654
▁fecerat	-10.6656
spexit	-10.6657
▁auribus	-10.6662
▁lumine	-10.6663
▁modera	-10.6664
▁stage	-10.6664
▁confirm	-10.6665
▁discord	-10.6666
▁continue	-10.6666
▁main	-10.6672
▁feci	-10.6674
▁Dum	-10.6689
▁difficulty	-10.6689
▁smoke	-10.67
▁vengeance	-10.67
▁dissipa	-10.67
▁reckon	-10.67
▁fertur	-10.6701
▁devotion	-10.6705
▁aspici	-10.6709
▁slip	-10.6709
▁App	-10.671
▁interior	-10.6711
▁splend	-10.6726
▁latro	-10.6731
▁voluit	-10.6733
▁Gad	-10.6737
▁served	-10.6737
▁palam	-10.6753
▁employ	-10.6755
▁Hispania	-10.6755
▁Cilicia	-10.6755
▁erga	-10.6755
▁Every	-10.6755
▁provision	-10.6755
▁extremi	-10.6755
▁armorum	-10.6768
▁excuse	-10.6768
▁vaca	-10.6772
▁Since	-10.6787
bunda	-10.679
▁religio	-10.6791
▁charged	-10.6805
▁infelix	-10.6809
▁quemadmodum	-10.6809
▁squadron	-10.6809
▁vanquished	-10.6809
▁ashamed	-10.6809
▁folk	-10.6809
▁Nunc	-10.6809
▁depreca	-10.6809
▁nefas	-10.6812
▁nominis	-10.6813
tulerat	-10.682
▁abide	-10.6832
▁dash	-10.684
▁mentem	-10.6845
▁Sara	-10.6845
▁accused	-10.6846
▁virgine	-10.685
▁Just	-10.6864
▁discharge	-10.6864
▁pauca	-10.6864
▁gird	-10.6865
▁benign	-10.6865
▁Those	-10.6866
▁furore	-10.6871
▁shine	-10.6885
▁seventh	-10.6894
L	-10.6897
▁magister	-10.6899
▁India	-10.6911
▁foul	-10.6918
▁gleam	-10.692
▁Saxon	-10.692
▁devil	-10.692
▁herds	-10.6922
▁proconsul	-10.6926
▁vellet	-10.6927
▁lover	-10.6927
▁libra	-10.6928
▁relate	-10.6929
▁created	-10.6934
▁immani	-10.6938
▁odio	-10.6945
▁vinea	-10.6962
▁sane	-10.6968
▁ourselves	-10.6975
▁smooth	-10.6975
▁terrified	-10.6975
▁persuade	-10.6975
▁assigned	-10.6975
▁amount	-10.6976
xisse	-10.6976
▁story	-10.6976
▁source	-10.6976
▁Marte	-10.6978
▁Har	-10.6978
▁plunge	-10.6982
▁sedition	-10.6986
▁retire	-10.6996
▁nearest	-10.6998
▁telis	-10.701
▁confirma	-10.7013
▁Spirit	-10.7022
▁ferunt	-10.7024
▁temperat	-10.7025
▁marvel	-10.7031
▁unhappy	-10.7031
▁wrought	-10.7031
▁videlicet	-10.7031
▁proximo	-10.7031
▁substance	-10.7031
▁prize	-10.7031
▁timid	-10.7032
▁Roma	-10.7037
▁Amor	-10.7042
▁venture	-10.7047
▁mentioned	-10.7048
▁taste	-10.7049
▁tertio	-10.7053
▁Vin	-10.7055
▁panic	-10.706
▁solve	-10.7062
▁viva	-10.7067
▁abandoned	-10.7076
▁Liber	-10.7083
▁appeal	-10.7087
▁unusquisque	-10.7087
▁prevail	-10.7087
▁John	-10.7087
▁vinci	-10.7088
▁socios	-10.7088
▁stimul	-10.7088
▁forthwith	-10.7089
▁grandi	-10.709
▁solitudine	-10.7091
▁oak	-10.7091
▁tempestate	-10.7093
▁poterant	-10.7096
▁cruore	-10.7103
▁reddere	-10.7103
▁fornication	-10.711
▁interdum	-10.7126
▁reddit	-10.7134
▁Athenian	-10.7143
▁Ezechias	-10.7143
▁cloak	-10.7143
▁multiplica	-10.7143
▁Scythia	-10.7144
▁iuvenes	-10.7144
▁listen	-10.7145
mittunt	-10.7148
▁Thebes	-10.7151
▁ostendit	-10.7154
▁nive	-10.7161
▁Item	-10.7164
▁parce	-10.717
▁utterly	-10.7186
▁videretur	-10.7191
▁sublimi	-10.7193
▁understanding	-10.7196
▁Brittania	-10.72
▁anxiety	-10.72
▁profectus	-10.72
▁sabbath	-10.72
▁rumour	-10.72
▁Shall	-10.72
▁circiter	-10.72
▁supplies	-10.72
▁cervice	-10.7201
▁tribulation	-10.7202
▁Germany	-10.7207
▁introduc	-10.7209
▁recte	-10.7212
▁mingled	-10.7215
▁alterna	-10.7221
▁lecti	-10.7229
▁tuba	-10.7229
hil	-10.7233
▁Perse	-10.7238
▁capere	-10.7239
▁celeri	-10.7243
▁stare	-10.7245
escente	-10.7252
▁suscipi	-10.7257
▁penalty	-10.7257
▁Ergo	-10.7258
▁bosom	-10.7258
▁scandal	-10.7258
▁coniuge	-10.7258
▁deceit	-10.726
▁periculi	-10.7263
▁openly	-10.7263
▁revolt	-10.7264
▁opibus	-10.7272
▁hastened	-10.7287
▁kindness	-10.7287
▁revealed	-10.7299
▁summon	-10.73
▁descendit	-10.7302
▁lucis	-10.7302
▁truci	-10.7304
▁Aenea	-10.7307
▁entreat	-10.7313
▁Publius	-10.7315
▁Joseph	-10.7315
▁dissimula	-10.7315
▁universo	-10.7315
▁marsh	-10.7315
▁machina	-10.7315
▁coeper	-10.7315
▁insuper	-10.7315
▁eundem	-10.7315
▁flatter	-10.7315
▁fluminis	-10.7315
▁suscita	-10.7317
▁arva	-10.7319
▁consecrated	-10.7322
▁dawn	-10.7324
▁3	-10.7325
▁couch	-10.7325
▁defiled	-10.7332
▁missus	-10.7341
▁wandering	-10.7344
▁coetu	-10.7355
▁Verum	-10.7364
▁greatness	-10.7367
▁homini	-10.7371
▁execution	-10.7373
▁instead	-10.7373
▁fecerit	-10.7373
▁stroke	-10.7373
▁board	-10.7373
▁pascha	-10.7373
▁Alexandria	-10.7374
▁censor	-10.7375
▁mundo	-10.7381
▁salvation	-10.7382
▁iacent	-10.7395
▁similiter	-10.74
▁unable	-10.7404
▁vester	-10.741
▁turre	-10.7412
▁passim	-10.7419
▁insist	-10.7427
▁Iuppiter	-10.7431
▁Jordan	-10.7431
▁gaudia	-10.7431
▁Neither	-10.7431
▁wilderness	-10.7431
▁proximi	-10.7431
▁Josue	-10.7431
▁Arab	-10.7432
▁drag	-10.7432
▁palma	-10.7433
▁stretched	-10.7442
▁legibus	-10.7444
▁quicumque	-10.7446
▁buy	-10.7449
▁material	-10.7459
▁wretched	-10.7462
which	-10.7467
▁solent	-10.7475
▁reperi	-10.7484
▁aequo	-10.7488
▁careful	-10.7489
▁tabernaculum	-10.7489
▁conspicuous	-10.7489
▁commemora	-10.7489
▁exposed	-10.7489
▁municip	-10.749
▁exsp	-10.749
▁hurl	-10.7491
▁otherwise	-10.7494
▁z	-10.75
▁gente	-10.7525
▁finished	-10.7529
▁Erat	-10.7533
▁destru	-10.7543
▁beautiful	-10.7548
▁citadel	-10.7548
▁surprise	-10.7548
▁harbour	-10.7548
▁iuventa	-10.7548
▁throat	-10.7548
▁periculum	-10.7549
▁sacro	-10.7549
▁Aristo	-10.7549
▁utraque	-10.7552
▁segni	-10.7558
▁Give	-10.7559
▁wage	-10.7565
▁bonus	-10.7565
▁movement	-10.7566
▁liberos	-10.7578
▁shower	-10.7582
▁conple	-10.7588
▁Pater	-10.7599
▁Nymph	-10.7607
▁surface	-10.7607
▁flammis	-10.7607
▁mortui	-10.7607
▁corporibus	-10.7607
▁twin	-10.7608
▁correct	-10.7609
▁pleased	-10.7612
▁aetatis	-10.7614
▁clade	-10.7615
▁neighbouring	-10.7616
▁invoca	-10.7617
▁Iamque	-10.7617
▁specula	-10.7618
▁vulgus	-10.763
▁Tartar	-10.7636
▁Graeci	-10.7651
▁pick	-10.7655
▁hostia	-10.7659
▁Iugurtha	-10.7667
▁investiga	-10.7667
▁knight	-10.7667
▁Drusus	-10.7667
▁architect	-10.7667
▁intellect	-10.7667
▁involve	-10.7667
▁guest	-10.7667
▁inflict	-10.7668
▁fiery	-10.7668
▁regular	-10.767
▁veniam	-10.7672
▁complaint	-10.7674
▁actually	-10.7679
▁dangerous	-10.768
▁aspect	-10.7683
▁ipsorum	-10.7687
▁submit	-10.7692
▁stain	-10.7701
A	-10.7704
▁duri	-10.7711
rumpere	-10.7712
▁invita	-10.7722
▁veloci	-10.7724
▁inane	-10.7725
▁referre	-10.7727
▁Agrippa	-10.7727
▁arranged	-10.7727
▁mankind	-10.7727
▁Ioseph	-10.7727
▁pursuit	-10.7727
▁steep	-10.7727
▁dragged	-10.7727
▁decision	-10.7727
▁conserva	-10.7728
▁corpse	-10.7728
▁attain	-10.7728
▁vocant	-10.7737
▁fronde	-10.7739
▁sway	-10.774
▁tunic	-10.7741
▁bind	-10.7742
▁debt	-10.7747
▁Mari	-10.7748
▁regibus	-10.7755
▁clad	-10.776
▁datum	-10.7769
▁strain	-10.7778
▁leve	-10.778
▁Bacchus	-10.7787
▁prospect	-10.7787
▁precibus	-10.7787
▁assured	-10.7787
▁epula	-10.7787
▁pyre	-10.7789
▁basi	-10.7793
▁cernere	-10.7794
▁pretium	-10.7795
▁celeriter	-10.7795
▁virga	-10.7799
▁Graecia	-10.7803
▁breadth	-10.7806
▁extol	-10.7808
▁compelled	-10.7823
▁cito	-10.783
▁demons	-10.784
▁ausus	-10.7841
▁consuetudine	-10.7848
▁entrance	-10.7848
▁harvest	-10.7848
▁Maximus	-10.7848
▁supply	-10.7848
▁elder	-10.7848
▁row	-10.7848
▁ullo	-10.7848
▁novum	-10.7849
▁ceased	-10.7849
▁posita	-10.7851
▁admitted	-10.7856
▁spin	-10.7857
▁vote	-10.7876
▁Omni	-10.7886
▁crushed	-10.7895
▁autumn	-10.7899
▁luxu	-10.79
▁evangeli	-10.7909
▁Teucri	-10.7909
▁felix	-10.7909
▁valde	-10.7909
▁message	-10.7909
▁castrorum	-10.7909
▁reins	-10.7912
▁scelera	-10.7913
▁halt	-10.7917
▁libertatem	-10.7919
▁6	-10.7921
▁aquarum	-10.7922
▁incita	-10.7924
▁celer	-10.7926
▁aevo	-10.793
▁mock	-10.7937
▁aspectu	-10.7958
▁Absalom	-10.797
▁pulcher	-10.797
▁Crassus	-10.797
▁avenge	-10.7971
▁XX	-10.7971
▁futurum	-10.7976
▁principibus	-10.798
▁mensura	-10.7984
▁reside	-10.7987
▁restore	-10.7992
▁limina	-10.7993
▁teacher	-10.7997
▁grown	-10.8
▁string	-10.8009
▁eloquentia	-10.8015
▁happiness	-10.8032
▁sanctum	-10.8032
▁swear	-10.8032
▁iuvenem	-10.8032
▁void	-10.8032
▁consurge	-10.8033
▁monster	-10.8033
▁initia	-10.8039
▁hesitate	-10.8043
▁disposition	-10.8063
▁Sex	-10.807
▁hail	-10.8075
▁crimina	-10.8077
▁toga	-10.808
▁threatening	-10.8083
▁lava	-10.8086
▁circuit	-10.8088
pulsi	-10.8091
▁disco	-10.8094
▁breeze	-10.8094
▁tyrant	-10.8094
▁hyp	-10.8094
▁Varro	-10.8094
▁foedera	-10.8094
▁galea	-10.8094
▁suspend	-10.8094
▁transire	-10.8094
▁catch	-10.8094
▁divum	-10.8095
▁nuntio	-10.8095
▁strip	-10.8099
▁gemina	-10.8102
▁cornua	-10.8109
▁respondens	-10.8114
▁client	-10.8117
▁signific	-10.8124
▁lex	-10.8136
with	-10.815
▁tall	-10.8152
▁revol	-10.8156
▁exempla	-10.8156
▁membris	-10.8156
▁industria	-10.8156
▁altis	-10.8156
▁Iosue	-10.8157
▁occupied	-10.8157
▁partner	-10.8158
▁Sicilia	-10.8159
▁civitatibus	-10.8159
▁stirred	-10.816
▁cavern	-10.8162
▁spern	-10.8162
▁maioribus	-10.8164
▁vario	-10.8169
▁intact	-10.8173
▁pedum	-10.8174
▁videntur	-10.8183
▁circumdat	-10.8183
▁opponent	-10.8219
▁iudicia	-10.8219
▁appet	-10.8219
▁numerus	-10.8219
▁forgive	-10.8221
▁revela	-10.8221
▁likeness	-10.8223
▁relation	-10.8224
▁putting	-10.8224
▁iugum	-10.8232
▁carefully	-10.8242
▁procede	-10.8243
▁morti	-10.8244
▁perceived	-10.8247
polis	-10.8253
▁fly	-10.8263
▁habeant	-10.8269
▁funera	-10.8276
▁odium	-10.8276
duo	-10.8277
▁Emperor	-10.8282
▁plerumque	-10.8282
▁instrument	-10.8282
▁boat	-10.8283
▁nato	-10.8284
▁argue	-10.8284
▁panem	-10.8286
▁tremble	-10.8289
▁praesens	-10.829
▁flumine	-10.8294
▁scan	-10.8295
▁locorum	-10.8296
▁oratio	-10.83
▁mariti	-10.8302
▁honourable	-10.8305
▁prudentia	-10.8309
▁quaerere	-10.8331
▁ducere	-10.8335
▁exhort	-10.8337
▁uncle	-10.834
▁cogit	-10.834
▁gradi	-10.834
▁Cornelius	-10.8346
▁Minerva	-10.8346
▁formidine	-10.8346
▁offspring	-10.8346
▁somewhat	-10.8346
▁understood	-10.8346
▁terrible	-10.8346
▁frigid	-10.8346
▁foolish	-10.8347
▁laetus	-10.8349
▁effer	-10.835
wise	-10.8354
▁elegi	-10.8359
▁dignum	-10.8359
▁Quintus	-10.8365
▁pelle	-10.8374
▁prepare	-10.8376
E	-10.8388
▁damn	-10.839
▁Pyr	-10.8391
▁rettuli	-10.8392
▁edict	-10.8393
▁flect	-10.8402
▁quest	-10.8406
▁moderate	-10.8407
▁eunuch	-10.841
▁whither	-10.841
▁assault	-10.841
▁womb	-10.841
▁negotia	-10.841
▁repeated	-10.841
▁purga	-10.8411
▁adverso	-10.8411
▁examine	-10.8412
▁officio	-10.8414
▁oars	-10.8415
▁accusation	-10.8417
▁Patre	-10.8419
string	-10.8422
▁sequitur	-10.8423
▁Philo	-10.8429
▁value	-10.8429
▁intention	-10.843
▁combat	-10.844
▁Nic	-10.8452
N	-10.8465
▁Alexandri	-10.8474
▁channel	-10.8475
▁resurrection	-10.8475
▁physic	-10.8475
▁array	-10.8475
▁Esau	-10.8475
▁difference	-10.8477
▁usurp	-10.8482
▁oscula	-10.8485
▁malign	-10.8485
▁initio	-10.8494
▁lacera	-10.8498
▁pool	-10.8506
▁cena	-10.8534
▁invade	-10.8534
▁opprim	-10.854
▁Nathan	-10.854
prehensi	-10.8541
▁variis	-10.8541
▁hearken	-10.8542
▁pluribus	-10.8542
▁Capua	-10.8542
▁suffice	-10.8543
▁dominus	-10.855
▁bark	-10.8553
▁spend	-10.8555
▁quosdam	-10.8557
cessisse	-10.8563
▁laxa	-10.8563
▁iusta	-10.8566
▁hunger	-10.857
cule	-10.857
▁despise	-10.8571
▁adveni	-10.8601
▁argentum	-10.8605
▁principal	-10.8605
▁proclaim	-10.8605
▁propinqua	-10.8605
▁benefit	-10.8605
▁provoca	-10.8606
▁stripped	-10.8606
▁instance	-10.8606
▁oracle	-10.8607
▁contemn	-10.8608
▁range	-10.8613
▁Sidonius	-10.8616
▁tergo	-10.863
▁lake	-10.8632
▁cibo	-10.8637
▁Parthian	-10.8644
▁Mosi	-10.8646
▁religious	-10.8646
▁expedit	-10.8648
▁trace	-10.8652
▁peccatum	-10.8653
▁grim	-10.8657
▁intue	-10.8658
▁saltu	-10.8658
▁cognita	-10.8671
▁convenient	-10.8671
▁templa	-10.8671
▁ingenii	-10.8671
▁Persarum	-10.8671
▁rash	-10.8672
▁Mosen	-10.8673
▁steal	-10.8673
▁wholly	-10.8673
▁naves	-10.8674
▁lightning	-10.868
▁ambition	-10.8682
▁pleni	-10.8682
▁pipe	-10.8688
▁mercede	-10.869
▁principe	-10.869
▁ripe	-10.8698
▁iussa	-10.8705
▁aevi	-10.8708
▁pursued	-10.8714
▁push	-10.8717
▁Antiochus	-10.8721
▁Many	-10.8731
▁East	-10.8736
▁adulescenti	-10.8737
▁shaft	-10.8737
▁earnest	-10.8737
▁turbid	-10.8737
▁praeceps	-10.8737
▁Ausonia	-10.8737
▁curia	-10.874
▁devora	-10.8741
▁pluck	-10.8743
verint	-10.8744
▁missiles	-10.8745
surgit	-10.8745
▁uterque	-10.8746
▁honos	-10.8746
▁Long	-10.8747
▁Isai	-10.8752
▁impress	-10.8752
▁tract	-10.8759
▁vul	-10.8765
▁rupe	-10.8766
▁seize	-10.877
▁famine	-10.8771
▁dixisse	-10.8771
▁loquere	-10.8778
▁excess	-10.8779
▁adesse	-10.878
▁weep	-10.8784
facta	-10.8794
▁really	-10.8799
▁Valentinian	-10.8804
▁exemplo	-10.8804
▁enterprise	-10.8804
▁pectus	-10.8804
▁bride	-10.8804
▁possis	-10.8804
▁nigra	-10.8805
▁penetrat	-10.8805
▁Nature	-10.8805
▁fugient	-10.8808
▁permitted	-10.8811
▁aequor	-10.8812
▁dominum	-10.8814
▁larger	-10.8818
▁besieged	-10.8818
▁united	-10.882
▁coepi	-10.8823
▁lumen	-10.8835
▁despised	-10.8839
▁sani	-10.8865
▁Campania	-10.8871
▁tabernaculi	-10.8871
▁suggest	-10.8871
▁ceterum	-10.8871
▁negotio	-10.8871
▁poverty	-10.8871
▁cherub	-10.8871
▁Quem	-10.8871
▁imago	-10.8871
▁envy	-10.8871
▁licentia	-10.8871
▁plague	-10.8872
▁vigorous	-10.8874
▁Great	-10.8874
▁insigne	-10.8875
▁praesidium	-10.8875
▁captivity	-10.8877
▁istud	-10.8877
▁interfecti	-10.8878
▁lowest	-10.8881
▁official	-10.8883
▁ungue	-10.8883
▁theatre	-10.8883
▁excipi	-10.8886
▁fundit	-10.889
▁peditum	-10.8904
room	-10.8913
▁Iovi	-10.8914
cup	-10.8935
▁preme	-10.8938
▁Though	-10.8938
▁Ruben	-10.8938
▁High	-10.8939
▁upright	-10.8939
▁cecidit	-10.8939
▁critic	-10.8939
▁provoke	-10.8941
▁ulli	-10.8948
▁scatter	-10.8949
▁placuit	-10.8949
▁Tyrian	-10.895
▁secuti	-10.8976
▁supplication	-10.898
▁someone	-10.898
libet	-10.8984
▁apostolic	-10.9001
▁argenti	-10.9006
▁principum	-10.9006
▁rejoicing	-10.9006
▁territories	-10.9006
▁unexpected	-10.9006
▁contempla	-10.9006
▁snake	-10.9006
▁temporum	-10.9007
▁pillar	-10.9007
▁pollice	-10.9007
▁reserve	-10.9007
▁totidem	-10.9009
who	-10.901
▁wherewith	-10.901
▁edge	-10.9011
▁sanctorum	-10.9021
▁lean	-10.9034
▁lawful	-10.9034
▁designat	-10.9068
▁sink	-10.9074
▁eques	-10.9074
▁bottom	-10.9075
▁ordained	-10.9075
▁pierced	-10.9075
▁sacerdotum	-10.9075
▁mistress	-10.9075
▁profecto	-10.9075
▁utrimque	-10.9076
▁vitio	-10.9077
▁rude	-10.9079
▁nimia	-10.9082
▁concept	-10.9082
▁consensu	-10.9088
▁gladium	-10.9091
▁Call	-10.9091
▁voluer	-10.9095
▁insidias	-10.9107
▁principio	-10.9122
▁advent	-10.9126
▁eximi	-10.9144
▁Benjamin	-10.9144
▁school	-10.9144
▁treacherous	-10.9144
▁reverence	-10.9144
▁flank	-10.9144
▁silvis	-10.9144
▁foederis	-10.9144
▁curva	-10.9144
▁select	-10.9145
▁comminus	-10.9151
▁imperat	-10.9151
▁equitibus	-10.9152
▁dives	-10.9153
▁Easter	-10.9155
▁patient	-10.9157
▁successful	-10.9157
▁gravior	-10.9158
▁numina	-10.9163
▁warning	-10.9163
▁dispar	-10.9163
▁praedic	-10.9177
▁Illyricum	-10.9213
▁Ptolem	-10.9213
▁disorder	-10.9213
▁marble	-10.9213
,000	-10.9213
▁fortified	-10.9214
▁precor	-10.9214
▁simple	-10.9214
▁scelus	-10.9214
▁Argos	-10.9215
▁aware	-10.9215
▁vigor	-10.9231
▁tie	-10.9242
▁modesty	-10.9257
2	-10.9261
▁adept	-10.9265
▁Samuel	-10.9283
▁monasterio	-10.9283
▁avaritia	-10.9283
▁expugna	-10.9283
▁moisture	-10.9283
▁obscure	-10.9283
▁studiis	-10.9283
▁praecepta	-10.9283
▁strife	-10.9283
▁crimine	-10.9283
▁destitu	-10.9284
▁plurimi	-10.9284
▁readily	-10.9284
▁gradually	-10.9285
▁fulfilled	-10.9285
▁cogniti	-10.9285
▁Semei	-10.9286
▁mundum	-10.9295
▁vapor	-10.9299
▁doctor	-10.9309
▁deceived	-10.9314
▁concede	-10.9323
▁patientia	-10.9348
▁abomin	-10.9353
▁Beniamin	-10.9354
▁Eleazar	-10.9354
▁Labienus	-10.9354
▁misfortune	-10.9354
▁thunderbolt	-10.9354
▁universe	-10.9354
▁widow	-10.9354
▁extremo	-10.9354
▁trembling	-10.9354
▁nubila	-10.9354
▁cadaver	-10.9354
▁fifth	-10.9354
▁cuncto	-10.9354
▁horde	-10.9354
▁excessive	-10.9356
▁breed	-10.9356
▁utterance	-10.9358
▁fossa	-10.9361
▁equidem	-10.9364
▁criminal	-10.9373
▁munus	-10.9375
▁chill	-10.9375
▁wander	-10.9389
▁gladii	-10.9391
▁munda	-10.9391
▁regionibus	-10.9402
▁rudi	-10.942
▁bird	-10.9421
▁desolate	-10.9425
▁surrexit	-10.9425
▁turbine	-10.9425
▁swim	-10.9425
▁pretend	-10.9425
▁increpa	-10.9426
▁boves	-10.9426
▁superstition	-10.9427
temper	-10.9442
▁bless	-10.9443
▁joyful	-10.9444
▁engaged	-10.9447
▁lecto	-10.9449
▁nobilitat	-10.9456
▁veteri	-10.9459
titude	-10.9464
▁sancto	-10.948
▁perfer	-10.9483
▁remark	-10.9493
▁foeda	-10.9495
▁Aegyptum	-10.9496
▁Cynthia	-10.9496
▁Members	-10.9496
▁evidence	-10.9496
▁obscura	-10.9496
▁manduca	-10.9496
▁quarrel	-10.9496
▁tread	-10.9496
▁blush	-10.9496
▁postremo	-10.9496
▁worn	-10.9496
▁diadem	-10.9496
▁munere	-10.9497
▁greet	-10.9497
▁particip	-10.9497
▁Homer	-10.9498
▁etenim	-10.9498
▁vetusta	-10.9505
▁exsul	-10.9509
▁apparuit	-10.951
▁abandon	-10.9511
▁equorum	-10.9512
▁Dion	-10.9523
▁veil	-10.9525
escat	-10.9552
▁rump	-10.9559
▁Jeremias	-10.9568
▁Samuhel	-10.9568
▁gurgite	-10.9568
▁Finally	-10.9568
▁gubern	-10.9568
▁important	-10.9568
▁suppliant	-10.9568
▁revenge	-10.9568
▁ardua	-10.9568
▁propius	-10.9569
▁iuvat	-10.957
▁Hesper	-10.9572
▁Ipse	-10.9572
▁collega	-10.9573
▁stupe	-10.9575
▁minime	-10.9576
▁atroci	-10.9579
▁initium	-10.958
▁viderunt	-10.9581
▁stella	-10.9583
▁utinam	-10.9587
▁ausi	-10.9588
▁opposed	-10.9589
▁culmi	-10.9603
▁portent	-10.9624
▁Char	-10.9632
▁sapienti	-10.9639
▁adnuntia	-10.964
▁Corbulo	-10.964
▁substantia	-10.964
▁pronunti	-10.9641
▁eagle	-10.9643
▁mediis	-10.9644
▁equestri	-10.9645
▁luxuria	-10.9647
▁surround	-10.9656
▁shaken	-10.9661
▁omit	-10.9661
▁appellant	-10.9661
▁approved	-10.9662
▁Alps	-10.9665
▁bonorum	-10.9671
▁falsa	-10.9678
▁ultio	-10.9678
▁current	-10.9693
▁concupisc	-10.9713
▁cotidie	-10.9713
▁plerique	-10.9713
▁conscience	-10.9713
▁mortuo	-10.9713
▁fragor	-10.9713
▁simulacra	-10.9713
▁morbo	-10.9714
▁declina	-10.9714
▁neminem	-10.9714
▁mistake	-10.9714
▁sanctified	-10.9716
▁iusto	-10.9716
▁externa	-10.9717
▁clara	-10.9719
▁oves	-10.9721
▁percuti	-10.9725
▁fitting	-10.9729
▁expression	-10.9734
▁iunge	-10.9735
▁tractu	-10.9748
▁detest	-10.9748
▁olea	-10.9755
▁abscond	-10.9761
▁discordia	-10.9762
▁dicebat	-10.9767
▁praesente	-10.977
▁admiration	-10.9771
▁Turn	-10.9772
▁frenzy	-10.9787
▁gaudio	-10.9787
▁Church	-10.9787
▁Daniel	-10.9787
▁Parmenion	-10.9787
▁worse	-10.9787
▁oportere	-10.9787
▁advocat	-10.9787
▁sepeli	-10.9787
▁diutius	-10.9787
▁loquar	-10.9788
▁games	-10.9788
▁clash	-10.9789
▁latitudine	-10.9789
▁pasture	-10.9796
▁sinned	-10.9801
▁remove	-10.9803
▁track	-10.9805
▁amicorum	-10.9814
▁Love	-10.9814
▁consideration	-10.9839
▁homine	-10.9858
▁Achilles	-10.9861
▁Philisthim	-10.9861
▁auxilio	-10.9861
▁beneficio	-10.9861
▁proximum	-10.9861
▁purpura	-10.9861
▁belief	-10.9861
▁marmor	-10.9861
▁shoot	-10.9861
▁qualities	-10.9861
▁degener	-10.9861
▁folly	-10.9861
▁suitable	-10.9861
▁puppi	-10.9861
▁saeculi	-10.9862
▁Lyci	-10.9862
▁robber	-10.9862
▁troop	-10.9862
▁Fabi	-10.9864
▁succed	-10.9867
▁posterity	-10.9869
▁saxo	-10.987
▁Edom	-10.9875
▁perduc	-10.9887
▁volume	-10.9908
▁infect	-10.991
▁profession	-10.991
▁Antony	-10.9936
▁Gracchus	-10.9936
▁fountain	-10.9936
▁Lepidus	-10.9936
▁suscepi	-10.9936
▁nescio	-10.9936
stricken	-10.9936
▁hostages	-10.9936
▁moenibus	-10.9936
▁Denique	-10.9936
▁utriusque	-10.9936
▁robore	-10.9939
▁habitatores	-10.9941
▁antiqua	-10.9944
▁covet	-10.9946
▁previously	-10.995
▁kindled	-10.9952
▁quibusdam	-10.9958
▁vobiscum	-10.9961
▁scale	-10.9962
▁festi	-10.9964
▁fieret	-10.9967
▁malorum	-10.9967
▁inner	-10.9988
▁cogitatione	-11.0006
▁everyone	-11.001
7	-11.0011
▁Greeting	-11.0011
▁Mithridate	-11.0011
▁Sulpici	-11.0011
▁Ul	-11.0011
▁baggage	-11.0011
▁conceived	-11.0011
▁episcopus	-11.0011
▁sweat	-11.0011
▁ghost	-11.0011
▁precious	-11.0011
▁ancilla	-11.0011
▁evident	-11.0011
▁ulula	-11.0011
▁scruta	-11.0011
▁incolumi	-11.0011
▁alliance	-11.0013
▁Paulinus	-11.0015
▁tax	-11.0026
▁sacrament	-11.0033
▁sentence	-11.0035
▁boil	-11.0036
▁abscondit	-11.0037
▁adole	-11.0042
▁luck	-11.0046
▁cela	-11.0052
▁regula	-11.0083
▁fulfil	-11.0085
▁edit	-11.0085
▁Iohanne	-11.0087
▁timber	-11.0087
▁volucres	-11.0087
▁urban	-11.0087
▁saeculo	-11.0087
▁insolent	-11.0088
▁disser	-11.0096
▁saevitia	-11.0098
▁doubtful	-11.01
▁munitione	-11.0106
house	-11.0114
▁pair	-11.0119
T	-11.014
▁aequali	-11.0142
▁shake	-11.0142
▁praestant	-11.0154
▁urgent	-11.0163
▁preparation	-11.0163
▁sempiternum	-11.0163
▁contumelia	-11.0163
▁propinqui	-11.0163
▁spatia	-11.0163
▁Sicily	-11.0164
▁Nihil	-11.0164
▁Victor	-11.0165
▁secundi	-11.0165
▁whenever	-11.0166
▁ignorance	-11.0168
▁foedus	-11.0169
▁stride	-11.0173
▁diximus	-11.0174
▁pelli	-11.0178
▁civis	-11.0183
▁trick	-11.0184
▁seventy	-11.0185
izing	-11.02
▁consort	-11.0203
▁caritate	-11.0231
▁Mesopotamia	-11.024
▁Salvtem	-11.024
▁commonwealth	-11.024
▁equum	-11.024
▁whirl	-11.024
▁garland	-11.024
▁sollicita	-11.024
▁launch	-11.024
▁oboedi	-11.024
▁wonderful	-11.025
▁tradition	-11.0251
▁robust	-11.0253
▁Herod	-11.0254
▁sustain	-11.0258
▁disperse	-11.0282
▁multitudini	-11.0289
▁pack	-11.0305
▁Domitius	-11.0317
▁Sidonivs	-11.0317
▁challenge	-11.0317
▁necessaria	-11.0317
▁principatu	-11.0317
▁receiving	-11.0317
▁festival	-11.0317
▁ingenium	-11.0317
▁withdrew	-11.0317
▁Corinth	-11.0317
▁Sabinus	-11.0317
▁Stygia	-11.0317
▁dimidia	-11.0318
▁meridie	-11.0318
▁thrice	-11.0318
▁tardi	-11.0318
▁Among	-11.0318
▁ligna	-11.0318
▁villages	-11.0318
▁dubio	-11.0319
▁egit	-11.0322
▁oblation	-11.0327
▁favourable	-11.0335
▁sumptu	-11.0338
▁Hebron	-11.0396
▁Ionathan	-11.0396
▁Vitellian	-11.0396
▁dinner	-11.0396
▁suburban	-11.0396
▁clementia	-11.0396
▁pietate	-11.0396
▁fortitudine	-11.0396
▁Graeco	-11.0396
▁pupil	-11.0397
▁risk	-11.0397
▁sauci	-11.0397
▁Aemilianus	-11.0398
▁nequiquam	-11.0399
▁fabula	-11.0407
▁crush	-11.0418
▁rite	-11.0418
▁bury	-11.0418
▁beaten	-11.0419
▁pacific	-11.042
▁discover	-11.0424
▁Persian	-11.0428
▁vicini	-11.0438
guard	-11.0452
▁mode	-11.0462
▁Tydeus	-11.0474
▁reflect	-11.0474
▁paucos	-11.0474
▁Gnaeus	-11.0474
▁integri	-11.0474
▁exitium	-11.0476
▁coniurat	-11.0476
▁officii	-11.0477
▁device	-11.0481
▁punish	-11.0491
▁garment	-11.0494
▁reveal	-11.0497
▁dispersi	-11.0505
▁pulsu	-11.0505
▁confession	-11.0511
▁vicina	-11.0513
▁perceive	-11.0519
▁numen	-11.0531
▁condicione	-11.0543
▁deposit	-11.0551
▁populace	-11.0554
▁project	-11.0554
▁relative	-11.0554
▁inclined	-11.0554
▁servum	-11.0554
▁suffrag	-11.0554
▁garden	-11.0554
▁coepta	-11.0554
▁document	-11.0554
▁iudicii	-11.0554
▁owing	-11.0554
▁Although	-11.0555
▁proelii	-11.0555
▁countries	-11.0558
▁countless	-11.0563
▁transport	-11.0563
▁capess	-11.0565
▁pingui	-11.0569
▁guardian	-11.0569
▁dedisse	-11.058
▁pasce	-11.0582
▁deceive	-11.0599
work	-11.0612
▁Further	-11.0634
▁hiberna	-11.0634
▁obedience	-11.0634
▁suprema	-11.0634
▁plurimum	-11.0634
▁blast	-11.0634
▁specios	-11.0634
▁worst	-11.0634
▁cliff	-11.0634
▁laudis	-11.0634
▁devoted	-11.0634
▁departure	-11.0634
▁sinner	-11.0637
▁dederunt	-11.0637
▁cives	-11.0638
▁furious	-11.064
▁veritatis	-11.0643
▁sickness	-11.0643
▁Latium	-11.0647
▁potior	-11.0649
▁nasci	-11.065
▁lamentation	-11.0652
▁Tho	-11.0663
▁vada	-11.0675
▁truce	-11.0699
▁petition	-11.0706
▁vivent	-11.0707
▁Socrates	-11.0714
▁confestim	-11.0714
▁territory	-11.0714
▁thoroughly	-11.0714
▁treason	-11.0714
▁cunning	-11.0714
▁studia	-11.0714
▁Lydia	-11.0714
▁forsitan	-11.0715
▁stop	-11.0718
▁satisfied	-11.0719
▁wept	-11.0723
▁reputa	-11.0727
▁moving	-11.0737
missus	-11.0774
▁Phrygian	-11.0782
▁doctrine	-11.0796
▁maximum	-11.0796
▁obscuri	-11.0796
▁sapiens	-11.0796
▁senecta	-11.0796
▁relax	-11.0796
▁spuma	-11.0797
▁fastidi	-11.0799
▁Marci	-11.0801
▁Aeson	-11.0801
▁reditu	-11.0802
▁maesta	-11.0804
▁cubitorum	-11.0814
▁woe	-11.0814
▁impious	-11.0818
▁profess	-11.0824
▁numine	-11.0825
ought	-11.0831
▁reap	-11.0843
iug	-11.0852
▁expectation	-11.0867
▁arrangement	-11.0878
▁behalf	-11.0878
▁peregrina	-11.0878
▁praefectus	-11.0878
▁slumber	-11.0878
▁salubri	-11.0878
▁cepit	-11.0878
▁grieve	-11.0878
▁reliquo	-11.0878
▁gracious	-11.0878
▁ianua	-11.0878
▁crebro	-11.0878
▁profecti	-11.0878
▁traitor	-11.0878
▁animadverti	-11.0878
▁outrage	-11.0878
▁chaste	-11.0879
▁opulent	-11.0879
▁irre	-11.088
▁Alban	-11.0882
▁ostium	-11.0883
▁urbibus	-11.0887
▁exsequ	-11.0892
▁certamine	-11.0893
▁fletu	-11.0897
▁populat	-11.0922
▁tollit	-11.094
▁historia	-11.095
▁fifteen	-11.096
▁grandfather	-11.096
▁relinqui	-11.096
▁survive	-11.096
▁proposal	-11.096
▁relieve	-11.096
▁tenebras	-11.096
▁studium	-11.096
▁merciful	-11.096
▁vincula	-11.096
▁lacess	-11.096
▁vidua	-11.096
▁Seneca	-11.0961
▁straightway	-11.0961
▁propior	-11.0961
▁discern	-11.0962
▁accordance	-11.0963
▁auxiliaries	-11.0963
▁vulnus	-11.0965
▁Hiero	-11.0968
▁denied	-11.0969
▁Rufi	-11.097
▁densi	-11.0983
▁premit	-11.0985
▁comment	-11.0999
▁recusa	-11.1
▁caesi	-11.1033
8	-11.1044
▁gaudium	-11.1044
▁responsi	-11.1044
▁sweep	-11.1044
▁ultimum	-11.1044
▁maximo	-11.1044
▁wool	-11.1044
▁laurel	-11.1044
▁tarda	-11.1044
▁stout	-11.1044
▁obsidio	-11.1044
▁announce	-11.1048
▁slavery	-11.1052
▁lyre	-11.1054
▁sacrificium	-11.1058
▁repperi	-11.1071
▁Hercule	-11.108
▁Tiber	-11.1094
▁decide	-11.1105
▁priv	-11.1107
▁peccator	-11.111
▁glitter	-11.1128
▁discrimine	-11.1128
▁purchase	-11.1128
▁swallow	-11.1128
▁preparing	-11.1128
▁handmaid	-11.1128
▁begged	-11.1128
▁magnificent	-11.1128
▁vigour	-11.1128
▁prolong	-11.1128
▁sublime	-11.1128
▁satrap	-11.1129
▁defensi	-11.1129
▁abound	-11.1129
▁Iudaea	-11.113
▁Other	-11.1131
▁Filius	-11.1131
▁frena	-11.1135
▁iaci	-11.1135
▁facinus	-11.1138
▁fulgent	-11.1141
▁gestu	-11.1143
▁dominion	-11.1144
▁judgement	-11.1153
▁agni	-11.1159
▁vesc	-11.1173
▁excusa	-11.1204
▁Almighty	-11.1212
▁Julius	-11.1212
▁despatch	-11.1212
▁forgotten	-11.1212
▁praeceperat	-11.1212
▁resolution	-11.1212
▁septuaginta	-11.1212
▁escort	-11.1212
▁fabrica	-11.1212
▁nequaquam	-11.1212
▁nimirum	-11.1212
▁obiecta	-11.1212
▁trench	-11.1212
▁Quippe	-11.1212
▁colloca	-11.1212
▁stagna	-11.1213
▁election	-11.1214
▁temere	-11.1216
▁Assyrians	-11.1218
▁patience	-11.1219
▁acquire	-11.122
▁dreadful	-11.1222
▁affliction	-11.1228
▁daring	-11.1233
▁montium	-11.1237
▁iuveni	-11.1242
▁ambitio	-11.1273
venerit	-11.128
▁Praeterea	-11.1298
▁sprinkle	-11.1298
▁complures	-11.1298
▁oppidi	-11.1298
▁Romulus	-11.1298
▁pronounce	-11.1298
▁bodily	-11.1298
▁proposed	-11.1298
▁vacua	-11.1298
▁burial	-11.1298
▁societate	-11.1298
▁libenter	-11.1298
▁floor	-11.1298
▁Fulvi	-11.1298
▁Thrace	-11.1298
▁eandem	-11.1298
▁redeunt	-11.1298
▁pericula	-11.1299
▁meantime	-11.13
▁futuri	-11.1306
▁Deinde	-11.131
▁raging	-11.131
▁Tunc	-11.1311
▁linger	-11.1317
▁Vesta	-11.132
▁nigh	-11.1327
▁basket	-11.1384
▁catholic	-11.1384
▁energy	-11.1384
▁exploit	-11.1384
▁intellegi	-11.1384
▁monstrous	-11.1384
▁accusator	-11.1384
▁dixerat	-11.1384
▁Gratian	-11.1384
▁aroused	-11.1384
▁Blessed	-11.1384
▁shelter	-11.1384
▁pulchri	-11.1384
▁stick	-11.1385
▁stadia	-11.1385
▁abbot	-11.1385
▁hinder	-11.1385
▁liquor	-11.1385
▁laeva	-11.1385
▁Aeol	-11.1386
▁remarkable	-11.1388
▁government	-11.1392
▁disputa	-11.1398
▁Castor	-11.1409
▁scient	-11.1443
▁animadverte	-11.1471
▁hurried	-11.1471
▁vulneribus	-11.1471
▁aloft	-11.1471
▁daylight	-11.1471
▁affirm	-11.1471
▁entertain	-11.1471
▁barren	-11.1471
▁famula	-11.1471
▁emerge	-11.1472
▁convey	-11.1472
▁frontier	-11.1473
▁perfici	-11.1473
▁regal	-11.1477
▁novem	-11.1477
▁interitu	-11.1478
▁cuncti	-11.1483
▁paulum	-11.1483
▁protest	-11.1484
▁ridge	-11.1492
▁cadent	-11.1528
▁Creta	-11.1534
▁gesti	-11.154
▁sopor	-11.1547
▁impossible	-11.1559
▁whosoever	-11.1559
▁destiny	-11.1559
▁charity	-11.1559
▁ingressi	-11.1559
▁Rhenum	-11.1559
▁defini	-11.1559
▁utroque	-11.1563
▁wax	-11.1567
▁exempt	-11.1568
▁dimisit	-11.1574
▁impell	-11.1574
▁impie	-11.1575
▁imbri	-11.1579
▁detract	-11.158
▁final	-11.1627
▁Mucianus	-11.1647
▁approval	-11.1647
▁deinceps	-11.1647
▁episcopatu	-11.1647
▁skilful	-11.1647
▁consequence	-11.1647
▁calumnia	-11.1647
▁fratrum	-11.1647
▁attract	-11.1648
▁locks	-11.1648
▁triple	-11.1648
▁inspect	-11.1649
▁aegre	-11.1649
▁absence	-11.165
▁utilitate	-11.1651
▁exclama	-11.1656
▁Interim	-11.1657
▁pecori	-11.1659
▁Bethel	-11.1659
▁positi	-11.1661
▁appoint	-11.1679
▁vidisti	-11.1695
▁dilecti	-11.1697
▁socer	-11.171
▁reverentia	-11.1732
▁festa	-11.1734
▁Judea	-11.1736
▁despair	-11.1736
▁Valerius	-11.1736
▁admodum	-11.1736
▁jaws	-11.1736
▁maiestatis	-11.1736
▁persuas	-11.1737
▁convoca	-11.1737
▁feeble	-11.1737
▁farther	-11.1737
▁Madian	-11.1737
▁nourish	-11.1737
▁examina	-11.1738
▁Haemon	-11.1739
▁admire	-11.1744
▁dictator	-11.1744
▁cubili	-11.1745
▁resort	-11.1746
▁tertium	-11.1748
▁introitu	-11.1765
▁papa	-11.1772
▁stude	-11.1776
▁domui	-11.1794
▁expedition	-11.1799
▁praecipi	-11.1817
▁applied	-11.1827
▁ceciderunt	-11.1827
▁praeceptum	-11.1827
▁Britons	-11.1827
▁contigit	-11.1827
▁sesterces	-11.1827
▁proprie	-11.1827
▁dissolu	-11.1827
▁filth	-11.1827
▁Before	-11.1827
▁Hinc	-11.1827
▁duabus	-11.1827
▁diminish	-11.1827
▁rescue	-11.1827
▁custos	-11.1827
▁miracle	-11.1828
▁umeris	-11.1828
▁constat	-11.183
▁pericli	-11.1831
▁aperto	-11.1832
▁belly	-11.1833
▁rabie	-11.1833
▁scene	-11.1834
▁rays	-11.1835
▁concilia	-11.185
▁finish	-11.1861
▁debent	-11.1885
▁eloquent	-11.1887
▁melt	-11.1893
S	-11.1894
▁incest	-11.1898
currunt	-11.1911
▁extremum	-11.1917
▁tabernaculo	-11.1917
▁terminos	-11.1917
▁vocibus	-11.1917
▁volucri	-11.1917
▁praefecto	-11.1918
▁consolation	-11.1918
▁leaf	-11.1918
▁nusquam	-11.1918
▁fortress	-11.1918
▁grandson	-11.1918
▁quendam	-11.1919
▁foremost	-11.1919
▁ponto	-11.1919
▁abrupt	-11.1919
▁tange	-11.1921
▁earned	-11.1921
▁trahit	-11.1921
▁occurrit	-11.1922
▁vestimenta	-11.1924
ducere	-11.193
▁adulteri	-11.1934
▁communicat	-11.1951
▁standard	-11.1988
ssimos	-11.2009
▁arrogant	-11.2009
▁egregia	-11.2009
▁incarnation	-11.2009
▁iuventus	-11.2009
▁principle	-11.2009
▁recepit	-11.2009
▁septentrio	-11.2009
▁martyr	-11.2009
▁iuvenum	-11.2009
▁desuper	-11.2009
▁climb	-11.2009
▁caterva	-11.2009
▁viscera	-11.2009
▁Rutuli	-11.2009
▁aliquem	-11.2009
▁recipere	-11.201
▁absolv	-11.201
▁spectacle	-11.201
▁nuntii	-11.2011
▁rope	-11.2012
▁Philotas	-11.2014
▁commeatu	-11.2015
▁Numida	-11.2015
▁information	-11.2018
▁priusquam	-11.2019
▁demonstrat	-11.2033
▁Parthi	-11.2053
▁impunit	-11.2071
▁comitatu	-11.2072
▁irru	-11.2078
▁presbyter	-11.2102
▁anywhere	-11.2102
▁driving	-11.2102
▁maximi	-11.2102
▁difficile	-11.2102
▁officium	-11.2102
▁propositi	-11.2102
▁umero	-11.2103
▁awake	-11.2103
▁conlocat	-11.2103
▁gratitude	-11.2104
▁undertake	-11.2105
▁strengthened	-11.211
▁extru	-11.2112
▁infra	-11.2114
▁condicio	-11.2118
▁incumb	-11.2139
▁quingen	-11.2157
▁firmament	-11.2186
▁Alamanni	-11.2195
▁Perdicca	-11.2195
▁neigh	-11.2195
▁Lentulus	-11.2195
▁Olympi	-11.2195
▁leisure	-11.2195
▁rebuke	-11.2195
▁schola	-11.2195
▁conscious	-11.2195
▁civibus	-11.2195
▁corripi	-11.2195
▁proximus	-11.2195
▁righteous	-11.2196
▁keen	-11.2196
▁passuum	-11.2196
▁detail	-11.2196
clad	-11.2197
▁abstulit	-11.2197
▁verbera	-11.2198
▁luxury	-11.2202
▁optime	-11.2202
▁catena	-11.2203
▁defle	-11.2204
▁nurse	-11.2206
▁Phrygia	-11.2211
▁sollerti	-11.2215
▁imbu	-11.2216
▁cognatione	-11.2221
▁indict	-11.2227
▁gap	-11.2235
▁celeritate	-11.2276
iungi	-11.2286
▁arrogance	-11.229
▁tyranni	-11.229
▁unworthy	-11.229
▁hurry	-11.229
▁ignota	-11.229
▁married	-11.229
▁custode	-11.229
▁meadow	-11.229
▁laudibus	-11.229
▁prostrate	-11.229
▁psalm	-11.229
▁remnant	-11.229
▁alacri	-11.229
▁ministri	-11.229
▁fertile	-11.229
▁sacer	-11.229
▁proficisci	-11.2291
▁beheld	-11.2291
▁orientem	-11.2291
▁sordid	-11.2291
▁clay	-11.2291
▁altius	-11.2291
▁forbidden	-11.2291
▁imminent	-11.2291
▁reversi	-11.2291
▁Tarpei	-11.2292
▁decline	-11.2292
▁pertinaci	-11.2293
▁practise	-11.2294
▁celsi	-11.2298
▁sudor	-11.2306
▁adhibe	-11.232
sumpsit	-11.2335
scripsi	-11.2335
▁maesti	-11.2339
fusus	-11.2352
▁fratre	-11.2354
▁urn	-11.2366
stained	-11.237
▁Pudentilla	-11.2385
▁advancing	-11.2385
▁treasury	-11.2385
▁negotium	-11.2385
▁pietas	-11.2385
▁revolution	-11.2385
▁virtutibus	-11.2385
▁Batavi	-11.2385
▁strive	-11.2385
▁penates	-11.2386
▁perinde	-11.2386
▁raising	-11.2387
▁Priam	-11.2387
▁worshipped	-11.2388
▁naval	-11.239
▁sanctus	-11.239
▁aquila	-11.2391
▁flies	-11.2395
▁creep	-11.2399
▁advena	-11.2401
▁ambitu	-11.2402
▁Theban	-11.2405
▁novel	-11.2421
consul	-11.2456
▁Thracian	-11.2481
▁oriental	-11.2481
▁sepulchre	-11.2481
▁Kal	-11.2481
▁pelago	-11.2481
▁companies	-11.2481
▁pulchra	-11.2481
▁Nicanor	-11.2481
▁longitudine	-11.2481
▁recepta	-11.2481
▁cupido	-11.2481
▁weather	-11.2481
▁compell	-11.2481
▁stiff	-11.2482
▁barrier	-11.2482
▁senex	-11.2482
▁wearied	-11.2483
▁devised	-11.2484
▁busy	-11.2488
▁engagement	-11.2488
▁frumenta	-11.249
▁exhortation	-11.2499
▁pendent	-11.25
▁tumult	-11.2547
▁Demetrius	-11.2578
▁Domitian	-11.2578
▁sexaginta	-11.2578
▁Flaccus	-11.2578
▁irrita	-11.2578
▁subdued	-11.2578
▁exercita	-11.2578
▁barley	-11.2578
▁clausa	-11.2578
▁study	-11.2578
▁hospita	-11.2578
▁Iudaeorum	-11.2579
▁interrupt	-11.2579
▁devasta	-11.2579
▁shift	-11.2579
▁whereby	-11.2579
▁Fear	-11.2579
▁oleum	-11.2579
▁tertius	-11.2579
▁amplexu	-11.2579
▁clasp	-11.258
▁medica	-11.258
▁Musa	-11.2581
▁Hunc	-11.2581
▁interficere	-11.2582
▁fluvio	-11.2583
▁Sept	-11.2617
▁endeavour	-11.2676
▁saints	-11.2676
▁swore	-11.2676
▁furnace	-11.2676
▁repair	-11.2676
ceperit	-11.2678
▁profane	-11.2679
▁causis	-11.268
▁Lerna	-11.2681
▁cheer	-11.2682
▁coniung	-11.2697
▁expet	-11.2716
though	-11.2716
▁habuisse	-11.2733
▁fornica	-11.2739
▁branch	-11.2745
▁Already	-11.2775
▁Cappadocia	-11.2775
▁Neptune	-11.2775
▁bracchia	-11.2775
▁injury	-11.2775
▁Furthermore	-11.2775
▁yellow	-11.2775
▁wheat	-11.2775
▁Bacchi	-11.2775
▁voluptate	-11.2775
▁peperit	-11.2775
▁liceat	-11.2775
▁puppe	-11.2776
▁sculp	-11.2776
▁oleo	-11.2777
▁migra	-11.2777
▁auctoritas	-11.2778
▁cheerful	-11.2779
▁robora	-11.2779
▁congress	-11.278
▁vibra	-11.2782
▁admone	-11.2793
▁establish	-11.2818
▁subvert	-11.2838
▁adpropinqu	-11.2875
▁clemency	-11.2875
▁comprehend	-11.2875
▁opposition	-11.2875
▁perfidia	-11.2875
▁propugna	-11.2875
▁publish	-11.2875
▁sluggish	-11.2875
▁primordia	-11.2875
▁repugn	-11.2875
▁artifice	-11.2875
▁disdain	-11.2875
▁surname	-11.2875
▁constituti	-11.2875
▁pleasant	-11.2875
▁mucro	-11.2875
▁renova	-11.2875
▁veterum	-11.2876
▁saxis	-11.2876
▁armenta	-11.2877
▁fortiter	-11.2879
▁mundus	-11.2879
▁fastened	-11.288
▁exitio	-11.288
▁complexu	-11.288
▁gerere	-11.2882
▁comperi	-11.2886
▁benediction	-11.2929
▁eloqu	-11.2939
K	-11.2976
▁discrimina	-11.2976
▁paulisper	-11.2976
▁swollen	-11.2976
▁aliquotiens	-11.2976
▁caligine	-11.2976
▁declara	-11.2976
▁continually	-11.2976
▁integra	-11.2976
▁bribe	-11.2977
▁eripi	-11.2977
▁itineris	-11.2977
▁prohibit	-11.2977
▁stopped	-11.2977
▁proprio	-11.2978
▁bolt	-11.2978
▁Interea	-11.2981
▁freta	-11.2981
▁collapse	-11.2982
▁pila	-11.2985
▁coerce	-11.2985
▁altior	-11.2988
struxit	-11.2989
▁perhibe	-11.2996
▁aperti	-11.3014
▁cognati	-11.3059
foot	-11.3063
▁Aemilia	-11.3075
▁baptism	-11.3078
▁confounded	-11.3078
▁episcopo	-11.3078
▁praecipue	-11.3078
▁reliquum	-11.3078
▁shudder	-11.3078
▁executed	-11.3078
▁cognitu	-11.3078
▁virtutum	-11.3078
▁celsa	-11.3078
▁Lacedaemonians	-11.3078
▁senatorial	-11.3078
▁Abimelech	-11.3078
▁Will	-11.3078
▁proinde	-11.3079
▁release	-11.3079
▁traverse	-11.3079
▁redeem	-11.308
▁intercept	-11.308
▁quantus	-11.3081
▁expense	-11.3081
▁turpe	-11.3081
▁sermonibus	-11.3081
▁suppress	-11.3081
▁amictu	-11.3082
▁priesthood	-11.3082
beginnings	-11.3094
▁ror	-11.3158
▁actual	-11.316
▁accompanied	-11.3181
▁deprived	-11.3181
▁verecundia	-11.3181
▁Ghost	-11.3181
▁refresh	-11.3181
▁negotii	-11.3181
▁nuntius	-11.3181
▁lavish	-11.3182
▁Jason	-11.3182
▁reverend	-11.3183
▁conforta	-11.3183
▁responderunt	-11.3184
▁foster	-11.3185
▁optat	-11.3211
hearted	-11.3284
▁extraordinary	-11.3285
▁obsecro	-11.3285
▁propinquo	-11.3285
▁sceptre	-11.3285
▁swept	-11.3285
▁artifici	-11.3285
▁praesertim	-11.3285
▁voluptas	-11.3285
▁duplici	-11.3285
▁unwilling	-11.3285
▁thread	-11.3285
▁precedent	-11.3286
▁generous	-11.3286
▁cherish	-11.3286
▁sustenta	-11.3286
▁contamina	-11.3286
▁exhibit	-11.3286
▁motive	-11.3286
▁peak	-11.3286
▁echo	-11.3287
▁entreaties	-11.3288
▁cruenta	-11.3289
▁dederat	-11.3289
▁caeca	-11.3293
▁conversi	-11.3296
▁occasu	-11.3301
▁adulation	-11.3307
▁rhetoric	-11.3307
▁dispute	-11.331
▁steer	-11.3312
▁realize	-11.3323
▁sigh	-11.333
▁repute	-11.3352
▁perturba	-11.3359
▁argento	-11.3391
▁Hasdrubal	-11.3391
▁naught	-11.3391
▁ulcisc	-11.3391
▁Octavia	-11.3391
▁blaze	-11.3391
▁recupera	-11.3391
▁Huius	-11.3391
▁fluctibus	-11.3391
▁urbs	-11.3391
▁smell	-11.3391
▁manifold	-11.3391
▁despici	-11.3391
▁engine	-11.3391
▁fowl	-11.3391
▁dispatch	-11.3391
▁trample	-11.3392
▁Bessus	-11.3392
▁prorsus	-11.3392
▁aspice	-11.3392
▁lorica	-11.3394
▁mediocri	-11.3397
▁cohibe	-11.3397
▁wretch	-11.344
▁indole	-11.3459
6	-11.3475
mitteret	-11.3487
▁repete	-11.3495
▁Assyriorum	-11.3497
▁Phoebe	-11.3497
▁adulescens	-11.3497
▁baptiza	-11.3497
▁ceremonies	-11.3497
▁gospel	-11.3497
▁septimo	-11.3497
▁structure	-11.3497
▁disclose	-11.3497
▁exchange	-11.3497
▁slept	-11.3497
▁itineribus	-11.3497
▁include	-11.3497
▁Like	-11.3497
▁dextro	-11.3497
▁ullum	-11.3497
▁Gabaa	-11.3498
▁dried	-11.3498
▁flourish	-11.3498
▁vitiis	-11.3501
▁repetit	-11.3501
▁meminisse	-11.3502
▁rupi	-11.3505
▁Carthagini	-11.354
bearing	-11.3583
▁porticu	-11.3601
▁hazard	-11.3605
▁Agricola	-11.3605
▁Helvetii	-11.3605
▁Would	-11.3605
▁anointed	-11.3605
▁appease	-11.3605
▁believing	-11.3605
▁entrails	-11.3605
▁ignominia	-11.3605
▁intelligence	-11.3605
▁meanwhile	-11.3605
▁voyage	-11.3605
▁whilst	-11.3605
▁umbris	-11.3605
▁convenire	-11.3605
▁wreath	-11.3605
▁conversus	-11.3605
▁Hippo	-11.3605
▁Sadoc	-11.3605
▁Micha	-11.3605
▁terribili	-11.3605
▁fortitudo	-11.3605
▁incerta	-11.3605
▁speedily	-11.3605
▁regret	-11.3606
▁morbi	-11.3606
▁besought	-11.3606
▁Bruti	-11.3606
▁admove	-11.3609
▁circumfer	-11.3609
▁temera	-11.3609
▁picture	-11.361
▁conscend	-11.3612
▁detrah	-11.3614
▁hilar	-11.3616
▁remitte	-11.365
▁engage	-11.3671
range	-11.3691
▁Crete	-11.3697
▁Catilina	-11.3713
▁Jeroboam	-11.3713
▁Treviri	-11.3713
▁brilliant	-11.3713
▁perpetuo	-11.3713
▁scourge	-11.3713
▁Hieroboam	-11.3713
▁obsecra	-11.3713
▁represent	-11.3713
▁ivory	-11.3713
▁Alcides	-11.3713
▁twist	-11.3713
▁striking	-11.3713
▁Rufus	-11.3714
▁conclude	-11.3714
▁Secund	-11.3714
▁South	-11.3714
▁plurimo	-11.3714
▁Pontus	-11.3714
▁tantus	-11.3714
▁injure	-11.3715
▁repay	-11.3715
▁convinc	-11.3716
▁caeci	-11.3726
▁Satan	-11.3734
▁fallaci	-11.3775
miserat	-11.3778
▁ponit	-11.3781
▁Octavius	-11.3823
▁conspiracy	-11.3823
▁erubesc	-11.3823
▁praevarica	-11.3823
▁sabbati	-11.3823
▁Cremona	-11.3823
▁ministry	-11.3823
▁suburbs	-11.3823
▁Regulus	-11.3823
▁furrow	-11.3823
▁outcome	-11.3823
▁colony	-11.3823
▁hapless	-11.3823
▁adultery	-11.3823
▁maiestate	-11.3823
▁chair	-11.3823
▁blue	-11.3824
▁Triton	-11.3824
▁cibum	-11.3824
▁quercu	-11.3824
▁fray	-11.3825
▁aestimat	-11.3825
▁arvis	-11.3827
▁affair	-11.3859
▁delib	-11.3865
wood	-11.3912
▁previous	-11.3913
▁ancestral	-11.3934
▁encounter	-11.3934
▁exprobra	-11.3934
▁hereafter	-11.3934
▁iracundia	-11.3934
▁pietatis	-11.3934
▁prophesy	-11.3934
▁testimonii	-11.3934
▁universum	-11.3934
▁clipeo	-11.3934
▁cognito	-11.3934
▁decerne	-11.3934
▁dissension	-11.3934
▁voluptati	-11.3934
▁vindicta	-11.3934
▁phase	-11.3934
▁machine	-11.3934
▁robbed	-11.3935
▁valor	-11.3935
▁fremitu	-11.3935
▁divitias	-11.3935
▁saevo	-11.3935
▁slope	-11.3936
▁exinde	-11.3936
▁glide	-11.3936
▁Aedil	-11.3936
▁Cinna	-11.3936
▁snare	-11.3938
▁Tigri	-11.3939
▁fervent	-11.3949
▁plumb	-11.3949
▁Poeno	-11.3968
▁cassi	-11.3978
▁pondera	-11.3988
▁refrain	-11.4047
▁Friend	-11.4047
▁Through	-11.4047
▁Vitellio	-11.4047
▁allegiance	-11.4047
▁associate	-11.4047
▁drank	-11.4047
▁pleraque	-11.4047
▁litterarum	-11.4047
▁magnifica	-11.4047
▁verumtamen	-11.4047
▁maximus	-11.4047
▁clamour	-11.4047
▁ambush	-11.4047
▁antiquo	-11.4047
▁vocis	-11.4047
▁procella	-11.4047
▁Still	-11.4047
▁quarto	-11.4047
▁Hanc	-11.4048
▁pleasing	-11.4048
▁tail	-11.4048
▁Maximi	-11.4048
▁lodge	-11.4049
▁Basan	-11.4049
▁Woe	-11.4051
▁instiga	-11.4057
▁profici	-11.4096
P	-11.4138
▁ostendi	-11.4138
▁Bactrian	-11.416
▁Zabulon	-11.416
▁sprung	-11.416
▁steadfast	-11.416
▁amazed	-11.416
▁ardour	-11.416
▁subiecta	-11.416
▁septima	-11.416
▁undertaking	-11.416
▁oculorum	-11.416
▁fourteen	-11.416
▁mortar	-11.416
▁effusi	-11.416
▁licence	-11.4161
▁female	-11.4161
▁Amalec	-11.4161
▁praefecti	-11.4161
▁remedy	-11.4163
▁veneno	-11.4165
▁occisi	-11.4185
▁restitue	-11.4186
venerat	-11.4211
▁resona	-11.4241
▁defile	-11.4241
▁dye	-11.4256
will	-11.4256
▁distinct	-11.4263
▁discrimen	-11.4275
▁monasterii	-11.4275
▁monasterium	-11.4275
▁Delphi	-11.4275
▁distributi	-11.4275
▁plebs	-11.4275
▁profundo	-11.4275
▁claude	-11.4275
▁destined	-11.4275
▁knot	-11.4275
▁Rhodi	-11.4275
▁iucundi	-11.4275
▁strove	-11.4276
▁wail	-11.4276
▁Two	-11.4276
▁clausi	-11.4276
▁inimica	-11.4276
▁whereof	-11.4276
▁opperi	-11.4277
▁fortasse	-11.4277
▁telorum	-11.4277
▁crag	-11.4277
▁reverent	-11.4283
cesserat	-11.4312
▁benefac	-11.432
▁chase	-11.4322
▁desist	-11.4356
▁expu	-11.4361
▁Catiline	-11.4391
▁convivium	-11.4391
▁enthusiasm	-11.4391
▁ieiuni	-11.4391
▁opposing	-11.4392
▁lascivi	-11.4392
▁Tarquin	-11.4392
▁quantity	-11.4392
▁instaura	-11.4392
▁window	-11.4392
▁rogo	-11.4392
▁columba	-11.4392
▁servitute	-11.4392
▁float	-11.4393
▁ecclesiastic	-11.4393
▁immane	-11.4394
▁remind	-11.4394
▁constitui	-11.4394
▁scriptura	-11.4397
▁palude	-11.4397
▁Simul	-11.4397
▁Laurenti	-11.44
▁abunde	-11.4403
▁alliga	-11.4439
▁civitati	-11.444
▁lapsu	-11.4453
▁Natura	-11.4473
▁approve	-11.4475
▁oppose	-11.4475
▁plea	-11.4489
▁abesse	-11.4494
▁Nevertheless	-11.4509
▁constituta	-11.4509
▁locuplet	-11.4509
▁stipula	-11.4509
▁Treboni	-11.4509
▁piety	-11.4509
▁effunde	-11.4509
▁resentment	-11.4509
▁Sibyl	-11.4509
▁pelagi	-11.4509
▁progenie	-11.4509
▁harlot	-11.4509
▁features	-11.4509
▁perpetra	-11.4509
▁quality	-11.4509
▁aeterni	-11.4509
▁iugula	-11.451
▁iusserat	-11.451
▁anchor	-11.451
▁distract	-11.4511
▁wrest	-11.4511
▁infesta	-11.4511
▁bay	-11.4512
▁fulgor	-11.4515
▁certior	-11.4517
▁detriment	-11.452
mbros	-11.4543
▁planitie	-11.4549
▁flour	-11.4627
▁Galilee	-11.4628
▁beneficii	-11.4628
▁blazing	-11.4628
▁constellation	-11.4628
▁hallowed	-11.4628
▁outstanding	-11.4628
▁privilege	-11.4628
▁reluctant	-11.4628
▁derived	-11.4628
▁exempli	-11.4628
▁situated	-11.4628
▁blade	-11.4628
▁dismay	-11.4628
▁elegant	-11.4629
▁navem	-11.463
▁frange	-11.463
▁sentiment	-11.4632
▁tauro	-11.4633
▁rabid	-11.4633
▁tellure	-11.4638
▁elige	-11.4698
▁nitent	-11.4713
▁capture	-11.4716
▁officia	-11.4729
9	-11.4749
▁blemish	-11.4749
▁dishonour	-11.4749
▁multiplied	-11.4749
▁recommend	-11.4749
▁libidine	-11.4749
▁margin	-11.4749
▁Gaetuli	-11.4749
▁august	-11.4749
▁freedman	-11.4749
▁reckless	-11.4749
▁siquidem	-11.4749
▁plenum	-11.4749
▁nocturna	-11.4749
▁marry	-11.4749
▁ripis	-11.4749
▁continui	-11.4749
▁manipul	-11.4749
▁Nothing	-11.4749
▁smile	-11.475
▁entry	-11.475
▁Ioab	-11.4751
▁abyss	-11.4752
▁anhela	-11.4788
▁monitu	-11.4814
▁proficisce	-11.4818
▁crescent	-11.4827
bearer	-11.4847
▁Assyria	-11.4862
▁Benedict	-11.4871
▁confront	-11.4871
▁Vitellium	-11.4871
▁aforesaid	-11.4871
▁auxilii	-11.4871
▁dehinc	-11.4871
▁importance	-11.4871
▁inimicorum	-11.4871
▁scopuli	-11.4871
▁scopulo	-11.4871
▁sulphur	-11.4871
▁glorified	-11.4871
▁Tuscan	-11.4871
▁coegit	-11.4871
▁Scaurus	-11.4871
▁Hortensi	-11.4871
▁barbarorum	-11.4871
▁equipment	-11.4871
▁necessitas	-11.4871
▁optimum	-11.4871
▁drain	-11.4871
▁odour	-11.4871
▁inflamed	-11.4871
▁respice	-11.4871
▁condidit	-11.4871
▁Earth	-11.4871
▁befall	-11.4871
▁Censor	-11.4871
▁addidit	-11.4871
▁garb	-11.4871
▁Patris	-11.4872
▁commodi	-11.4873
▁atrox	-11.4873
▁proverb	-11.4874
▁glut	-11.4876
▁dubia	-11.4877
▁ventura	-11.4882
▁credul	-11.4885
▁maeror	-11.4891
▁debeat	-11.4895
▁planctu	-11.4929
M	-11.4972
▁Josaphat	-11.4994
▁cuspide	-11.4994
▁lieutenant	-11.4994
▁perpetuum	-11.4994
▁praecipua	-11.4994
▁trepidi	-11.4994
▁wedlock	-11.4994
▁changing	-11.4994
▁fenestra	-11.4994
▁immemor	-11.4994
▁singulorum	-11.4994
▁altitudo	-11.4994
▁armiger	-11.4994
▁unaware	-11.4994
▁refugi	-11.4994
▁incertum	-11.4994
▁mitiga	-11.4994
▁Licini	-11.4994
▁swarm	-11.4994
▁aevum	-11.4994
▁arrest	-11.4994
▁draco	-11.4994
▁tulerunt	-11.4994
▁tauri	-11.4995
▁adflicti	-11.4996
▁fortissimi	-11.4997
▁conscia	-11.4999
▁reverse	-11.5002
▁scuta	-11.5004
▁Poeni	-11.5006
▁subtili	-11.5019
currens	-11.5076
▁contradic	-11.5085
▁appropriate	-11.5119
▁correspond	-11.5119
▁derelinqu	-11.5119
▁frightened	-11.5119
▁infinite	-11.5119
▁injustice	-11.5119
▁nymph	-11.5119
▁pharetra	-11.5119
▁satisfaction	-11.5119
▁Ismahel	-11.5119
▁meridian	-11.5119
▁vocifera	-11.5119
▁Brundisi	-11.5119
▁arbiter	-11.5119
▁eleven	-11.5119
▁nepotes	-11.5119
▁freedmen	-11.5119
▁apply	-11.5119
▁urging	-11.5119
▁afford	-11.5119
▁iugera	-11.5119
▁crack	-11.5119
▁mittam	-11.5119
▁ninth	-11.5119
▁impune	-11.512
▁monstri	-11.5122
▁perfume	-11.5124
▁Aetna	-11.5125
▁pilo	-11.5128
▁fervor	-11.5149
▁committere	-11.5178
▁Iosaphat	-11.5246
▁Sedecias	-11.5246
▁adjoin	-11.5246
▁forefathers	-11.5246
▁pretext	-11.5246
▁provinciis	-11.5246
▁spicula	-11.5246
▁Galgal	-11.5246
▁Zephyr	-11.5246
▁pontifex	-11.5246
▁vocabulo	-11.5246
▁fetters	-11.5246
▁Gabaon	-11.5246
▁brick	-11.5246
▁defensor	-11.5246
▁tentoria	-11.5246
▁prospici	-11.5246
▁hoof	-11.5246
▁Maspha	-11.5246
▁clever	-11.5247
▁tutela	-11.5247
▁crebra	-11.5247
▁crines	-11.5247
▁optimo	-11.5247
▁aegra	-11.5247
▁frumenti	-11.5258
▁erupt	-11.5273
fecerat	-11.5278
▁timui	-11.5294
fixa	-11.5295
▁supplica	-11.5298
▁obitu	-11.5312
servant	-11.5369
▁celebri	-11.5374
▁overflow	-11.5374
▁Claudia	-11.5374
▁Tribune	-11.5374
3	-11.5613
1	-11.5613
O	-11.5881
D	-11.7664
Y	-11.7685
R	-11.9634
/	-12.0699
G	-12.1126
B	-12.1597
[	-12.4677
W	-12.501
*	-13.0253
(	-13.8698
Q	-14.0126
Z	-15.4645
U	-15.4646
J	-15.4647
F	-15.4648
H	-15.4649
`	-15.4649
